#ifndef VOICE_IDENTIFICATION_H
#define VOICE_IDENTIFICATION_H


unsigned int voice_identification_len = 17088;
unsigned char voice_identification[] = {
 0x1c, 0x00, 0x00, 0x00, 0x54, 0x46, 0x4c, 0x33, 0x14, 0x00, 0x20, 0x00,
  0x1c, 0x00, 0x18, 0x00, 0x14, 0x00, 0x10, 0x00, 0x0c, 0x00, 0x00, 0x00,
  0x08, 0x00, 0x04, 0x00, 0x14, 0x00, 0x00, 0x00, 0x1c, 0x00, 0x00, 0x00,
  0x8c, 0x00, 0x00, 0x00, 0xe4, 0x00, 0x00, 0x00, 0x40, 0x27, 0x00, 0x00,
  0x50, 0x27, 0x00, 0x00, 0x0c, 0x42, 0x00, 0x00, 0x03, 0x00, 0x00, 0x00,
  0x01, 0x00, 0x00, 0x00, 0x04, 0x00, 0x00, 0x00, 0xe6, 0xd3, 0xff, 0xff,
  0x0c, 0x00, 0x00, 0x00, 0x1c, 0x00, 0x00, 0x00, 0x3c, 0x00, 0x00, 0x00,
  0x0f, 0x00, 0x00, 0x00, 0x73, 0x65, 0x72, 0x76, 0x69, 0x6e, 0x67, 0x5f,
  0x64, 0x65, 0x66, 0x61, 0x75, 0x6c, 0x74, 0x00, 0x01, 0x00, 0x00, 0x00,
  0x04, 0x00, 0x00, 0x00, 0x90, 0xff, 0xff, 0xff, 0x2b, 0x00, 0x00, 0x00,
  0x04, 0x00, 0x00, 0x00, 0x08, 0x00, 0x00, 0x00, 0x6f, 0x75, 0x74, 0x70,
  0x75, 0x74, 0x5f, 0x30, 0x00, 0x00, 0x00, 0x00, 0x01, 0x00, 0x00, 0x00,
  0x04, 0x00, 0x00, 0x00, 0x56, 0xd4, 0xff, 0xff, 0x04, 0x00, 0x00, 0x00,
  0x0c, 0x00, 0x00, 0x00, 0x6b, 0x65, 0x72, 0x61, 0x73, 0x5f, 0x74, 0x65,
  0x6e, 0x73, 0x6f, 0x72, 0x00, 0x00, 0x00, 0x00, 0x02, 0x00, 0x00, 0x00,
  0x34, 0x00, 0x00, 0x00, 0x04, 0x00, 0x00, 0x00, 0xdc, 0xff, 0xff, 0xff,
  0x2e, 0x00, 0x00, 0x00, 0x04, 0x00, 0x00, 0x00, 0x13, 0x00, 0x00, 0x00,
  0x43, 0x4f, 0x4e, 0x56, 0x45, 0x52, 0x53, 0x49, 0x4f, 0x4e, 0x5f, 0x4d,
  0x45, 0x54, 0x41, 0x44, 0x41, 0x54, 0x41, 0x00, 0x08, 0x00, 0x0c, 0x00,
  0x08, 0x00, 0x04, 0x00, 0x08, 0x00, 0x00, 0x00, 0x2d, 0x00, 0x00, 0x00,
  0x04, 0x00, 0x00, 0x00, 0x13, 0x00, 0x00, 0x00, 0x6d, 0x69, 0x6e, 0x5f,
  0x72, 0x75, 0x6e, 0x74, 0x69, 0x6d, 0x65, 0x5f, 0x76, 0x65, 0x72, 0x73,
  0x69, 0x6f, 0x6e, 0x00, 0x2f, 0x00, 0x00, 0x00, 0x58, 0x26, 0x00, 0x00,
  0x50, 0x26, 0x00, 0x00, 0xf0, 0x25, 0x00, 0x00, 0xa0, 0x25, 0x00, 0x00,
  0x70, 0x25, 0x00, 0x00, 0x60, 0x16, 0x00, 0x00, 0x50, 0x10, 0x00, 0x00,
  0xe0, 0x0f, 0x00, 0x00, 0x80, 0x0f, 0x00, 0x00, 0xf0, 0x02, 0x00, 0x00,
  0xd4, 0x02, 0x00, 0x00, 0xb8, 0x02, 0x00, 0x00, 0x9c, 0x02, 0x00, 0x00,
  0x80, 0x02, 0x00, 0x00, 0x64, 0x02, 0x00, 0x00, 0xb4, 0x01, 0x00, 0x00,
  0x9c, 0x01, 0x00, 0x00, 0x88, 0x01, 0x00, 0x00, 0x70, 0x01, 0x00, 0x00,
  0x5c, 0x01, 0x00, 0x00, 0x54, 0x01, 0x00, 0x00, 0x4c, 0x01, 0x00, 0x00,
  0x44, 0x01, 0x00, 0x00, 0x3c, 0x01, 0x00, 0x00, 0x34, 0x01, 0x00, 0x00,
  0x2c, 0x01, 0x00, 0x00, 0x24, 0x01, 0x00, 0x00, 0x1c, 0x01, 0x00, 0x00,
  0x14, 0x01, 0x00, 0x00, 0x0c, 0x01, 0x00, 0x00, 0x04, 0x01, 0x00, 0x00,
  0xfc, 0x00, 0x00, 0x00, 0xf4, 0x00, 0x00, 0x00, 0xec, 0x00, 0x00, 0x00,
  0xe4, 0x00, 0x00, 0x00, 0xdc, 0x00, 0x00, 0x00, 0xd4, 0x00, 0x00, 0x00,
  0xcc, 0x00, 0x00, 0x00, 0xc4, 0x00, 0x00, 0x00, 0xbc, 0x00, 0x00, 0x00,
  0xb4, 0x00, 0x00, 0x00, 0xac, 0x00, 0x00, 0x00, 0xa4, 0x00, 0x00, 0x00,
  0x9c, 0x00, 0x00, 0x00, 0x94, 0x00, 0x00, 0x00, 0x74, 0x00, 0x00, 0x00,
  0x04, 0x00, 0x00, 0x00, 0x8e, 0xd5, 0xff, 0xff, 0x04, 0x00, 0x00, 0x00,
  0x60, 0x00, 0x00, 0x00, 0x0c, 0x00, 0x00, 0x00, 0x08, 0x00, 0x0e, 0x00,
  0x08, 0x00, 0x04, 0x00, 0x08, 0x00, 0x00, 0x00, 0x10, 0x00, 0x00, 0x00,
  0x28, 0x00, 0x00, 0x00, 0x00, 0x00, 0x06, 0x00, 0x08, 0x00, 0x04, 0x00,
  0x06, 0x00, 0x00, 0x00, 0x04, 0x00, 0x00, 0x00, 0x01, 0x00, 0x00, 0x00,
  0xea, 0x03, 0x00, 0x00, 0x0c, 0x00, 0x18, 0x00, 0x14, 0x00, 0x10, 0x00,
  0x0c, 0x00, 0x04, 0x00, 0x0c, 0x00, 0x00, 0x00, 0x4f, 0xfb, 0x2a, 0xf9,
  0x4b, 0xfb, 0xc0, 0x6b, 0x02, 0x00, 0x00, 0x00, 0x02, 0x00, 0x00, 0x00,
  0x04, 0x00, 0x00, 0x00, 0x06, 0x00, 0x00, 0x00, 0x32, 0x2e, 0x31, 0x39,
  0x2e, 0x30, 0x00, 0x00, 0xfa, 0xd5, 0xff, 0xff, 0x04, 0x00, 0x00, 0x00,
  0x10, 0x00, 0x00, 0x00, 0x31, 0x2e, 0x31, 0x33, 0x2e, 0x31, 0x00, 0x00,
  0x00, 0x00, 0x00, 0x00, 0x00, 0x00, 0x00, 0x00, 0x50, 0xc0, 0xff, 0xff,
  0x54, 0xc0, 0xff, 0xff, 0x58, 0xc0, 0xff, 0xff, 0x5c, 0xc0, 0xff, 0xff,
  0x60, 0xc0, 0xff, 0xff, 0x64, 0xc0, 0xff, 0xff, 0x68, 0xc0, 0xff, 0xff,
  0x6c, 0xc0, 0xff, 0xff, 0x70, 0xc0, 0xff, 0xff, 0x74, 0xc0, 0xff, 0xff,
  0x78, 0xc0, 0xff, 0xff, 0x7c, 0xc0, 0xff, 0xff, 0x80, 0xc0, 0xff, 0xff,
  0x84, 0xc0, 0xff, 0xff, 0x88, 0xc0, 0xff, 0xff, 0x8c, 0xc0, 0xff, 0xff,
  0x90, 0xc0, 0xff, 0xff, 0x94, 0xc0, 0xff, 0xff, 0x98, 0xc0, 0xff, 0xff,
  0x9c, 0xc0, 0xff, 0xff, 0xa0, 0xc0, 0xff, 0xff, 0xa4, 0xc0, 0xff, 0xff,
  0xa8, 0xc0, 0xff, 0xff, 0xac, 0xc0, 0xff, 0xff, 0xb0, 0xc0, 0xff, 0xff,
  0x7a, 0xd6, 0xff, 0xff, 0x04, 0x00, 0x00, 0x00, 0x04, 0x00, 0x00, 0x00,
  0xfd, 0xff, 0xff, 0xff, 0x8a, 0xd6, 0xff, 0xff, 0x04, 0x00, 0x00, 0x00,
  0x08, 0x00, 0x00, 0x00, 0xff, 0xff, 0xff, 0xff, 0x28, 0x00, 0x00, 0x00,
  0x9e, 0xd6, 0xff, 0xff, 0x04, 0x00, 0x00, 0x00, 0x04, 0x00, 0x00, 0x00,
  0x01, 0x00, 0x00, 0x00, 0xae, 0xd6, 0xff, 0xff, 0x04, 0x00, 0x00, 0x00,
  0x08, 0x00, 0x00, 0x00, 0xb2, 0xbb, 0x42, 0xbd, 0xb2, 0xbb, 0x42, 0x3d,
  0xc2, 0xd6, 0xff, 0xff, 0x04, 0x00, 0x00, 0x00, 0xa0, 0x00, 0x00, 0x00,
  0x26, 0x33, 0x09, 0xbf, 0x8b, 0x96, 0xaf, 0xbd, 0x6a, 0x3e, 0xad, 0x3d,
  0x32, 0xbc, 0x0e, 0x3e, 0x88, 0x50, 0x0b, 0xbf, 0x3d, 0x5a, 0xeb, 0x3d,
  0x57, 0x1f, 0xa6, 0x3d, 0x45, 0xda, 0x9e, 0xbd, 0x54, 0x27, 0x4b, 0xbe,
  0xee, 0x4a, 0x4c, 0xbe, 0xe3, 0xf1, 0x87, 0x3e, 0x6a, 0x52, 0x45, 0x3e,
  0xe3, 0xce, 0x99, 0xbe, 0x8c, 0x60, 0x0d, 0xbe, 0x01, 0x88, 0x1a, 0x3f,
  0xd7, 0x3e, 0x31, 0x3b, 0x78, 0xd5, 0x8b, 0xbe, 0x49, 0x22, 0x9d, 0xbe,
  0x5e, 0x9e, 0x5e, 0xbe, 0xb8, 0x2f, 0x99, 0x3e, 0xff, 0xcd, 0x89, 0xbe,
  0x1e, 0xb6, 0x18, 0x3d, 0x84, 0xd3, 0xf7, 0xbd, 0xca, 0xd4, 0x0a, 0xbd,
  0x06, 0xf2, 0x31, 0xbd, 0x6d, 0x67, 0x93, 0xbe, 0xfa, 0x65, 0x11, 0x3f,
  0x5b, 0xbb, 0xdc, 0x3d, 0x06, 0xc4, 0x5f, 0x3d, 0xf8, 0xc2, 0xb6, 0x3e,
  0xbd, 0x5d, 0xca, 0x3c, 0xa9, 0x26, 0x1c, 0x3f, 0x40, 0xa6, 0x15, 0x3d,
  0x1e, 0xbb, 0x15, 0x3f, 0xf1, 0x39, 0x4a, 0xbe, 0xed, 0x18, 0x15, 0xbf,
  0x40, 0xe5, 0x73, 0x3d, 0x14, 0x08, 0xcf, 0x3e, 0x7c, 0x07, 0x15, 0x3f,
  0x28, 0x9a, 0xd4, 0x3e, 0x6e, 0xd7, 0xff, 0xff, 0x04, 0x00, 0x00, 0x00,
  0x0c, 0x00, 0x00, 0x00, 0xff, 0xff, 0xff, 0xff, 0x10, 0x00, 0x00, 0x00,
  0x08, 0x00, 0x00, 0x00, 0x86, 0xd7, 0xff, 0xff, 0x04, 0x00, 0x00, 0x00,
  0x0c, 0x00, 0x00, 0x00, 0xff, 0xff, 0xff, 0xff, 0x08, 0x00, 0x00, 0x00,
  0x08, 0x00, 0x00, 0x00, 0x9e, 0xd7, 0xff, 0xff, 0x04, 0x00, 0x00, 0x00,
  0x0c, 0x00, 0x00, 0x00, 0xff, 0xff, 0xff, 0xff, 0x08, 0x00, 0x00, 0x00,
  0x10, 0x00, 0x00, 0x00, 0xb6, 0xd7, 0xff, 0xff, 0x04, 0x00, 0x00, 0x00,
  0x0c, 0x00, 0x00, 0x00, 0xff, 0xff, 0xff, 0xff, 0x04, 0x00, 0x00, 0x00,
  0x10, 0x00, 0x00, 0x00, 0xce, 0xd7, 0xff, 0xff, 0x04, 0x00, 0x00, 0x00,
  0x0c, 0x00, 0x00, 0x00, 0xff, 0xff, 0xff, 0xff, 0x04, 0x00, 0x00, 0x00,
  0x14, 0x00, 0x00, 0x00, 0xe6, 0xd7, 0xff, 0xff, 0x04, 0x00, 0x00, 0x00,
  0x80, 0x0c, 0x00, 0x00, 0xad, 0x28, 0xc7, 0x3e, 0xf9, 0xd2, 0xd9, 0x3e,
  0x78, 0x9a, 0xd3, 0xbf, 0xe1, 0x99, 0x8e, 0x3d, 0x37, 0x32, 0x48, 0x3e,
  0xa1, 0x7a, 0x43, 0xbf, 0x38, 0xc2, 0x81, 0x3f, 0xef, 0x57, 0x56, 0xbc,
  0x13, 0x1c, 0x9d, 0xbf, 0x8e, 0x8e, 0xdd, 0x3d, 0x5e, 0x3d, 0x1a, 0xbf,
  0x82, 0x62, 0x39, 0xbf, 0xc3, 0x2e, 0x38, 0x3e, 0x39, 0x37, 0x66, 0xbf,
  0x7d, 0x16, 0x0e, 0xbf, 0x3d, 0x6a, 0x15, 0x3f, 0xec, 0x82, 0xeb, 0xbe,
  0xcd, 0xfa, 0x8f, 0xbe, 0xfa, 0xf0, 0xdf, 0x3f, 0x99, 0x76, 0x45, 0xbf,
  0xa2, 0x97, 0x66, 0xbe, 0xb1, 0x8e, 0xba, 0x3f, 0x19, 0x91, 0x2b, 0x3e,
  0x55, 0x25, 0xa3, 0xbf, 0xf5, 0x73, 0xc6, 0x3e, 0xe0, 0x9e, 0x10, 0x40,
  0x0b, 0x5a, 0x17, 0xbf, 0x82, 0xbb, 0xb2, 0x3f, 0xdd, 0x6f, 0x07, 0x40,
  0x26, 0x1a, 0x56, 0xbf, 0x01, 0x66, 0xa5, 0xbf, 0xd8, 0xe7, 0x8b, 0xbf,
  0x0b, 0x08, 0x51, 0xbf, 0xd7, 0x48, 0xf3, 0x3f, 0x8d, 0x7c, 0x8d, 0xbf,
  0x11, 0xee, 0x60, 0x3f, 0xc7, 0xeb, 0x47, 0x3e, 0x66, 0xf3, 0xcf, 0xbf,
  0x98, 0xf1, 0x18, 0x3f, 0xdb, 0x2d, 0x28, 0x3f, 0xaa, 0x18, 0xf8, 0xbd,
  0xa6, 0x6e, 0xd7, 0x3d, 0x5c, 0x76, 0xb7, 0xbf, 0xdc, 0x98, 0x13, 0x3e,
  0x08, 0x19, 0x42, 0xbd, 0x18, 0xce, 0x69, 0xbf, 0xca, 0x58, 0x1e, 0x3f,
  0xfd, 0x08, 0x91, 0xbd, 0x6b, 0x03, 0xba, 0xbf, 0xb1, 0x38, 0x89, 0x3f,
  0x74, 0xcf, 0xaf, 0x3e, 0x42, 0x74, 0x65, 0xbf, 0x29, 0x00, 0xcd, 0x3e,
  0x13, 0xa1, 0x3c, 0x3e, 0x90, 0x7c, 0xb4, 0xbe, 0x0f, 0x15, 0x63, 0xbf,
  0x68, 0xb9, 0xc3, 0xbd, 0x71, 0xcc, 0xbc, 0xbe, 0x0a, 0x19, 0x6a, 0x3f,
  0x22, 0x74, 0x10, 0x3f, 0x11, 0xb0, 0x34, 0x3f, 0xc7, 0xb4, 0xa6, 0x3f,
  0x51, 0x04, 0x8f, 0xbf, 0x87, 0x5d, 0x70, 0x3f, 0x30, 0x59, 0x81, 0xbf,
  0x77, 0x2e, 0x98, 0x3e, 0x10, 0x9b, 0x2a, 0x3f, 0xbb, 0x71, 0xb0, 0x3f,
  0x1f, 0x2c, 0x67, 0xbf, 0xb5, 0x0f, 0xaa, 0x3f, 0xd0, 0xe6, 0x66, 0x3f,
  0x34, 0x17, 0xdb, 0xbf, 0xab, 0xfb, 0xb0, 0x3f, 0x25, 0x1d, 0x4b, 0x3f,
  0x0b, 0x14, 0xd4, 0xbf, 0x8f, 0xff, 0x6b, 0xbf, 0x09, 0xdf, 0x89, 0xbf,
  0xd1, 0xf1, 0x83, 0xbf, 0xcd, 0x4a, 0xc4, 0xbf, 0xa5, 0x53, 0xce, 0x3f,
  0x4f, 0x0a, 0x55, 0x3e, 0x1a, 0x04, 0xff, 0xbe, 0xdf, 0x84, 0x84, 0x3f,
  0xee, 0x25, 0x33, 0xbe, 0x33, 0x2c, 0x13, 0xbf, 0xf8, 0x16, 0x8e, 0x3f,
  0x27, 0xcf, 0x18, 0x3f, 0x2e, 0x53, 0x17, 0x3e, 0x42, 0x91, 0xcc, 0xbc,
  0x11, 0x3c, 0x1d, 0xbf, 0x1a, 0x66, 0x32, 0x3f, 0x16, 0xb8, 0x97, 0xbf,
  0x8a, 0x91, 0x9e, 0xbf, 0x43, 0x7c, 0x49, 0xbf, 0x61, 0xf1, 0x08, 0xbf,
  0x5b, 0x23, 0xe8, 0xbe, 0x8e, 0x9b, 0x97, 0x3e, 0x34, 0x2b, 0xe4, 0x3e,
  0xfe, 0xec, 0x09, 0xbf, 0x3e, 0x5c, 0xe5, 0xbf, 0x00, 0x27, 0x30, 0xbf,
  0x09, 0xa3, 0x5e, 0xbf, 0x5e, 0x3c, 0xad, 0xbf, 0x90, 0xeb, 0x80, 0xbd,
  0xd6, 0xf7, 0x20, 0x3e, 0x4b, 0x43, 0x5b, 0xbf, 0xd9, 0x73, 0x7e, 0xbf,
  0x8c, 0xf7, 0x95, 0x3f, 0x23, 0x67, 0xb9, 0xbf, 0x56, 0x19, 0x3f, 0x3f,
  0xd3, 0x96, 0x81, 0xbf, 0x55, 0xd3, 0xf4, 0xbe, 0x5d, 0x76, 0x0e, 0x3f,
  0xe4, 0xb6, 0x69, 0xbf, 0x70, 0xa5, 0x6c, 0x3e, 0x14, 0x88, 0xdf, 0x3e,
  0x92, 0x48, 0xa9, 0xbf, 0xc3, 0x5f, 0x85, 0x3f, 0xf9, 0xe8, 0xe1, 0xbe,
  0x90, 0x01, 0xd3, 0xbf, 0xf5, 0x4d, 0xe0, 0x3e, 0xa3, 0x12, 0x20, 0xbd,
  0x0c, 0x07, 0x73, 0xbd, 0xa5, 0xa3, 0x5e, 0xbe, 0x7d, 0xe2, 0xd2, 0x3d,
  0x3c, 0x18, 0x58, 0x3e, 0x07, 0x6c, 0x59, 0xbf, 0x7c, 0xb4, 0x96, 0x3d,
  0xa5, 0xa4, 0xdf, 0x3e, 0xdf, 0x73, 0x53, 0xbe, 0x53, 0xac, 0xe3, 0xbe,
  0xe4, 0x50, 0x1a, 0x3f, 0x0d, 0x5e, 0x1d, 0xbf, 0xcd, 0x46, 0xe9, 0xbf,
  0x09, 0x9c, 0xc3, 0x3e, 0xac, 0x29, 0x1b, 0xbe, 0x13, 0xfe, 0x46, 0x3e,
  0x72, 0xcb, 0x42, 0x3d, 0x3c, 0x57, 0xca, 0xbf, 0x7b, 0xf4, 0x4e, 0xbf,
  0x9e, 0x9b, 0x6e, 0x3f, 0x18, 0x4c, 0x1a, 0xbf, 0x47, 0xee, 0x79, 0x3e,
  0x65, 0x10, 0x1f, 0x3f, 0x99, 0xc8, 0xbb, 0xbf, 0x73, 0x8e, 0xd2, 0xbf,
  0x34, 0xff, 0xc6, 0x3c, 0xde, 0x4b, 0xf2, 0x3e, 0x8c, 0x2d, 0x4f, 0xbf,
  0x58, 0x00, 0xa8, 0xbe, 0xe3, 0x4c, 0xc1, 0xbe, 0x38, 0xd2, 0x28, 0x3f,
  0x6b, 0xcd, 0x76, 0x3e, 0x24, 0x3b, 0xef, 0xbd, 0x06, 0xdc, 0x1e, 0x3f,
  0x6b, 0x48, 0x01, 0xc0, 0x0d, 0xbe, 0xd7, 0xbd, 0x82, 0xa6, 0x1b, 0x3f,
  0xb9, 0xed, 0x72, 0xbe, 0x34, 0xe3, 0xa2, 0xbd, 0xc1, 0xbe, 0x04, 0xbf,
  0x99, 0x78, 0xc2, 0xbe, 0x98, 0xcc, 0x41, 0x3f, 0x41, 0x92, 0x67, 0x3e,
  0x2b, 0x55, 0x1b, 0xbf, 0xfd, 0xe0, 0x95, 0xbf, 0x17, 0xc9, 0xe2, 0x3f,
  0x17, 0x09, 0x0f, 0xbf, 0x0e, 0x63, 0x68, 0x3f, 0x1d, 0xa5, 0xa7, 0xbf,
  0x8f, 0x95, 0x82, 0x3e, 0x88, 0x4f, 0x2d, 0xbf, 0xca, 0x62, 0x5b, 0xbf,
  0x48, 0xa6, 0xb5, 0x3f, 0x13, 0xaf, 0xb5, 0x3e, 0xe3, 0x18, 0x7c, 0xbf,
  0x5f, 0xc0, 0x07, 0xbf, 0x49, 0x60, 0xa0, 0x3e, 0xfb, 0x75, 0x64, 0xbe,
  0xb8, 0xd9, 0xdc, 0x3f, 0x7a, 0xcc, 0xd6, 0x3f, 0x7e, 0x2b, 0xe9, 0xbf,
  0x02, 0xf2, 0xd1, 0x3f, 0xb9, 0xb6, 0x6c, 0xbf, 0x95, 0xd2, 0xa7, 0xbf,
  0x63, 0xc3, 0xe9, 0x3f, 0x49, 0xb1, 0x27, 0x3e, 0xac, 0x91, 0xe8, 0x3e,
  0x56, 0x24, 0xc7, 0x3f, 0xb0, 0x75, 0xd7, 0x3f, 0x7f, 0x13, 0xe3, 0xbf,
  0x98, 0x71, 0x39, 0xbf, 0xec, 0xaa, 0x8f, 0xbf, 0x39, 0x03, 0xa6, 0x3d,
  0xd4, 0x59, 0xa3, 0xbf, 0x36, 0xeb, 0x58, 0x3e, 0x5e, 0xbb, 0x69, 0xbe,
  0x0f, 0x0f, 0x7e, 0x3d, 0xe6, 0x44, 0x9a, 0x3f, 0x0a, 0x47, 0xdc, 0x3e,
  0x49, 0xec, 0xf3, 0x3e, 0xc2, 0x77, 0x23, 0xbf, 0x63, 0x22, 0x5e, 0xbf,
  0xc0, 0x2d, 0x98, 0xbf, 0xe4, 0xfe, 0x64, 0xbf, 0x7e, 0x54, 0x2e, 0x3d,
  0x1f, 0xe9, 0x8e, 0x3f, 0x96, 0x7e, 0x72, 0xbe, 0x79, 0xd3, 0x64, 0x3e,
  0x58, 0x36, 0x22, 0x3e, 0x52, 0x3c, 0x59, 0xbf, 0xcf, 0xaf, 0x7a, 0xbe,
  0x51, 0xda, 0x09, 0xbf, 0x68, 0x51, 0x0a, 0xc0, 0x7c, 0x03, 0x08, 0x3e,
  0x4a, 0xe1, 0xa1, 0x3f, 0x4a, 0x33, 0x14, 0x3e, 0xe3, 0x11, 0xc7, 0xbd,
  0xe1, 0x78, 0x04, 0xc0, 0x2b, 0x91, 0xa6, 0xbe, 0x42, 0x10, 0x5b, 0xbe,
  0xc6, 0xc6, 0x2e, 0x3c, 0xb1, 0x7a, 0x49, 0xbf, 0xd3, 0xda, 0xbb, 0x3e,
  0x3a, 0xbd, 0x57, 0xbf, 0xbf, 0x83, 0xb9, 0xbe, 0x95, 0xda, 0x83, 0x3f,
  0xd6, 0x39, 0x21, 0xbf, 0x12, 0x78, 0x88, 0xbf, 0x3c, 0xbc, 0x8c, 0xbe,
  0x2f, 0x79, 0xc4, 0x3e, 0xe4, 0xf9, 0xd8, 0x3f, 0x96, 0xee, 0x9d, 0x3f,
  0x08, 0x99, 0x4a, 0x3f, 0x3e, 0x29, 0x94, 0xbf, 0x26, 0xf5, 0xf4, 0xbf,
  0x37, 0x0f, 0x12, 0xbf, 0x3e, 0xf9, 0x3f, 0x3e, 0xd6, 0xa3, 0xfc, 0xbe,
  0xfb, 0xbc, 0xa4, 0xbf, 0xb1, 0xa2, 0x8b, 0xbf, 0x8e, 0xbe, 0x9f, 0xbe,
  0xf7, 0xa2, 0x39, 0xbf, 0xba, 0x82, 0xb8, 0x3e, 0x31, 0x85, 0xb1, 0x3d,
  0x59, 0x00, 0x67, 0x3d, 0xc8, 0xd6, 0x62, 0x3d, 0xfe, 0x87, 0xed, 0xbe,
  0xe3, 0x7f, 0x34, 0xbf, 0x5a, 0xd0, 0x86, 0x3f, 0xcb, 0x3d, 0x56, 0xbe,
  0xa5, 0xa8, 0x3d, 0x3f, 0x3e, 0xce, 0xb7, 0xbd, 0xce, 0x61, 0x11, 0xbf,
  0x07, 0x2c, 0x9f, 0xbf, 0x9a, 0xb2, 0x18, 0xbd, 0x79, 0xa3, 0x00, 0xbf,
  0x8e, 0xae, 0xe4, 0xbe, 0x7b, 0xbd, 0xb3, 0x3f, 0x7d, 0x7d, 0x4f, 0x3f,
  0x2b, 0x3b, 0x94, 0xbf, 0xb4, 0xbf, 0xbe, 0xbf, 0xe3, 0x23, 0x01, 0x40,
  0x93, 0x0c, 0x11, 0xbf, 0x4b, 0x4a, 0x0a, 0xbd, 0x35, 0x6e, 0x94, 0x3f,
  0x56, 0x4d, 0xe6, 0x3e, 0x1d, 0x45, 0xb8, 0x3f, 0x99, 0x18, 0x48, 0xbe,
  0x67, 0x61, 0x20, 0x3f, 0x14, 0xbe, 0x0c, 0xbf, 0xfd, 0x4b, 0x92, 0x3f,
  0x05, 0xa4, 0xc0, 0xbd, 0x6d, 0x2b, 0xa0, 0xbf, 0xfc, 0xb6, 0x89, 0x3f,
  0x39, 0x49, 0x8d, 0x3f, 0x89, 0xa8, 0x3e, 0xbe, 0xa0, 0xa6, 0x71, 0x3e,
  0xd2, 0xf7, 0xea, 0x3d, 0xbf, 0xbc, 0x76, 0xbf, 0xee, 0x5c, 0x86, 0x3e,
  0x83, 0x7d, 0x21, 0x3f, 0xbd, 0xf5, 0xf2, 0xbf, 0xc9, 0xbe, 0x0e, 0x3f,
  0xdc, 0x01, 0x16, 0xbf, 0x30, 0xb2, 0x05, 0xbf, 0x39, 0x2b, 0xbe, 0xbe,
  0xb6, 0xfa, 0xab, 0x3c, 0xa6, 0x7a, 0x88, 0x3e, 0xd8, 0x61, 0x6c, 0x3c,
  0x30, 0xe0, 0x87, 0xbf, 0x6d, 0xb8, 0x4b, 0xbd, 0xd1, 0xd7, 0x5f, 0x3f,
  0xfb, 0x44, 0x70, 0x3f, 0x80, 0x8c, 0x11, 0xbf, 0x9c, 0x61, 0x91, 0xbd,
  0xb5, 0x59, 0x0a, 0xbf, 0x65, 0x5c, 0x9a, 0xbd, 0x5f, 0xde, 0x08, 0x40,
  0xed, 0xd0, 0x05, 0x3f, 0x10, 0xd8, 0x94, 0xbe, 0xd9, 0xe6, 0xb4, 0x3f,
  0xf0, 0x6c, 0xb4, 0x3f, 0x32, 0x4d, 0xe9, 0x3a, 0xda, 0xc0, 0x9e, 0x3f,
  0x71, 0xf6, 0xfb, 0xbd, 0xff, 0x0c, 0x76, 0xbf, 0x12, 0x4a, 0x9d, 0x3f,
  0x15, 0xb5, 0xeb, 0xbc, 0x65, 0x17, 0xb8, 0x3e, 0x97, 0x21, 0x14, 0x3f,
  0xa1, 0x47, 0x95, 0x3d, 0x56, 0xd9, 0xd6, 0xbe, 0x80, 0x14, 0x12, 0x3f,
  0x68, 0xf0, 0x5d, 0x3f, 0x90, 0x09, 0x04, 0x3f, 0x84, 0x7f, 0xbb, 0x3d,
  0x8a, 0x40, 0x36, 0xbf, 0x3e, 0x26, 0x4c, 0xbf, 0x09, 0x68, 0x05, 0xbe,
  0x83, 0xaf, 0x73, 0x3e, 0x4b, 0xf1, 0x00, 0x3e, 0xe6, 0x94, 0xcb, 0x3e,
  0xaf, 0xdc, 0x1b, 0xbd, 0x24, 0x0f, 0xf9, 0x3e, 0xd1, 0xc7, 0x5b, 0xbf,
  0x35, 0x29, 0xc7, 0x3e, 0xd5, 0xb6, 0x11, 0xbd, 0x60, 0xc8, 0x8b, 0xbe,
  0xa2, 0xcb, 0x3a, 0x3e, 0xa4, 0x54, 0x08, 0xbf, 0xc8, 0x21, 0x10, 0xbf,
  0x44, 0x28, 0x93, 0x3e, 0xff, 0xc9, 0x0b, 0x3f, 0x8e, 0xb3, 0xc3, 0x3d,
  0xea, 0x65, 0x7e, 0x3e, 0xd5, 0x2c, 0x4c, 0xbe, 0x01, 0x2b, 0xb0, 0xbe,
  0xf3, 0x14, 0xd8, 0x3f, 0x2e, 0x24, 0xf7, 0x3e, 0xc7, 0xdf, 0xaf, 0xbd,
  0x68, 0xf1, 0xb0, 0x3f, 0xd2, 0x12, 0x09, 0x3e, 0x14, 0x63, 0xba, 0x3e,
  0xde, 0x05, 0x4f, 0x3f, 0x9a, 0xbf, 0x4f, 0x3e, 0x28, 0x65, 0x58, 0x3f,
  0x42, 0x09, 0x85, 0x3f, 0x28, 0x5b, 0x5a, 0xbe, 0xa6, 0xf0, 0x8c, 0x3e,
  0xb4, 0x62, 0x3f, 0xbf, 0x5f, 0x48, 0x95, 0xbe, 0xc8, 0x27, 0x7b, 0xbe,
  0x16, 0x2a, 0x35, 0xbf, 0x3b, 0x52, 0xea, 0xbd, 0x35, 0xe2, 0x7d, 0x3e,
  0xaf, 0xfb, 0xd1, 0xbe, 0x71, 0x42, 0x10, 0x3f, 0xd2, 0xe2, 0x0d, 0xbf,
  0xe5, 0x11, 0x81, 0x3f, 0xa3, 0x89, 0xf7, 0xbf, 0xee, 0x2e, 0x24, 0x3f,
  0x7b, 0x7e, 0xcc, 0xbf, 0x78, 0x66, 0x53, 0xbf, 0x34, 0xbb, 0xba, 0xbf,
  0x04, 0x9d, 0x8e, 0x3e, 0x38, 0x4c, 0x9c, 0xbf, 0xfb, 0xfb, 0x0a, 0x3e,
  0xc8, 0x1d, 0x32, 0xbf, 0xdc, 0xd8, 0xdb, 0x3f, 0x2f, 0x45, 0x10, 0xc0,
  0x16, 0x7b, 0xa7, 0xbf, 0xcf, 0x97, 0xa6, 0x3f, 0x63, 0x09, 0x03, 0x40,
  0x9d, 0x03, 0xfa, 0x3e, 0xba, 0x62, 0x58, 0xbf, 0x97, 0x66, 0xcc, 0xbc,
  0xda, 0xe1, 0x3a, 0x3d, 0x03, 0xc7, 0x02, 0x3f, 0xd6, 0x82, 0xbb, 0xbf,
  0xa0, 0x85, 0x24, 0x3f, 0x01, 0xf6, 0xf4, 0x3e, 0x63, 0x4a, 0x2a, 0x40,
  0x81, 0xd4, 0xfd, 0xbf, 0x30, 0xf2, 0xe5, 0xbf, 0xf2, 0x9d, 0xa0, 0xbe,
  0xc1, 0x1b, 0x13, 0xc0, 0xf2, 0x51, 0x89, 0xbd, 0x8f, 0xda, 0x03, 0x40,
  0xde, 0xe8, 0x03, 0x3e, 0x09, 0x72, 0xa0, 0xbf, 0xf1, 0x80, 0xa4, 0x3f,
  0x1d, 0xc3, 0xed, 0xbf, 0x34, 0x0e, 0x8e, 0x3f, 0x56, 0x27, 0x7c, 0xbf,
  0xa8, 0x4c, 0x43, 0x3e, 0xe6, 0xe8, 0x94, 0xbf, 0x0d, 0xeb, 0xdb, 0xbf,
  0x1d, 0xb2, 0x98, 0xbe, 0x46, 0xee, 0x0a, 0x40, 0x11, 0x14, 0x76, 0x3f,
  0x17, 0xca, 0x14, 0xbf, 0xe4, 0x4f, 0x2f, 0x3f, 0x90, 0xbc, 0x2a, 0xbf,
  0x40, 0x5c, 0x07, 0x3f, 0x82, 0x29, 0xe2, 0x3e, 0xd9, 0xac, 0x88, 0x3f,
  0x5d, 0x7e, 0x57, 0xbd, 0x16, 0xb8, 0x74, 0x3f, 0xc1, 0x88, 0xaa, 0x3e,
  0x0e, 0x6b, 0xe4, 0x3f, 0xfd, 0xe2, 0x43, 0x3f, 0x3e, 0xb1, 0x76, 0xbf,
  0xdf, 0x8d, 0x8d, 0xbf, 0x1f, 0xdf, 0xfa, 0x3e, 0xf0, 0x97, 0xc3, 0x3f,
  0x1f, 0x09, 0x32, 0x3f, 0x44, 0x2f, 0x13, 0x3e, 0x4e, 0x29, 0x09, 0xbd,
  0x2c, 0x9e, 0xdb, 0xbf, 0xe6, 0xbd, 0x3a, 0x3e, 0xaa, 0x33, 0xc3, 0xbf,
  0xbe, 0x52, 0x47, 0xbf, 0x65, 0x62, 0x33, 0x3e, 0x53, 0xae, 0xb7, 0xbe,
  0x2f, 0x7d, 0xa7, 0xbf, 0x36, 0xe7, 0xbd, 0xbf, 0xea, 0x4c, 0x24, 0xbf,
  0x60, 0x73, 0x21, 0xbe, 0xb3, 0x46, 0x09, 0x3e, 0x07, 0x56, 0x9f, 0x3f,
  0x08, 0xe6, 0xc9, 0x3f, 0x0e, 0x33, 0x6d, 0xbe, 0x06, 0x8a, 0x84, 0xbf,
  0xb0, 0x3f, 0x1f, 0xbf, 0x95, 0x7b, 0x01, 0xbf, 0x20, 0x5a, 0x7a, 0xbf,
  0x05, 0x7e, 0xca, 0x3f, 0x60, 0xc9, 0x17, 0xbf, 0xa0, 0x5c, 0x44, 0xbf,
  0x36, 0xfb, 0x94, 0x3f, 0xcd, 0x37, 0xc8, 0x3f, 0x4c, 0x86, 0x38, 0x3f,
  0xd6, 0x01, 0xc7, 0x3e, 0xac, 0x2d, 0xbd, 0x3f, 0x3e, 0x64, 0xe0, 0xbf,
  0xf1, 0xd3, 0xda, 0xbd, 0xff, 0x5d, 0xd9, 0xbe, 0x8d, 0xa3, 0xe0, 0x3d,
  0x63, 0x8a, 0xb8, 0x3f, 0x7c, 0x2f, 0x0d, 0xc0, 0x0f, 0x83, 0x64, 0x3f,
  0xe6, 0xc9, 0x2e, 0x3f, 0x94, 0x6f, 0x37, 0xbf, 0xfc, 0x72, 0x0f, 0xbf,
  0xe6, 0x4b, 0x64, 0xbf, 0x46, 0xbf, 0x03, 0x3e, 0xef, 0xae, 0xb4, 0x3e,
  0x11, 0xc6, 0xcf, 0x3f, 0x3c, 0x4e, 0x9b, 0x3f, 0xe0, 0x65, 0x96, 0x3d,
  0xb7, 0x88, 0x0b, 0x3f, 0x47, 0xb5, 0x0a, 0x3f, 0x82, 0x61, 0x82, 0xbf,
  0x38, 0xa7, 0xca, 0x3f, 0x25, 0xbc, 0x2b, 0x40, 0x4c, 0x18, 0x21, 0xc0,
  0x9c, 0xf0, 0xc4, 0x3e, 0xe8, 0x18, 0x9f, 0xbe, 0x9a, 0xc9, 0x10, 0xbf,
  0xf4, 0xc1, 0x05, 0xc0, 0x5d, 0x43, 0xf6, 0xbf, 0xba, 0x57, 0x07, 0xbd,
  0xdc, 0x39, 0xa3, 0xbe, 0x80, 0xa9, 0x6f, 0x3f, 0xee, 0x01, 0x98, 0x3f,
  0x90, 0x8d, 0xfa, 0x3f, 0x33, 0xff, 0x8d, 0xbe, 0x5e, 0xa2, 0x74, 0xbf,
  0xfb, 0x54, 0x86, 0x3e, 0x5d, 0x45, 0x82, 0xbe, 0xe7, 0xd9, 0xc3, 0xbe,
  0x63, 0x20, 0x5b, 0x3e, 0x15, 0x84, 0xa4, 0xbd, 0x12, 0xe6, 0xe2, 0x3e,
  0xf7, 0x5d, 0x1d, 0xbe, 0xd5, 0xfa, 0x83, 0x3f, 0x05, 0x16, 0x25, 0xbe,
  0xe6, 0x10, 0x98, 0xbe, 0xd6, 0xdb, 0x3f, 0xbe, 0x15, 0xcc, 0x75, 0xbf,
  0xbe, 0x06, 0x2a, 0x3e, 0x38, 0x91, 0x7d, 0x3f, 0x53, 0xe2, 0xde, 0x3f,
  0x81, 0xf8, 0x02, 0x3f, 0xe6, 0x96, 0x2d, 0xbf, 0xd5, 0x4b, 0x7c, 0xbe,
  0x6d, 0xaa, 0x85, 0xbd, 0x0f, 0x99, 0xa3, 0xbe, 0x71, 0xb1, 0x30, 0xbf,
  0xb4, 0x83, 0x17, 0xbe, 0x50, 0x39, 0x2d, 0xbf, 0x6a, 0x9c, 0x3c, 0xbf,
  0xb9, 0xf7, 0x99, 0xbf, 0x27, 0x11, 0x17, 0xbe, 0x48, 0xe9, 0x2e, 0x3f,
  0x5c, 0x77, 0xab, 0xbe, 0xa7, 0x8d, 0x76, 0x3f, 0x40, 0xc2, 0x0b, 0xbf,
  0xb8, 0x4e, 0xca, 0xbe, 0xb0, 0x9a, 0x3a, 0xbf, 0x92, 0x08, 0x95, 0xbd,
  0x29, 0x1f, 0x2b, 0xbf, 0xa9, 0xb8, 0xba, 0xbf, 0xb8, 0xca, 0xcd, 0xbe,
  0x17, 0x11, 0x3b, 0x3e, 0x64, 0x6c, 0x77, 0x3f, 0x49, 0xd8, 0x57, 0xbf,
  0xbe, 0x14, 0x0a, 0x3f, 0xce, 0x74, 0x9a, 0x3f, 0x89, 0x7d, 0xe8, 0x3d,
  0xae, 0x26, 0x61, 0x3b, 0xec, 0x4b, 0xef, 0xbd, 0xed, 0xca, 0xfc, 0x3e,
  0xd2, 0xf7, 0x60, 0x3f, 0x68, 0xf8, 0x0c, 0x3f, 0x73, 0x10, 0x92, 0x3f,
  0x4c, 0x34, 0xbb, 0xbd, 0x13, 0x6e, 0x84, 0x3f, 0x35, 0x30, 0xa5, 0x3f,
  0x44, 0xa5, 0x07, 0xc0, 0x61, 0xdb, 0x45, 0x3f, 0x14, 0x23, 0xdc, 0x3f,
  0x19, 0xa8, 0x20, 0x40, 0xd7, 0xd8, 0xb2, 0xbf, 0xab, 0x77, 0x0f, 0xbf,
  0xd9, 0x25, 0x1a, 0xbf, 0x6f, 0xa5, 0x85, 0x3f, 0x9c, 0xd4, 0x5e, 0x3f,
  0x93, 0xf2, 0x92, 0x3f, 0xaa, 0x49, 0x3a, 0x3f, 0x68, 0xf4, 0x9c, 0x3e,
  0x29, 0x17, 0x34, 0x40, 0x15, 0xcd, 0x3c, 0xbf, 0x83, 0xca, 0x18, 0xbe,
  0xa2, 0x8a, 0x15, 0x40, 0x9f, 0xcd, 0x5f, 0xbe, 0xda, 0xe8, 0xe1, 0xbf,
  0x62, 0xcc, 0xe4, 0x3e, 0x76, 0x3c, 0xec, 0x3c, 0xd9, 0x6b, 0x78, 0x3f,
  0x1c, 0xb5, 0x0c, 0xc0, 0x5c, 0x24, 0x3b, 0x3e, 0x49, 0xcf, 0xa6, 0xbf,
  0x47, 0xfc, 0xef, 0xbe, 0x0b, 0xc8, 0x3b, 0x3f, 0xd1, 0x3d, 0x2b, 0x3f,
  0x41, 0xb4, 0xcf, 0xbf, 0x54, 0x8e, 0x12, 0x3f, 0x85, 0x6c, 0x97, 0xbd,
  0xa0, 0x99, 0x3b, 0x3f, 0x2a, 0xc5, 0xd3, 0xbf, 0x68, 0x6e, 0x81, 0x3f,
  0xab, 0x5d, 0x8b, 0xbf, 0x9a, 0x44, 0x29, 0xbf, 0x87, 0x1e, 0x87, 0xbf,
  0x9e, 0x20, 0xba, 0x3f, 0x31, 0x5f, 0x5b, 0x3d, 0xbf, 0x51, 0xd9, 0x3f,
  0x45, 0x74, 0x23, 0xbf, 0xdb, 0xbc, 0x30, 0x3f, 0x85, 0x71, 0xd5, 0xbf,
  0x56, 0x5e, 0xa2, 0xbf, 0xa8, 0x4a, 0xc3, 0xbf, 0x30, 0x4e, 0xde, 0x3e,
  0x9d, 0x96, 0xa4, 0x3f, 0x53, 0xbe, 0x21, 0x3f, 0xcb, 0x0a, 0x80, 0x3e,
  0x78, 0xae, 0x10, 0xc0, 0x74, 0xe9, 0x7e, 0x3f, 0x94, 0x99, 0xac, 0x3c,
  0xd0, 0x06, 0x2f, 0x3f, 0x27, 0xf4, 0xef, 0x3e, 0xe3, 0x70, 0xad, 0x3e,
  0x38, 0xa5, 0x27, 0xbe, 0xe9, 0x38, 0x06, 0xc0, 0xba, 0xb8, 0xdd, 0x3f,
  0x36, 0x67, 0xbe, 0x3d, 0xfd, 0xa0, 0x55, 0xbf, 0x23, 0x93, 0xe9, 0xbf,
  0xad, 0x9b, 0xaa, 0xbf, 0xd8, 0x6f, 0x90, 0x3f, 0x9d, 0xf2, 0xdf, 0x3e,
  0xb9, 0xb2, 0x5c, 0x3e, 0x95, 0xcc, 0x94, 0x3f, 0x59, 0x30, 0xef, 0xbf,
  0xfd, 0xab, 0xf4, 0xbf, 0x0d, 0x3a, 0x11, 0x3f, 0x99, 0x31, 0xaa, 0xbf,
  0x85, 0xc9, 0x5e, 0x3f, 0xd2, 0x76, 0x38, 0xbe, 0x41, 0xf7, 0x81, 0xbf,
  0x92, 0x28, 0x71, 0x3f, 0x20, 0xb8, 0x8b, 0xbf, 0xd7, 0xc4, 0x03, 0xc0,
  0xfa, 0x9a, 0x65, 0x3f, 0xbd, 0x0b, 0xc4, 0x3f, 0x79, 0xcf, 0x22, 0x3e,
  0x37, 0x2a, 0x82, 0x3f, 0x68, 0xe4, 0xaa, 0xbf, 0xe1, 0x77, 0xbd, 0x3e,
  0x11, 0x28, 0x68, 0xbf, 0xb8, 0x6a, 0x89, 0x3f, 0x39, 0xb2, 0x1c, 0x3e,
  0xa9, 0x87, 0x9f, 0xbd, 0xa5, 0x78, 0x6c, 0xbe, 0x05, 0x6b, 0x87, 0x3e,
  0x60, 0x72, 0x44, 0x3f, 0xde, 0x16, 0x34, 0xc0, 0xe7, 0xef, 0x45, 0xbf,
  0xb8, 0xa2, 0x1b, 0xbf, 0x42, 0x8f, 0x09, 0xbf, 0x6a, 0x7e, 0x0d, 0xbf,
  0xa7, 0x03, 0x41, 0x3f, 0xb7, 0xb2, 0xc9, 0xbb, 0x91, 0x56, 0x0c, 0xc0,
  0x2f, 0x84, 0x9b, 0x3f, 0x17, 0x0e, 0x9c, 0xbf, 0x68, 0x3d, 0xac, 0xbf,
  0x63, 0x36, 0x5b, 0xbf, 0x86, 0xc1, 0xcc, 0xbf, 0x80, 0x51, 0xef, 0x3d,
  0x90, 0x4f, 0xca, 0x3e, 0xfb, 0x79, 0xea, 0xbf, 0xa8, 0x05, 0x9d, 0x3f,
  0xbf, 0x48, 0x47, 0x3f, 0x09, 0xc6, 0xc1, 0xbf, 0x8f, 0xdf, 0x6d, 0x3f,
  0xa0, 0xc6, 0x78, 0x3d, 0xd6, 0xbc, 0x2a, 0xbf, 0xe1, 0xc7, 0xf8, 0xbd,
  0x0e, 0x6b, 0x48, 0xbd, 0x45, 0xc8, 0xe3, 0x3e, 0xc6, 0xab, 0x74, 0xbf,
  0x3f, 0x75, 0x20, 0x3f, 0x05, 0xf2, 0xa4, 0xbf, 0x50, 0xad, 0x10, 0x3e,
  0xf4, 0x6b, 0x19, 0x3e, 0x63, 0xbc, 0x17, 0xbf, 0x8d, 0xad, 0xc8, 0x3e,
  0xda, 0xc7, 0x59, 0xbf, 0x66, 0xd0, 0x72, 0xbf, 0xaf, 0x61, 0xbb, 0x3f,
  0xb6, 0xe9, 0x0b, 0x40, 0xea, 0x32, 0xca, 0x3e, 0x04, 0x44, 0x82, 0x3e,
  0x7c, 0x8a, 0xf1, 0x3c, 0x27, 0x1f, 0x24, 0x3e, 0xc2, 0x70, 0x08, 0x3f,
  0x9f, 0x03, 0x6e, 0xbf, 0xc4, 0xbf, 0x0b, 0x3e, 0xae, 0x9e, 0x11, 0x3e,
  0x77, 0xb0, 0x93, 0x3e, 0x1f, 0xec, 0x5c, 0xbf, 0xc2, 0x70, 0x90, 0xbf,
  0x52, 0x52, 0x3e, 0x3f, 0x2e, 0xe2, 0xfc, 0xbf, 0x2a, 0xdc, 0x04, 0x3e,
  0xf6, 0x29, 0xd6, 0x3f, 0x7d, 0x64, 0xca, 0x3e, 0x1b, 0x2f, 0xf6, 0x3e,
  0xec, 0x6d, 0x2a, 0x3e, 0x5e, 0xfe, 0x6d, 0xbf, 0x6c, 0x99, 0xe0, 0xbf,
  0x69, 0x05, 0x98, 0xbe, 0xa3, 0x8d, 0xc0, 0x3e, 0x73, 0x50, 0xc2, 0x3f,
  0x04, 0xe4, 0x49, 0x3e, 0xb4, 0x87, 0xc1, 0xbf, 0x86, 0x92, 0x4d, 0xbf,
  0x06, 0x71, 0xff, 0xbf, 0x03, 0x22, 0xd2, 0x3f, 0x72, 0x73, 0x6d, 0x3f,
  0x35, 0x89, 0xa0, 0xbd, 0x53, 0xc6, 0x8a, 0x3f, 0x4d, 0xee, 0x13, 0x3e,
  0x92, 0x0c, 0xb4, 0xbe, 0x2b, 0x74, 0x11, 0x3e, 0x43, 0x59, 0xc0, 0xbe,
  0x10, 0x24, 0x83, 0xbe, 0xc8, 0xe7, 0x23, 0x3f, 0x0b, 0xe3, 0x7b, 0x3f,
  0xbc, 0xed, 0x87, 0x3f, 0xa5, 0x85, 0xd8, 0x3f, 0x3a, 0xa9, 0x5b, 0x3f,
  0x13, 0xd1, 0xd7, 0xbf, 0xfd, 0x91, 0xe1, 0xbe, 0xba, 0x1f, 0xe5, 0xbe,
  0xd0, 0xe1, 0xd0, 0x3f, 0xf4, 0x6d, 0xe2, 0x3d, 0x08, 0x38, 0x0d, 0xbf,
  0x8f, 0xa1, 0xd2, 0x3f, 0x0c, 0x1f, 0x28, 0x40, 0x4b, 0xd0, 0xcc, 0xbe,
  0xad, 0x96, 0xf8, 0x3e, 0x2f, 0xf8, 0xf3, 0xbd, 0x86, 0x77, 0x16, 0x3d,
  0x6b, 0xaa, 0xf4, 0x3f, 0xba, 0x22, 0x85, 0x3f, 0x65, 0xac, 0x16, 0x3f,
  0xef, 0x56, 0x91, 0xbf, 0xd8, 0x66, 0xee, 0xbf, 0x7a, 0x25, 0xde, 0xbe,
  0x46, 0x67, 0x4e, 0x3e, 0x89, 0xa0, 0x80, 0x3f, 0x1c, 0x61, 0x41, 0x3f,
  0x9a, 0xd4, 0xbc, 0x3f, 0x81, 0x68, 0x56, 0xbf, 0x0e, 0x4d, 0xe4, 0xbf,
  0x46, 0xec, 0x4d, 0x3e, 0x7e, 0x7e, 0x21, 0x3f, 0xcc, 0x66, 0x97, 0x3f,
  0xc8, 0xc0, 0x23, 0xbf, 0xaf, 0xad, 0xcb, 0x3f, 0x56, 0x8d, 0x7c, 0xbf,
  0xce, 0x8f, 0x91, 0x3f, 0x2d, 0x69, 0x3e, 0x3c, 0xa1, 0xef, 0x72, 0x3e,
  0x1d, 0x18, 0xb2, 0xbe, 0xea, 0x1f, 0x4c, 0xbf, 0x0e, 0xea, 0x5e, 0xbf,
  0xbf, 0x19, 0xd7, 0x3f, 0x1e, 0x40, 0xab, 0x3f, 0x1c, 0x1f, 0xd2, 0x3f,
  0x03, 0x76, 0x99, 0x3f, 0x01, 0x60, 0xe8, 0xbe, 0x9c, 0x5c, 0x87, 0x3d,
  0xac, 0x23, 0x81, 0x3f, 0x7b, 0x26, 0x2d, 0x40, 0xb5, 0x0a, 0x45, 0x3f,
  0x1e, 0x9f, 0xec, 0x3f, 0x19, 0x66, 0x73, 0xbf, 0xc3, 0x9b, 0xaa, 0x3f,
  0x7b, 0x8c, 0x39, 0xbf, 0x13, 0x36, 0xbe, 0x3f, 0x38, 0x48, 0x3e, 0x3f,
  0x54, 0xb1, 0xd9, 0x3e, 0xf2, 0x4a, 0x38, 0x3d, 0x11, 0x14, 0x84, 0x3f,
  0xb5, 0x9e, 0x94, 0x3f, 0xa9, 0x17, 0x2a, 0x3f, 0x57, 0xa6, 0x0a, 0x3f,
  0xac, 0xe9, 0x8c, 0x3f, 0x59, 0x0e, 0xb0, 0x3f, 0xb0, 0xef, 0x7b, 0x3e,
  0xea, 0x54, 0x51, 0x3f, 0xd2, 0x50, 0x35, 0xbf, 0x7a, 0x76, 0x83, 0xbf,
  0x30, 0x13, 0xab, 0x3f, 0xc9, 0x0b, 0xeb, 0x3f, 0xce, 0xb8, 0x41, 0xbe,
  0xa8, 0x50, 0xd8, 0x3d, 0x2b, 0xed, 0x22, 0xbf, 0x2a, 0x10, 0x2d, 0xbe,
  0xb1, 0x81, 0x80, 0x3e, 0x99, 0x42, 0x3a, 0xbf, 0xd5, 0x92, 0xd3, 0x3e,
  0x30, 0xfd, 0x55, 0xbe, 0x20, 0x68, 0x5f, 0xbf, 0xea, 0x4b, 0x0f, 0x3e,
  0xed, 0xc3, 0x5d, 0xbc, 0xbc, 0x1e, 0x99, 0x3e, 0xc4, 0x48, 0xdc, 0x3e,
  0x2f, 0xd9, 0x75, 0x3f, 0x66, 0x8f, 0xf9, 0xbd, 0x88, 0x64, 0x4b, 0x3d,
  0x7a, 0x62, 0xb6, 0xbd, 0x36, 0xaf, 0x58, 0xbd, 0x9b, 0x11, 0xb8, 0x3e,
  0x04, 0x3e, 0xca, 0x3e, 0xf9, 0xa7, 0x5d, 0x3e, 0x22, 0x53, 0xfd, 0x3d,
  0x9a, 0x50, 0x22, 0xbe, 0x25, 0x24, 0x03, 0x3c, 0x38, 0xd3, 0xd5, 0x3e,
  0x8f, 0x7f, 0x72, 0x3f, 0xf8, 0x55, 0xc2, 0xbe, 0x2c, 0x4f, 0x38, 0xbc,
  0xa8, 0x2d, 0x99, 0x3e, 0xfb, 0x0b, 0xdc, 0x3d, 0x01, 0x1b, 0x43, 0x3d,
  0xd8, 0x05, 0x27, 0x3f, 0xdd, 0x29, 0x93, 0xbe, 0x46, 0xfc, 0x31, 0xbf,
  0xe3, 0x3d, 0xaa, 0xbb, 0x47, 0xbe, 0x51, 0x3f, 0xd2, 0x30, 0xad, 0x3c,
  0x11, 0x15, 0x19, 0xbf, 0x93, 0x75, 0xa2, 0x3e, 0xc8, 0x8b, 0xb0, 0xbe,
  0x72, 0xe4, 0xff, 0xff, 0x04, 0x00, 0x00, 0x00, 0x50, 0x00, 0x00, 0x00,
  0xf3, 0x8b, 0x0e, 0xc1, 0x6f, 0x68, 0xf0, 0x3f, 0xb2, 0x19, 0x1c, 0x41,
  0xb3, 0xd0, 0xfa, 0x40, 0x58, 0x80, 0x74, 0xc0, 0x17, 0x9f, 0x03, 0x41,
  0x5e, 0x0c, 0x8f, 0xc0, 0xd2, 0x81, 0x39, 0xc1, 0x50, 0xa3, 0xfe, 0xc0,
  0x2d, 0x48, 0xfb, 0xbe, 0x8b, 0x0b, 0xc9, 0x3f, 0x1d, 0xbd, 0x8f, 0xc0,
  0xa2, 0x7b, 0x93, 0x40, 0xa4, 0x13, 0x25, 0xc0, 0x84, 0xb2, 0xf9, 0x3f,
  0x24, 0x00, 0x25, 0x41, 0x46, 0x78, 0xc2, 0xbf, 0xbb, 0xe1, 0x23, 0xc1,
  0x97, 0xc9, 0x87, 0xc1, 0xc8, 0xb6, 0x1e, 0xc0, 0xce, 0xe4, 0xff, 0xff,
  0x04, 0x00, 0x00, 0x00, 0x60, 0x00, 0x00, 0x00, 0x2a, 0x47, 0x18, 0x3a,
  0x1a, 0x22, 0x44, 0x3a, 0xa0, 0xa2, 0xef, 0xb9, 0x18, 0x14, 0x6d, 0xba,
  0xdc, 0x46, 0x8b, 0x39, 0x3d, 0x27, 0x07, 0x3a, 0x49, 0x61, 0x0c, 0xba,
  0x46, 0xba, 0x6d, 0xba, 0x5b, 0xa7, 0xaf, 0xb9, 0x57, 0x27, 0x82, 0x37,
  0x17, 0xe7, 0x77, 0xba, 0xc7, 0x3b, 0x81, 0x39, 0x99, 0xa6, 0xc4, 0xb9,
  0x6e, 0xc3, 0x3e, 0x3a, 0xaa, 0xad, 0x3f, 0x3a, 0x90, 0x6a, 0x93, 0xb9,
  0x91, 0xaf, 0x2b, 0xba, 0x44, 0x8d, 0x40, 0x3a, 0xf5, 0x8f, 0x58, 0x3a,
  0x60, 0x4a, 0x9a, 0xb9, 0x81, 0xab, 0x2e, 0xba, 0xc5, 0xe2, 0x01, 0x3a,
  0x94, 0xbf, 0x4e, 0xba, 0xbe, 0xfa, 0xaa, 0xb9, 0x3a, 0xe5, 0xff, 0xff,
  0x04, 0x00, 0x00, 0x00, 0x00, 0x06, 0x00, 0x00, 0x00, 0x5a, 0xc8, 0xbe,
  0x60, 0xd8, 0x0f, 0xbe, 0x95, 0xa7, 0xdd, 0xbd, 0x13, 0x2d, 0x24, 0xbe,
  0x03, 0xc3, 0xb6, 0xbe, 0x65, 0x77, 0xa9, 0xbe, 0xea, 0xcd, 0xad, 0x3e,
  0x34, 0x4c, 0xf1, 0x3d, 0x5b, 0x3e, 0xc2, 0xbd, 0x34, 0x07, 0x32, 0x3e,
  0x7b, 0x04, 0xec, 0x3d, 0xd0, 0xcb, 0x58, 0x3e, 0xc7, 0xff, 0x2d, 0xbe,
  0xa2, 0x79, 0x8e, 0xbe, 0xaa, 0xc0, 0x4d, 0xbe, 0xa9, 0x56, 0x20, 0x3e,
  0x96, 0xee, 0x26, 0x3e, 0x41, 0x58, 0x9b, 0xbe, 0x01, 0x0c, 0xb7, 0xbe,
  0x06, 0xad, 0xbb, 0xbd, 0xe3, 0x30, 0x34, 0xbe, 0x83, 0x35, 0xe6, 0xbd,
  0x47, 0x1f, 0x76, 0x3e, 0x52, 0x7a, 0x99, 0xbd, 0xe3, 0xb4, 0x60, 0x3e,
  0xbb, 0x07, 0x5f, 0xbe, 0x69, 0x59, 0xbd, 0x3d, 0x89, 0xf8, 0xdb, 0x3e,
  0xa5, 0xf6, 0xcb, 0xbe, 0xe1, 0x42, 0x73, 0xbe, 0x8a, 0x1f, 0xb4, 0xbe,
  0x27, 0xc3, 0x07, 0xbe, 0xe9, 0xec, 0xa8, 0x3e, 0x1c, 0x8b, 0xb6, 0xbe,
  0x09, 0xfd, 0xb9, 0x3e, 0x91, 0x5a, 0xc6, 0x3e, 0x83, 0xda, 0x95, 0x3e,
  0x8b, 0x1a, 0x62, 0xbe, 0xac, 0x4e, 0x8c, 0xbe, 0x0b, 0x57, 0xe2, 0xbe,
  0xdb, 0xe1, 0x70, 0xbe, 0xd7, 0x53, 0xd3, 0x3e, 0x3b, 0xfd, 0x98, 0x3e,
  0x9b, 0xca, 0x6b, 0xbe, 0xb6, 0xcf, 0xaa, 0x3e, 0x93, 0x0c, 0x70, 0xbe,
  0x4a, 0x60, 0x83, 0x3e, 0xbb, 0xe9, 0x94, 0xbe, 0xa1, 0xcd, 0xe5, 0x3c,
  0x85, 0xc9, 0x5f, 0x3e, 0xef, 0xd1, 0x6e, 0xbe, 0x94, 0xd0, 0x8c, 0xbd,
  0x5a, 0xbc, 0xdf, 0x3d, 0x4a, 0x74, 0x8f, 0xbe, 0xd7, 0xba, 0x65, 0xbe,
  0x15, 0x9b, 0xbf, 0xbc, 0xec, 0x3a, 0x20, 0xbd, 0x7c, 0x1b, 0x8e, 0x3e,
  0x12, 0x08, 0x23, 0xbe, 0x37, 0xbb, 0x7c, 0xbe, 0x43, 0xd3, 0x2f, 0x3e,
  0xa2, 0x45, 0xc4, 0x3e, 0x45, 0x05, 0x23, 0x3e, 0x61, 0x70, 0x1e, 0x3e,
  0xcd, 0x30, 0xec, 0x3d, 0x12, 0xb3, 0xa1, 0x3d, 0x8a, 0xa4, 0xfe, 0xbd,
  0xb5, 0x6d, 0xc1, 0x3b, 0xd4, 0x04, 0x7b, 0x3e, 0xa7, 0xd5, 0xaa, 0x3e,
  0xa2, 0x3c, 0x96, 0xbe, 0x71, 0x02, 0xa6, 0x3e, 0x77, 0xbd, 0x78, 0xbc,
  0x8f, 0xf3, 0x1d, 0xbe, 0x00, 0x65, 0x94, 0x3e, 0xcd, 0xe7, 0x9d, 0xbe,
  0xdd, 0x66, 0x3f, 0xbe, 0x77, 0x14, 0x2f, 0x3d, 0x72, 0xdc, 0xdd, 0xbe,
  0x3b, 0x19, 0xc0, 0xbe, 0xf5, 0x0f, 0xe2, 0xbc, 0x17, 0x39, 0x21, 0x3e,
  0xe7, 0x77, 0xd2, 0xbe, 0xd3, 0xc9, 0x52, 0xbe, 0xed, 0x8c, 0xbc, 0x3e,
  0x8b, 0x47, 0xca, 0xbe, 0xfc, 0x88, 0x94, 0xbd, 0x2a, 0x09, 0x25, 0x3e,
  0x0d, 0x30, 0xc4, 0xbe, 0x3e, 0xa3, 0x45, 0xbe, 0x4e, 0xe3, 0xf0, 0x3d,
  0x24, 0x77, 0x7f, 0xbd, 0x56, 0x92, 0x18, 0xbe, 0x69, 0x93, 0x68, 0x3e,
  0x39, 0x84, 0xb6, 0xbd, 0x0a, 0x46, 0x7c, 0xbe, 0x99, 0x48, 0x88, 0xbe,
  0x5d, 0x6e, 0x43, 0x3e, 0xd7, 0x10, 0xa9, 0x3a, 0x67, 0x78, 0xd2, 0xbd,
  0x96, 0xc0, 0xef, 0x3c, 0x20, 0x35, 0xdf, 0xbe, 0x03, 0x4f, 0x00, 0xbf,
  0x72, 0x64, 0xbf, 0x3e, 0x7b, 0x68, 0xd0, 0x3d, 0xd2, 0x3d, 0x3c, 0x3d,
  0x1d, 0x76, 0x80, 0xbe, 0x09, 0x4e, 0x95, 0x3e, 0x2b, 0x6a, 0x2e, 0xbe,
  0x32, 0x1e, 0xe2, 0xbe, 0x45, 0xf9, 0x09, 0xbf, 0xac, 0x06, 0x17, 0xbf,
  0x80, 0xf3, 0x30, 0x3f, 0x49, 0xaa, 0xfc, 0x3c, 0x91, 0x56, 0x7e, 0xbf,
  0xa9, 0xe7, 0x01, 0x3f, 0x06, 0x8d, 0xe2, 0xbe, 0x4f, 0x88, 0xbb, 0x3e,
  0x5e, 0x2c, 0x04, 0xbe, 0x16, 0x1f, 0xf2, 0xbe, 0xd4, 0xcb, 0xaa, 0xbe,
  0x52, 0x5e, 0x50, 0x3d, 0x93, 0x2c, 0xa6, 0x3d, 0xdb, 0x89, 0x8d, 0x3e,
  0x30, 0x06, 0x9f, 0x3e, 0x4f, 0x27, 0x3f, 0x3e, 0xe3, 0x43, 0x68, 0xbe,
  0xd6, 0x50, 0x81, 0x3e, 0x86, 0x7e, 0xd6, 0x3c, 0x73, 0x7f, 0x52, 0x3e,
  0xbe, 0x1d, 0x91, 0xbe, 0x28, 0x58, 0xf2, 0x3c, 0xa3, 0x62, 0x9c, 0xbd,
  0x01, 0xd3, 0x82, 0xbe, 0x3e, 0xcd, 0xb1, 0x3d, 0x35, 0xdb, 0x5a, 0x3e,
  0x0b, 0x68, 0xa2, 0x3d, 0x8a, 0x94, 0x69, 0x3d, 0xae, 0x65, 0x1a, 0xbe,
  0xb1, 0x8f, 0xe3, 0xbd, 0x05, 0x65, 0x78, 0xbe, 0x4a, 0xd6, 0x34, 0x3e,
  0xa5, 0xf1, 0x8f, 0x3e, 0x34, 0x29, 0x5b, 0x3d, 0x27, 0x61, 0x01, 0xbc,
  0x56, 0x92, 0x33, 0xbe, 0x91, 0x6c, 0x02, 0x3e, 0x48, 0x16, 0xab, 0x3e,
  0x70, 0xe3, 0x23, 0x3e, 0xcf, 0x11, 0x86, 0x3c, 0x76, 0xa8, 0xad, 0xbe,
  0x33, 0x55, 0x16, 0x3e, 0x19, 0x3a, 0x87, 0x3e, 0x6b, 0x0a, 0x5f, 0x3e,
  0x74, 0x72, 0xb6, 0xbc, 0xd1, 0x3b, 0x00, 0x3e, 0x58, 0xcc, 0x8c, 0xbd,
  0x37, 0x0f, 0x84, 0x3d, 0x40, 0x23, 0x9a, 0x3e, 0x10, 0xd6, 0x3e, 0xbe,
  0xbf, 0x82, 0x6b, 0x3e, 0x68, 0xc6, 0xcc, 0xbe, 0x61, 0x61, 0xa3, 0xbe,
  0x9e, 0xd6, 0x17, 0x3e, 0xa3, 0x2f, 0x4b, 0xbe, 0x54, 0xd0, 0xc0, 0xbe,
  0x8e, 0xb8, 0x88, 0xbe, 0x7a, 0x9a, 0x22, 0xbe, 0xa1, 0x93, 0x45, 0x3f,
  0x5e, 0x5f, 0x80, 0x3f, 0xd0, 0x88, 0xb2, 0xbf, 0x11, 0x66, 0x99, 0xbf,
  0x70, 0x52, 0xbf, 0xbf, 0xa6, 0xd6, 0x29, 0x3f, 0xba, 0xef, 0x80, 0x3e,
  0x70, 0x99, 0x84, 0x3f, 0xf5, 0x31, 0x69, 0x3f, 0x3e, 0x50, 0x37, 0x3f,
  0xe6, 0x09, 0xca, 0xbf, 0xcf, 0xc0, 0x06, 0x3e, 0x81, 0x0a, 0x8c, 0xbe,
  0x16, 0xc2, 0x41, 0xbf, 0x3a, 0xf0, 0x8f, 0xbf, 0x06, 0x28, 0xc0, 0xbe,
  0xd8, 0x6d, 0xfc, 0xbd, 0x53, 0x28, 0x9f, 0xbf, 0x8c, 0x03, 0xbc, 0x3f,
  0xfe, 0x48, 0x70, 0x3f, 0xf6, 0x05, 0x11, 0x3e, 0xe8, 0xdd, 0x80, 0x3f,
  0x0e, 0xf3, 0xdb, 0x3f, 0x22, 0x9b, 0x58, 0x3e, 0x24, 0xbd, 0x88, 0xbe,
  0xf0, 0xb3, 0x9c, 0xbd, 0x1b, 0x74, 0x5c, 0xbe, 0x54, 0x42, 0xe5, 0xbd,
  0xa5, 0x59, 0x4c, 0xbe, 0x64, 0x65, 0x4f, 0xbe, 0x1b, 0x18, 0xa9, 0x3b,
  0x73, 0x1b, 0xac, 0x3e, 0x6b, 0x15, 0xa0, 0xbe, 0x46, 0xe1, 0xc6, 0x3e,
  0x85, 0x8a, 0xa7, 0xbd, 0x86, 0x79, 0xb8, 0x3d, 0x8a, 0x85, 0x6b, 0xbe,
  0x02, 0x71, 0x1e, 0x3e, 0xe1, 0xbf, 0x1f, 0x3d, 0x24, 0xa8, 0x83, 0x3d,
  0x2c, 0x43, 0xd8, 0x3d, 0xb0, 0x73, 0x55, 0xbd, 0x76, 0xf5, 0x60, 0xbd,
  0x4e, 0xa5, 0x52, 0x3d, 0xe6, 0x16, 0x48, 0x3e, 0xa1, 0x1e, 0x34, 0xbe,
  0x4f, 0x2b, 0xac, 0x3e, 0x8a, 0x23, 0x27, 0xbe, 0xc1, 0x0b, 0x9c, 0x3e,
  0x44, 0xf8, 0xcb, 0x3d, 0xbc, 0x24, 0x34, 0xbd, 0xd5, 0xe7, 0x39, 0x3d,
  0x5a, 0x62, 0x7b, 0xbe, 0xf3, 0xe4, 0xf9, 0xbe, 0x43, 0xb7, 0x93, 0x3e,
  0xb6, 0x47, 0x47, 0xbc, 0xa3, 0x12, 0x12, 0x3e, 0xa5, 0x32, 0xc7, 0x3e,
  0x8c, 0x62, 0xaa, 0x3e, 0x7f, 0x56, 0x0e, 0xbe, 0x92, 0x73, 0x7b, 0x3e,
  0x3d, 0x82, 0x85, 0x3e, 0xcb, 0x27, 0x00, 0x3e, 0x1f, 0x0c, 0x9e, 0x3e,
  0xb7, 0xb4, 0xbc, 0x3e, 0x9d, 0x81, 0x78, 0x3e, 0xf1, 0x89, 0x1f, 0x3e,
  0xa8, 0x73, 0x72, 0xbe, 0x49, 0xfd, 0x0a, 0x3e, 0x93, 0x2a, 0x1c, 0xbe,
  0x43, 0xd0, 0xd4, 0xbe, 0x1b, 0xa0, 0x93, 0x3e, 0xf1, 0x10, 0xb4, 0xbe,
  0xc7, 0x5f, 0x42, 0xbe, 0xd2, 0x9c, 0x0b, 0x3c, 0x92, 0x6d, 0xbb, 0xbe,
  0xe8, 0xb9, 0xc4, 0x3d, 0xdd, 0xbf, 0x8b, 0x3e, 0x84, 0x41, 0x8d, 0xbd,
  0xab, 0x08, 0xc7, 0x3c, 0x32, 0x64, 0xb6, 0x3e, 0xb2, 0x07, 0x93, 0x3e,
  0xd5, 0x9f, 0xc9, 0xbe, 0xb8, 0x95, 0xc5, 0x3e, 0xa6, 0x83, 0x9d, 0x3e,
  0x80, 0x88, 0xba, 0xbe, 0xbe, 0x98, 0xf1, 0x3c, 0x67, 0x00, 0x38, 0xbe,
  0x72, 0xb8, 0x9a, 0xbe, 0xef, 0x67, 0xc8, 0xbd, 0x8a, 0x39, 0x89, 0x3d,
  0x1d, 0xcd, 0x99, 0x3e, 0x9c, 0x5d, 0xd4, 0x3e, 0xe0, 0x02, 0x55, 0x3e,
  0xce, 0x58, 0xbf, 0xbe, 0x16, 0xb7, 0xe4, 0xbd, 0xe0, 0x45, 0x1a, 0xbe,
  0x34, 0xcc, 0xd2, 0x3e, 0x3f, 0xe1, 0x84, 0xbe, 0xe5, 0xf8, 0x85, 0x3e,
  0x27, 0xbf, 0xd5, 0x3e, 0x9e, 0x10, 0x05, 0xbf, 0x58, 0x9e, 0xf9, 0x3e,
  0xed, 0x39, 0x11, 0xbe, 0x81, 0x96, 0x80, 0x3d, 0x87, 0x98, 0xee, 0xbd,
  0x5c, 0x5b, 0x8c, 0x3e, 0x8c, 0x88, 0x16, 0xbe, 0x8a, 0x12, 0xd6, 0x3e,
  0x78, 0x0b, 0xc9, 0xbe, 0xca, 0xcd, 0xd3, 0xbe, 0x7d, 0xdc, 0x1f, 0x3e,
  0x5a, 0xa6, 0x0a, 0x3f, 0x66, 0x6b, 0x9d, 0x3e, 0x3c, 0xea, 0x11, 0x3f,
  0x40, 0xa4, 0xc5, 0xbe, 0xa7, 0xe0, 0x5f, 0x3e, 0x0f, 0xed, 0x10, 0x3f,
  0x33, 0x69, 0x72, 0x3e, 0xcd, 0x09, 0x66, 0xbe, 0x22, 0x4c, 0xb6, 0xbe,
  0xa3, 0x53, 0xd6, 0x3d, 0x84, 0xe4, 0xf7, 0xbd, 0xe1, 0xc2, 0xe6, 0xbd,
  0x71, 0xbd, 0x4b, 0x3e, 0xbf, 0x65, 0x76, 0xbe, 0x30, 0x8c, 0xc4, 0xbe,
  0x98, 0xaf, 0x11, 0xbe, 0x23, 0x1b, 0xfc, 0x3d, 0x98, 0x60, 0x8e, 0x3e,
  0x3c, 0xef, 0xe3, 0x3e, 0xdb, 0x2d, 0xb7, 0x3e, 0xb0, 0xf4, 0xa4, 0x3e,
  0xde, 0x8b, 0x04, 0x3e, 0x4d, 0x2c, 0x2b, 0xbc, 0xee, 0x48, 0x3d, 0xbe,
  0xa6, 0xba, 0x86, 0x3e, 0xda, 0xd9, 0x91, 0xbe, 0xda, 0xe2, 0x0b, 0xbe,
  0x65, 0xc1, 0xb3, 0xbc, 0x3d, 0xc6, 0x5e, 0xbe, 0x71, 0xdf, 0x4d, 0x3e,
  0x3e, 0x4d, 0x28, 0x3e, 0xee, 0xc9, 0x55, 0xbe, 0x6a, 0x6e, 0x84, 0xbe,
  0x3e, 0x67, 0x8c, 0x3e, 0xb0, 0xe9, 0x72, 0xbe, 0xa1, 0x0a, 0x3b, 0x3d,
  0x24, 0x09, 0x0d, 0xbd, 0x43, 0x3b, 0x91, 0x3e, 0x8d, 0x66, 0x1d, 0x3e,
  0xdf, 0xdf, 0x93, 0x3e, 0xcd, 0x3c, 0xa6, 0xbe, 0xc6, 0x7b, 0xc4, 0x3d,
  0x68, 0x61, 0x99, 0xbd, 0x7d, 0xe4, 0x4d, 0x3d, 0x15, 0x31, 0xba, 0xbe,
  0xd9, 0x49, 0x0c, 0x3e, 0x57, 0x9a, 0xb8, 0x3d, 0x73, 0x19, 0xa2, 0xbe,
  0x3f, 0x74, 0x8b, 0xbe, 0x41, 0x6a, 0xbd, 0x3e, 0x4d, 0xd2, 0xac, 0x3e,
  0xcc, 0xdb, 0xb5, 0x3d, 0xeb, 0x4a, 0x75, 0xbe, 0x70, 0xfb, 0x03, 0x3e,
  0x9b, 0x7b, 0x9e, 0xbe, 0xa5, 0x9f, 0xf4, 0xbd, 0x88, 0x54, 0x07, 0x3e,
  0x25, 0xb8, 0xea, 0x3d, 0x9e, 0x5e, 0x8c, 0xb9, 0xe9, 0x72, 0xaa, 0xbe,
  0x78, 0xb5, 0xa8, 0x3e, 0x90, 0x9c, 0x4b, 0xbe, 0xd8, 0x34, 0xaf, 0x3e,
  0x1c, 0xe9, 0x6b, 0x3e, 0xd1, 0x4b, 0x26, 0xbe, 0x34, 0xda, 0xd5, 0xbe,
  0xcd, 0x20, 0x92, 0xbe, 0x64, 0xa8, 0x6c, 0xbe, 0x3d, 0xb9, 0xda, 0x3d,
  0x94, 0x80, 0x7b, 0x3b, 0x1d, 0x47, 0x8e, 0xbd, 0xe2, 0x96, 0xd0, 0x3e,
  0x4d, 0xce, 0x8e, 0x3c, 0x3b, 0x25, 0x5b, 0x3d, 0xe7, 0x90, 0x87, 0xbc,
  0xf9, 0x2e, 0x92, 0xbe, 0x35, 0x2f, 0xc0, 0xbd, 0x5d, 0x32, 0xb1, 0x3e,
  0x82, 0x39, 0x86, 0x3e, 0x67, 0xa8, 0xa9, 0xbe, 0x9b, 0x3e, 0xc5, 0x3e,
  0xf4, 0x83, 0xe7, 0x3e, 0xc7, 0x10, 0x1a, 0x3e, 0xed, 0x03, 0x7c, 0xbe,
  0x6d, 0x06, 0x51, 0x3d, 0x7a, 0x24, 0x5d, 0xbe, 0xb4, 0x1c, 0xc2, 0x3e,
  0xeb, 0x9e, 0xe7, 0x3d, 0xa5, 0x42, 0xa6, 0x3e, 0x4f, 0xb3, 0x96, 0xbe,
  0x5b, 0x8e, 0x02, 0xbd, 0x7f, 0x15, 0xd5, 0xbd, 0xd6, 0x24, 0x07, 0xbe,
  0x08, 0x72, 0x2f, 0xbe, 0x27, 0xc2, 0x00, 0x3e, 0x6c, 0x66, 0xcf, 0xbe,
  0xd9, 0xb7, 0x79, 0x3d, 0xb0, 0x6f, 0x03, 0xbe, 0xd8, 0x99, 0x06, 0x3e,
  0xb7, 0x6e, 0xad, 0xbe, 0x5f, 0xec, 0x3e, 0x3d, 0x63, 0x75, 0x78, 0xbe,
  0xb3, 0xc3, 0x70, 0x3e, 0x02, 0x7f, 0xd8, 0x3e, 0x46, 0xeb, 0xff, 0xff,
  0x04, 0x00, 0x00, 0x00, 0x00, 0x0f, 0x00, 0x00, 0x8b, 0x49, 0x8a, 0x3c,
  0x83, 0xab, 0xfc, 0xbd, 0xfc, 0xbd, 0xff, 0x3c, 0xad, 0x8f, 0x1d, 0xbe,
  0x8d, 0xc3, 0xed, 0xbd, 0x94, 0xf8, 0xaa, 0xbc, 0xd0, 0x80, 0x91, 0xbc,
  0xc7, 0x54, 0x14, 0xbc, 0x9d, 0xcc, 0x33, 0x3d, 0xe4, 0xdd, 0x69, 0xba,
  0xaa, 0x37, 0xf6, 0x3d, 0xba, 0xf2, 0x96, 0xbd, 0xb6, 0x5d, 0xa5, 0x3d,
  0xf1, 0x9d, 0x8e, 0x3d, 0xcc, 0x37, 0x7c, 0xbd, 0xf1, 0x58, 0xdf, 0xbd,
  0xb5, 0x6f, 0x86, 0x3d, 0xfe, 0xdd, 0xf8, 0xbd, 0x86, 0xf6, 0xec, 0xbd,
  0xf7, 0x8b, 0x9a, 0x3d, 0x1b, 0xf6, 0x29, 0xbe, 0x3a, 0xe5, 0x8c, 0x3d,
  0x91, 0xeb, 0xea, 0xbc, 0xcd, 0xc3, 0xd2, 0x3d, 0x8f, 0x36, 0xe1, 0xbd,
  0x8c, 0x34, 0xac, 0xbd, 0x82, 0x18, 0xba, 0xbd, 0x7a, 0x78, 0x1d, 0xbd,
  0xbf, 0x59, 0xb1, 0xbd, 0x19, 0x01, 0x12, 0x3e, 0x4e, 0x50, 0x14, 0x3e,
  0x38, 0xf0, 0xe2, 0x3d, 0x07, 0x44, 0x4e, 0xbd, 0x61, 0x0f, 0x87, 0x3d,
  0x11, 0x03, 0x8f, 0x3d, 0xc6, 0xdf, 0xd0, 0x3d, 0x9f, 0x4a, 0xee, 0x3d,
  0x26, 0x4f, 0x04, 0xbe, 0x70, 0x71, 0x1f, 0xbe, 0x58, 0x6c, 0x7c, 0xbd,
  0xa8, 0x94, 0x81, 0x3c, 0x72, 0xe9, 0x4d, 0xbd, 0x5a, 0x6c, 0x27, 0xbd,
  0x7d, 0xa8, 0x19, 0xbe, 0x2f, 0x3c, 0x72, 0xbd, 0xc7, 0x68, 0xc6, 0x3d,
  0x1e, 0xda, 0xad, 0x3a, 0x58, 0xba, 0x05, 0x3e, 0xe2, 0x79, 0xc2, 0x3e,
  0x84, 0x06, 0x52, 0xbe, 0x2d, 0x44, 0xa2, 0xbe, 0x14, 0x89, 0xff, 0x3d,
  0x1d, 0xd7, 0x8a, 0xbe, 0xb9, 0x14, 0xfc, 0xbd, 0xc4, 0x50, 0x61, 0xbe,
  0x75, 0x01, 0x90, 0xbe, 0x7c, 0x90, 0x37, 0x3e, 0x52, 0x9c, 0x9c, 0x3e,
  0x9e, 0x67, 0x97, 0x3e, 0xeb, 0xfd, 0x30, 0xbe, 0x17, 0x81, 0x82, 0xbe,
  0x32, 0x0d, 0x7a, 0x3e, 0x97, 0xd7, 0x2c, 0x3e, 0x6c, 0x7c, 0x7b, 0x3e,
  0x6c, 0x70, 0xfe, 0xbc, 0xb4, 0x87, 0x56, 0xbe, 0xd7, 0x48, 0x56, 0xbd,
  0x71, 0x17, 0x41, 0x3e, 0xa8, 0x34, 0x53, 0x3d, 0x1f, 0x26, 0xc6, 0xbe,
  0xa1, 0xe1, 0x83, 0x3e, 0xc4, 0xff, 0xbd, 0x3e, 0x90, 0xdd, 0x65, 0xbe,
  0x04, 0x9d, 0xcf, 0xbd, 0x1d, 0x7d, 0xc3, 0x3d, 0x5e, 0x47, 0xbd, 0x3e,
  0x89, 0xb9, 0x36, 0xbd, 0xf5, 0xee, 0x8d, 0x3d, 0x76, 0x9b, 0x28, 0xbe,
  0x43, 0x00, 0xbb, 0x3e, 0x67, 0xcb, 0x8a, 0x3e, 0xa4, 0xef, 0xa7, 0xbe,
  0x02, 0xa2, 0x50, 0x3c, 0x01, 0x96, 0xac, 0xbe, 0xaf, 0x93, 0xe0, 0x3c,
  0x2f, 0x06, 0x85, 0x3e, 0x39, 0x31, 0xa0, 0xbe, 0x1c, 0x04, 0x0f, 0xbe,
  0xec, 0x0d, 0x13, 0xbe, 0x2c, 0x9d, 0x18, 0x3e, 0x03, 0x3b, 0xd5, 0x3d,
  0x1b, 0x81, 0x51, 0xbd, 0xbd, 0xa4, 0x80, 0x3e, 0x43, 0x16, 0xd8, 0xbd,
  0x70, 0x61, 0x8e, 0x3e, 0x9d, 0x13, 0x8e, 0x3e, 0x8d, 0x92, 0x92, 0x3e,
  0xaa, 0x6e, 0x84, 0xbf, 0xa3, 0x48, 0x6c, 0x3f, 0x60, 0xdb, 0x01, 0xbf,
  0x85, 0x6e, 0x94, 0xbf, 0x22, 0xf8, 0x4f, 0xbf, 0x90, 0xeb, 0x11, 0xbe,
  0xee, 0x58, 0xa0, 0x3f, 0x33, 0x8a, 0x41, 0xbf, 0x85, 0x3d, 0x81, 0x3e,
  0x93, 0x6d, 0xa1, 0xbe, 0x12, 0x53, 0xad, 0xbe, 0x75, 0x07, 0x3c, 0xbf,
  0x1d, 0xc2, 0x4d, 0x3f, 0xc3, 0x55, 0x20, 0xbf, 0xc6, 0xf2, 0x99, 0xbe,
  0x4f, 0x34, 0xe9, 0x3e, 0xb9, 0x95, 0x24, 0x3d, 0xd0, 0xa5, 0xd1, 0x3d,
  0x16, 0xc1, 0x7c, 0x3e, 0x88, 0x10, 0x83, 0xbf, 0x40, 0xfa, 0x27, 0x3f,
  0x32, 0x94, 0x53, 0x3f, 0x3b, 0xeb, 0xd1, 0xbe, 0x08, 0x41, 0x20, 0x3f,
  0x31, 0x6f, 0x83, 0x3e, 0x05, 0x72, 0x8e, 0xbe, 0xa0, 0x75, 0x4c, 0x3f,
  0x80, 0x4e, 0x40, 0x3f, 0xcc, 0xea, 0x14, 0x3b, 0x7d, 0x4b, 0x5e, 0x3f,
  0x1e, 0x5d, 0x43, 0xbf, 0x1f, 0xf8, 0x24, 0x3e, 0xd1, 0x14, 0xb8, 0xbe,
  0xa6, 0x7a, 0x62, 0xbf, 0x08, 0x04, 0x4f, 0x3f, 0x40, 0x4b, 0x15, 0xbf,
  0xab, 0x57, 0x55, 0xbe, 0xd1, 0xfd, 0xf3, 0x3d, 0xc6, 0xb5, 0x0a, 0xbe,
  0xa2, 0xed, 0x65, 0xbd, 0x62, 0x38, 0x8e, 0x3f, 0xcd, 0x44, 0xb7, 0xbd,
  0x5b, 0x06, 0x8d, 0x3d, 0x55, 0x8b, 0x6e, 0x3f, 0x1e, 0x48, 0xa5, 0xbd,
  0x86, 0xa3, 0x43, 0xbf, 0xd0, 0x6d, 0x1b, 0xbf, 0x03, 0x56, 0x6d, 0xbd,
  0x3f, 0xf9, 0x99, 0xbe, 0xba, 0xcd, 0x05, 0x3d, 0xf7, 0x35, 0xf5, 0x3e,
  0x1f, 0x0c, 0x06, 0x3d, 0x82, 0x4f, 0xae, 0xbd, 0x8e, 0x53, 0x0c, 0xbf,
  0xa7, 0x24, 0x87, 0xbd, 0xff, 0xfc, 0x62, 0x3c, 0x0d, 0x06, 0x09, 0x3e,
  0x1a, 0x75, 0x22, 0x3e, 0x91, 0xf3, 0x45, 0xbc, 0x8a, 0x9b, 0xca, 0x3e,
  0xf2, 0xaf, 0x77, 0x3e, 0x6a, 0x80, 0xc9, 0xbb, 0x08, 0xec, 0x30, 0x3e,
  0x03, 0xc8, 0x0d, 0x3f, 0x6d, 0x58, 0x0d, 0xbf, 0x39, 0x82, 0xe7, 0x3e,
  0xec, 0xb2, 0xe0, 0x3d, 0xed, 0x79, 0xb4, 0xbe, 0xb9, 0x9f, 0xbb, 0xbe,
  0x7b, 0xc5, 0xef, 0xbd, 0x56, 0x11, 0x39, 0xbf, 0x78, 0x7e, 0x0e, 0xbf,
  0x1c, 0xf2, 0x80, 0x3e, 0x85, 0xac, 0x85, 0x3e, 0xae, 0x30, 0x33, 0xbe,
  0xa8, 0x37, 0xe7, 0x3e, 0xc0, 0xb6, 0xd9, 0xbe, 0x3b, 0xab, 0x2c, 0x3e,
  0x19, 0x62, 0x89, 0xbe, 0x17, 0x3a, 0x09, 0x3f, 0x40, 0xbc, 0x37, 0xbe,
  0x54, 0xa4, 0x5a, 0x3e, 0x1d, 0xf8, 0x0d, 0x3f, 0x4c, 0x13, 0x9c, 0xbe,
  0x3a, 0x5c, 0xe6, 0x3e, 0xa6, 0xcd, 0xcf, 0x3d, 0x7d, 0x29, 0xf6, 0x3d,
  0x1e, 0x4c, 0x1d, 0x3e, 0x8b, 0x9b, 0x41, 0x3e, 0xdd, 0xe8, 0x8d, 0x3e,
  0x22, 0x3a, 0x6d, 0x3b, 0xe7, 0x70, 0xef, 0xbd, 0x4d, 0xbd, 0x0e, 0xbf,
  0xb5, 0xcd, 0x18, 0x3d, 0xf8, 0x51, 0x17, 0x3d, 0xaa, 0xe8, 0x4a, 0x3d,
  0x36, 0xb0, 0x9a, 0xbd, 0x9c, 0x43, 0x7c, 0x3d, 0x77, 0x1a, 0x67, 0xbd,
  0xce, 0x46, 0xc8, 0xbe, 0x52, 0xf3, 0xa4, 0x3e, 0xc0, 0xb1, 0x16, 0x3c,
  0x54, 0xc6, 0x01, 0x3e, 0x38, 0x27, 0x04, 0xbe, 0xa7, 0x1d, 0xba, 0x3e,
  0x54, 0xc1, 0x91, 0xbe, 0x6f, 0x55, 0x01, 0x3e, 0x1e, 0xad, 0x33, 0x3e,
  0x0f, 0x5a, 0xbd, 0xbe, 0xe1, 0x13, 0x34, 0x3d, 0x0e, 0xb7, 0x8c, 0x3e,
  0x9b, 0xab, 0xa1, 0xbe, 0x7f, 0xf7, 0x13, 0x3c, 0x99, 0x0a, 0x69, 0x3d,
  0xbf, 0xa4, 0x98, 0xbc, 0xdd, 0xfb, 0xbf, 0xbc, 0x53, 0xe7, 0xb1, 0x3e,
  0x19, 0xce, 0x8e, 0xbe, 0x78, 0xa3, 0x36, 0xbd, 0xfd, 0xab, 0xbc, 0x3e,
  0xc7, 0xce, 0xb2, 0x3d, 0x80, 0x55, 0x96, 0xbe, 0x44, 0xa7, 0xb7, 0x3e,
  0x4e, 0x74, 0xb6, 0x3e, 0x2c, 0x37, 0x80, 0xbd, 0x06, 0xc4, 0xe1, 0xbd,
  0x5d, 0x9c, 0x99, 0x3e, 0x57, 0x54, 0xbf, 0xbe, 0xa9, 0xcb, 0x5b, 0xbe,
  0xc0, 0xa0, 0xa2, 0xbe, 0x14, 0xdd, 0xcd, 0xbe, 0xac, 0xec, 0x87, 0x3d,
  0xa0, 0x2d, 0x85, 0xbe, 0xb4, 0x70, 0x44, 0x3e, 0xf5, 0x31, 0x27, 0x3e,
  0xbf, 0xe3, 0x6a, 0x3e, 0x8d, 0x4d, 0x9f, 0xbd, 0x29, 0x09, 0xd8, 0xbe,
  0xfc, 0x0e, 0x84, 0x3e, 0xce, 0x27, 0x00, 0x3d, 0x45, 0x72, 0x17, 0xbe,
  0x77, 0xe8, 0x3c, 0xbe, 0x39, 0xdc, 0xa5, 0x3d, 0x2e, 0x5f, 0xd6, 0xbe,
  0x39, 0xf9, 0xa6, 0xbe, 0xc4, 0x40, 0xcc, 0xbe, 0xc5, 0x20, 0xa9, 0xbe,
  0x41, 0xd0, 0x99, 0xbf, 0x2d, 0xa8, 0x05, 0xbf, 0xc6, 0xa6, 0xbd, 0x3f,
  0x90, 0xbb, 0x69, 0x3f, 0x2e, 0xe4, 0x0f, 0xbe, 0x34, 0x05, 0x42, 0xbf,
  0xae, 0x50, 0x20, 0x3e, 0xe1, 0xfc, 0x8c, 0x3d, 0xc0, 0x4d, 0x7d, 0xbe,
  0xa1, 0x49, 0xcc, 0xbe, 0x4d, 0xf9, 0x16, 0x3f, 0x4e, 0x7c, 0xea, 0xbb,
  0x21, 0xf7, 0xe1, 0x3e, 0x6d, 0x9f, 0x87, 0x3d, 0xe9, 0x3f, 0xd3, 0xbe,
  0xd8, 0xf9, 0x8b, 0xbc, 0xdc, 0xb9, 0x8a, 0xbf, 0x16, 0x3f, 0x1a, 0xbf,
  0x90, 0xfd, 0x0e, 0x3f, 0x98, 0x58, 0xb9, 0x3e, 0xac, 0x0c, 0x8e, 0x3e,
  0x34, 0xbc, 0xc0, 0x3d, 0xd9, 0xe5, 0x14, 0x3f, 0x4e, 0x05, 0x08, 0xbf,
  0x17, 0x61, 0x18, 0x3e, 0x75, 0xa2, 0x84, 0xbe, 0x9a, 0x62, 0x16, 0x3f,
  0xad, 0xa5, 0x9d, 0x3c, 0xdb, 0xd8, 0x15, 0x3f, 0x03, 0xec, 0xd8, 0x3e,
  0x24, 0x1f, 0x33, 0x3e, 0xe0, 0x3e, 0xc4, 0xbe, 0xea, 0xe6, 0x05, 0xbf,
  0xe8, 0xd1, 0x6a, 0x3e, 0x5a, 0x6f, 0xcf, 0x3e, 0x1c, 0x71, 0x81, 0x3e,
  0xf1, 0x41, 0x8b, 0xbe, 0xb8, 0xc5, 0xbc, 0x3e, 0x10, 0x12, 0x0c, 0xbf,
  0x58, 0xc1, 0x00, 0x3f, 0x82, 0xf3, 0xe0, 0xbe, 0x31, 0x00, 0xbe, 0xbe,
  0x5f, 0x45, 0xe3, 0x3e, 0x6a, 0x06, 0xbe, 0xbd, 0x7b, 0x9a, 0x33, 0x3b,
  0xfd, 0x89, 0xa7, 0x3e, 0x11, 0x25, 0x87, 0x3d, 0x70, 0x08, 0x29, 0xbe,
  0x51, 0x73, 0x64, 0x3e, 0xa8, 0x0e, 0xe5, 0x3d, 0xb4, 0x3f, 0xdd, 0xbd,
  0x91, 0xcc, 0xff, 0xbd, 0x09, 0x7a, 0x00, 0xbe, 0x21, 0x2b, 0x1f, 0xbe,
  0x5b, 0x3d, 0xc9, 0x3d, 0x31, 0x6c, 0x85, 0x3c, 0xc4, 0x57, 0xe0, 0x3c,
  0x8c, 0xb7, 0x26, 0xbe, 0x19, 0xad, 0x87, 0xbe, 0xe1, 0xde, 0x50, 0xbe,
  0x14, 0x74, 0x46, 0x3e, 0x1c, 0x55, 0x0e, 0x3e, 0x8e, 0x4c, 0x26, 0x3e,
  0xa6, 0xeb, 0xba, 0x3d, 0x81, 0x24, 0x38, 0xbe, 0xa5, 0x49, 0x4c, 0xbe,
  0x2f, 0xfd, 0x91, 0xbe, 0xc0, 0xa4, 0xb5, 0xbe, 0x2e, 0xc7, 0xca, 0xbd,
  0x11, 0x14, 0xba, 0xbe, 0x15, 0x91, 0x11, 0x3e, 0x08, 0x9d, 0x7d, 0xbe,
  0xf8, 0xd2, 0xed, 0x3d, 0x79, 0x9c, 0xc8, 0xbd, 0x47, 0x72, 0x89, 0x3e,
  0xfd, 0x37, 0xf8, 0x3c, 0x1d, 0x37, 0x58, 0x3e, 0x8a, 0x86, 0x74, 0x3e,
  0x16, 0x4b, 0x99, 0x3e, 0xfe, 0xd8, 0x79, 0x3e, 0xce, 0x34, 0x29, 0xbe,
  0x5a, 0x58, 0x3a, 0xbe, 0x62, 0x10, 0x30, 0x3e, 0x54, 0xc3, 0x01, 0x3e,
  0xf6, 0x22, 0x9b, 0xbe, 0xa9, 0xeb, 0x36, 0x3e, 0xdb, 0x18, 0x74, 0xbd,
  0x83, 0x30, 0x88, 0xbe, 0x89, 0x88, 0x12, 0x3e, 0x66, 0x8b, 0x9c, 0x3e,
  0x7e, 0xa4, 0x9b, 0x3e, 0x0e, 0x4d, 0x8c, 0x3c, 0x7b, 0x99, 0x83, 0xbe,
  0x5d, 0x37, 0x16, 0x3e, 0xb9, 0x31, 0x81, 0xbd, 0x30, 0x47, 0x0d, 0x3e,
  0xd3, 0x1a, 0x92, 0x3c, 0x48, 0xab, 0xdd, 0xbd, 0x20, 0x6a, 0x25, 0x3e,
  0xea, 0xf2, 0x37, 0x3e, 0x67, 0x0b, 0x2b, 0xbd, 0x9f, 0xc7, 0x3d, 0x3e,
  0x07, 0xd3, 0x23, 0x3e, 0x74, 0xc5, 0x66, 0x3e, 0xfa, 0x03, 0x89, 0xbd,
  0x8f, 0x8a, 0x1f, 0xbc, 0x78, 0x08, 0x11, 0x3e, 0xa3, 0xc1, 0x1d, 0x3e,
  0x11, 0x9b, 0x8e, 0x3e, 0x3f, 0x63, 0x13, 0x3e, 0x1e, 0x0e, 0x84, 0xbe,
  0x24, 0x99, 0x74, 0xbe, 0x2c, 0x3c, 0x4f, 0xbe, 0xa3, 0xf9, 0x43, 0xbe,
  0x10, 0xee, 0x0a, 0xbd, 0x61, 0x80, 0xee, 0x3d, 0xad, 0x72, 0x93, 0x3e,
  0xb9, 0x0f, 0x01, 0xbe, 0x1e, 0x81, 0x88, 0xbd, 0xe6, 0x68, 0x4e, 0x3e,
  0xde, 0x98, 0x89, 0x3e, 0xd7, 0x55, 0x17, 0xbe, 0x3e, 0xc7, 0x83, 0x3e,
  0xb3, 0xbd, 0xbc, 0x3d, 0x48, 0x2d, 0xae, 0x3d, 0xee, 0x85, 0x83, 0x3d,
  0xad, 0xcf, 0x57, 0xbe, 0xc3, 0xe5, 0x43, 0x3e, 0xfe, 0xad, 0x2c, 0xbe,
  0x5b, 0x97, 0x49, 0x3e, 0xb7, 0xa1, 0x3b, 0x3e, 0x13, 0x57, 0x93, 0x3b,
  0xda, 0x21, 0x02, 0xbe, 0x9b, 0x11, 0x47, 0xbd, 0x14, 0x7d, 0xf3, 0xbc,
  0x8e, 0xdc, 0x05, 0x3e, 0x5c, 0xc3, 0x1e, 0x3e, 0xc1, 0x10, 0xdb, 0x3d,
  0xa3, 0x58, 0x69, 0x3e, 0xc0, 0x8f, 0xf0, 0xbc, 0x4b, 0x55, 0xac, 0x3d,
  0x0a, 0x24, 0x5d, 0x3e, 0x0f, 0xdc, 0xd1, 0x3e, 0x17, 0xc3, 0xda, 0xbe,
  0xb8, 0xe2, 0x96, 0xbf, 0x33, 0xf7, 0xd9, 0x3c, 0x30, 0x7c, 0xbe, 0xbe,
  0x69, 0x6a, 0xd9, 0x3e, 0xac, 0xb5, 0xec, 0x3e, 0x4b, 0xd3, 0xe1, 0x3e,
  0x8e, 0x02, 0x67, 0xbd, 0xe5, 0x44, 0x98, 0x3e, 0x7a, 0xfb, 0xe3, 0xbd,
  0xc1, 0x98, 0x01, 0xbf, 0x5f, 0xda, 0xb5, 0x3e, 0x47, 0xf1, 0x82, 0xbd,
  0x8f, 0x10, 0xc6, 0xbe, 0x4c, 0xb0, 0x85, 0xbe, 0xd8, 0x06, 0xec, 0xbe,
  0xad, 0x52, 0x0d, 0xbe, 0x2f, 0x7b, 0x60, 0x3e, 0xc6, 0xc2, 0x27, 0x3e,
  0x5a, 0xe7, 0x77, 0xbd, 0xbd, 0x89, 0xa7, 0xbe, 0x07, 0xd7, 0xfc, 0xbd,
  0x22, 0x8b, 0xb5, 0x3e, 0xab, 0x5f, 0x8c, 0xbe, 0x33, 0x30, 0xc2, 0x3e,
  0x9b, 0xf4, 0x7f, 0xbe, 0xb7, 0x34, 0xa6, 0x3e, 0xd7, 0x0e, 0x2d, 0xbd,
  0x45, 0xea, 0x2a, 0x3e, 0x93, 0xf4, 0x5d, 0x3e, 0xf0, 0xb4, 0xee, 0x3e,
  0x2b, 0xd5, 0x13, 0x3f, 0xb5, 0xc1, 0x0b, 0x3e, 0xc7, 0xac, 0x91, 0x3e,
  0xc2, 0x9c, 0x12, 0x3f, 0xcb, 0x9a, 0x91, 0x3d, 0xac, 0xc4, 0xa3, 0x3e,
  0x07, 0x41, 0x8e, 0x3d, 0x24, 0x50, 0x09, 0x3f, 0x98, 0xce, 0x19, 0x3e,
  0x29, 0x5c, 0x7f, 0xbe, 0x05, 0x0b, 0x06, 0xbf, 0x82, 0xf3, 0x7b, 0x3e,
  0x96, 0xe2, 0x3a, 0x3c, 0xc4, 0xa2, 0x0b, 0x3f, 0x94, 0xb4, 0x6d, 0x3e,
  0x77, 0x69, 0x93, 0xbe, 0x38, 0x00, 0x75, 0x3e, 0x97, 0x7c, 0x0b, 0x3e,
  0x13, 0x6d, 0xa8, 0xbd, 0x51, 0xf2, 0xa4, 0xbd, 0x74, 0x72, 0xf5, 0xbc,
  0x08, 0xa1, 0xc6, 0x3e, 0x5a, 0x0c, 0x39, 0xbe, 0xcd, 0x36, 0xd1, 0x3d,
  0x71, 0xca, 0x1f, 0x3e, 0x22, 0xb0, 0xeb, 0xbd, 0x49, 0xdb, 0x56, 0xbe,
  0x47, 0x08, 0x7c, 0x3d, 0xff, 0x06, 0x36, 0x3d, 0x4d, 0xbb, 0xcc, 0xbd,
  0xf9, 0x04, 0x84, 0x3d, 0x68, 0x17, 0x1e, 0xbd, 0xcc, 0xe2, 0x28, 0x3e,
  0xf6, 0x25, 0xc3, 0x3d, 0x15, 0x74, 0xab, 0xbe, 0xd7, 0x24, 0x7f, 0xbc,
  0x3b, 0x6d, 0xe5, 0xbd, 0x5f, 0xb8, 0x9b, 0xbd, 0xe4, 0x84, 0xb8, 0x3d,
  0x86, 0xb7, 0x4b, 0x3d, 0xd0, 0x81, 0x77, 0x3e, 0x89, 0xe8, 0x8c, 0x3e,
  0xc0, 0x27, 0xc2, 0x3d, 0x39, 0xfe, 0x69, 0x3e, 0xac, 0xc1, 0x1b, 0x3d,
  0xaa, 0xbe, 0x8a, 0x3e, 0x91, 0x3d, 0x2e, 0x3e, 0x94, 0x28, 0xea, 0x3d,
  0xde, 0x50, 0x85, 0xbe, 0xd3, 0x59, 0x81, 0xbe, 0x3b, 0x70, 0x58, 0xbe,
  0xfa, 0x6d, 0xff, 0x3d, 0x31, 0x31, 0x83, 0x3e, 0x05, 0xcd, 0x92, 0x3e,
  0xc9, 0xa8, 0x96, 0x3e, 0x42, 0x70, 0x33, 0xbe, 0x19, 0x9f, 0x16, 0xbe,
  0xdf, 0xe0, 0x80, 0x3e, 0xcf, 0xfa, 0x82, 0x3e, 0x0b, 0x84, 0x0b, 0x3e,
  0xa0, 0x15, 0x59, 0xbe, 0xf5, 0xfa, 0x77, 0x3e, 0x88, 0x8b, 0x4d, 0xbe,
  0x6f, 0xe1, 0xc1, 0xbd, 0xd4, 0x97, 0x3b, 0xbc, 0x50, 0xa0, 0xd1, 0x3d,
  0x5a, 0xdc, 0xad, 0xbd, 0x0d, 0xf2, 0x42, 0x3d, 0xcc, 0x55, 0x2e, 0x3d,
  0x47, 0xc4, 0x30, 0x3e, 0xb8, 0xd4, 0x0c, 0xbc, 0x5f, 0x9a, 0x6a, 0xbd,
  0x52, 0x79, 0x6e, 0x3d, 0x42, 0x69, 0x80, 0xbe, 0x2a, 0x97, 0x7c, 0x3e,
  0x35, 0x8a, 0x86, 0xbd, 0x5a, 0x4e, 0xc0, 0x3d, 0xb4, 0xcd, 0x7f, 0x3e,
  0x52, 0x0b, 0x66, 0xbe, 0x77, 0x36, 0x05, 0x3d, 0xe5, 0x2b, 0x30, 0xbe,
  0x9a, 0x6c, 0x30, 0xbe, 0x56, 0xed, 0x10, 0xbe, 0xc2, 0x2d, 0xc9, 0xbc,
  0xea, 0xc7, 0xdf, 0xbb, 0x67, 0x2e, 0x1b, 0x3e, 0x27, 0x24, 0xa6, 0xbd,
  0xae, 0x38, 0x76, 0xbe, 0x48, 0xb1, 0x6c, 0xbe, 0x52, 0xf9, 0x0d, 0x3c,
  0x32, 0x07, 0xb5, 0xbd, 0x3e, 0x63, 0x43, 0xbe, 0x1f, 0xf3, 0x5b, 0x3c,
  0x1c, 0xfd, 0x62, 0x3d, 0x72, 0x40, 0x67, 0x3e, 0xd6, 0xf8, 0x37, 0x3e,
  0x8a, 0x71, 0x11, 0xbe, 0x25, 0x00, 0xf2, 0xbd, 0x2e, 0x5f, 0xb9, 0x3d,
  0x5b, 0x18, 0x3a, 0xbe, 0x6c, 0xc6, 0x80, 0xbd, 0x85, 0xab, 0x13, 0x3e,
  0xd3, 0xfb, 0x9f, 0xbd, 0xac, 0x49, 0x9c, 0x3d, 0x0b, 0x82, 0x40, 0x3e,
  0x6c, 0x20, 0x82, 0xbe, 0xfc, 0x55, 0x18, 0xbe, 0x29, 0x1e, 0x62, 0x3e,
  0xb5, 0xcd, 0x72, 0xbd, 0xfc, 0x34, 0x17, 0x3b, 0x01, 0xdc, 0x10, 0xbd,
  0xd6, 0x53, 0x19, 0xbe, 0x93, 0x85, 0x61, 0xbe, 0xee, 0xfb, 0x87, 0x3e,
  0xd8, 0x45, 0xfe, 0x3c, 0xbe, 0x06, 0x4b, 0x3e, 0x33, 0xca, 0xa6, 0xbe,
  0x8e, 0x4b, 0x9c, 0xbe, 0x2e, 0x5c, 0xf9, 0x3d, 0x55, 0x7d, 0xe7, 0x3e,
  0xdd, 0x98, 0x05, 0xbe, 0xff, 0xea, 0x31, 0x3e, 0xe6, 0xa6, 0xae, 0x3b,
  0x88, 0x20, 0xd2, 0xbe, 0x0f, 0x9b, 0x4d, 0x3e, 0xa2, 0x33, 0x86, 0x3e,
  0x5a, 0x56, 0xa1, 0xbe, 0xe0, 0x9e, 0x09, 0xbe, 0xff, 0xe2, 0x91, 0x3e,
  0x53, 0xd9, 0x9d, 0x3e, 0xd0, 0xe9, 0x82, 0x3e, 0xb0, 0x02, 0xf5, 0x3e,
  0xcf, 0xb2, 0xdf, 0x3e, 0x2a, 0x02, 0x93, 0xbe, 0x15, 0x70, 0xe5, 0x3e,
  0xea, 0xc6, 0x73, 0x3d, 0x88, 0x04, 0x31, 0x3d, 0x5d, 0xa4, 0xee, 0x3e,
  0xb8, 0x8a, 0x0b, 0x3f, 0x28, 0xbd, 0x46, 0x3e, 0xa3, 0xac, 0xc8, 0xbd,
  0x80, 0xf6, 0xa1, 0xbd, 0xa1, 0xc8, 0xa1, 0xbd, 0xd3, 0x63, 0xc2, 0xbb,
  0xbd, 0xf0, 0xb6, 0x3e, 0x66, 0x08, 0x58, 0x3e, 0x44, 0xfc, 0x3f, 0xbe,
  0xbc, 0x2f, 0xfd, 0xbe, 0xd8, 0xac, 0xfb, 0xbd, 0x6f, 0x6c, 0xad, 0xbd,
  0x12, 0x0e, 0xed, 0x3e, 0x88, 0x84, 0x7b, 0x3e, 0x3b, 0x05, 0xeb, 0xbe,
  0xd2, 0x05, 0xe2, 0xbe, 0x25, 0xbb, 0x2a, 0xbe, 0xa6, 0x5f, 0x57, 0xbd,
  0xad, 0x57, 0xd6, 0xbe, 0x1e, 0x8d, 0xde, 0x3e, 0x01, 0xf0, 0xd2, 0xbe,
  0x54, 0xb0, 0x07, 0x3e, 0xf0, 0x22, 0xe8, 0x3b, 0x4c, 0x31, 0xcf, 0x3e,
  0xc8, 0x47, 0x80, 0x3e, 0x6f, 0xac, 0x5e, 0x3e, 0x92, 0x8b, 0x07, 0x3e,
  0x8c, 0x10, 0x92, 0xbe, 0xeb, 0x39, 0xec, 0x3e, 0x4b, 0x73, 0xab, 0xbe,
  0xfe, 0x02, 0x7b, 0x3e, 0x13, 0xfb, 0x91, 0xbe, 0x29, 0xcb, 0xd3, 0x3c,
  0x74, 0xce, 0xc6, 0x3e, 0x71, 0x39, 0xf3, 0xbd, 0x37, 0xf8, 0x59, 0x3d,
  0x6b, 0xd2, 0xaf, 0x3e, 0x6c, 0xdc, 0x2f, 0x3d, 0xdd, 0xcb, 0xaf, 0xbe,
  0x99, 0xa0, 0xcb, 0x3d, 0x44, 0xa6, 0xeb, 0x3e, 0xf6, 0xac, 0x95, 0x3e,
  0xdf, 0x40, 0x1b, 0x3e, 0xf3, 0x3e, 0xf4, 0xbe, 0x4a, 0xe2, 0xe6, 0x3e,
  0xae, 0xc9, 0xb4, 0xbe, 0xfa, 0x20, 0x3e, 0xbc, 0x65, 0x0b, 0xba, 0xbd,
  0xe0, 0xfb, 0x03, 0xbf, 0x5b, 0x7a, 0x24, 0x3e, 0x3a, 0xe6, 0x65, 0xbe,
  0xbd, 0x18, 0x52, 0x3e, 0xf5, 0x20, 0x16, 0xbd, 0x31, 0x10, 0x53, 0xbd,
  0x9e, 0x4d, 0x37, 0x3d, 0x54, 0xd1, 0xf3, 0x3e, 0xc4, 0x9a, 0xaf, 0x3e,
  0xd6, 0x45, 0x3b, 0x3d, 0xf2, 0xf4, 0x7e, 0xbd, 0xf0, 0xec, 0x6a, 0xbd,
  0x16, 0xeb, 0xec, 0xbe, 0x5f, 0xd1, 0x6f, 0xbe, 0x53, 0x98, 0xf1, 0x3d,
  0x22, 0x8a, 0x5e, 0xbe, 0x3b, 0xbf, 0x8f, 0x3e, 0xa7, 0x50, 0x55, 0x3d,
  0x55, 0x9a, 0x2e, 0x3e, 0x8c, 0x34, 0xdf, 0xbd, 0x2e, 0x4f, 0xfc, 0x3e,
  0xe2, 0xab, 0xad, 0xbe, 0x0f, 0x0a, 0xfd, 0xbe, 0x86, 0x80, 0x19, 0xbe,
  0x02, 0x3c, 0xd5, 0x3e, 0x2b, 0xc8, 0xb2, 0xbd, 0x2d, 0x0a, 0xd0, 0xbd,
  0xd8, 0x6e, 0x11, 0xbf, 0x0d, 0x31, 0xce, 0xbe, 0x3c, 0x05, 0xa0, 0x3e,
  0xc8, 0xde, 0xc0, 0xbe, 0xfb, 0xe9, 0xc0, 0xbe, 0xbd, 0xb8, 0x3c, 0xbe,
  0xe0, 0xc8, 0x85, 0x3d, 0x30, 0x13, 0xe2, 0x3e, 0x9c, 0x55, 0xb9, 0xbe,
  0x45, 0x6d, 0xd5, 0xbe, 0x0e, 0xcf, 0xd5, 0xbe, 0xcf, 0xc6, 0x81, 0x3e,
  0xb4, 0x93, 0x82, 0x3e, 0xf3, 0x58, 0x8c, 0xbc, 0x86, 0xe9, 0x9f, 0xbe,
  0x84, 0x42, 0xdf, 0x3d, 0x83, 0xee, 0x9d, 0x3e, 0x65, 0x9e, 0x15, 0xbd,
  0xdb, 0x1e, 0x50, 0xbd, 0xad, 0x86, 0xab, 0x3d, 0x37, 0x71, 0xd5, 0x3e,
  0x95, 0xef, 0xe4, 0x3e, 0x4f, 0x12, 0x87, 0xbe, 0x0f, 0x46, 0x86, 0x3e,
  0xc6, 0x17, 0x5b, 0x3e, 0x98, 0x60, 0xbc, 0x3e, 0xd2, 0x00, 0x57, 0x3d,
  0x40, 0x05, 0x88, 0x3d, 0x5a, 0x57, 0x89, 0xbe, 0x63, 0xe8, 0xb5, 0xbe,
  0x7a, 0x23, 0xc0, 0xbd, 0xda, 0x7b, 0xac, 0xbe, 0x98, 0xab, 0x99, 0xbe,
  0xa4, 0x88, 0x9f, 0x3e, 0x3f, 0xad, 0x98, 0x3e, 0x4c, 0xde, 0xce, 0xbe,
  0x08, 0xbd, 0xd3, 0x3b, 0x58, 0x53, 0x2d, 0x3e, 0x37, 0x02, 0x37, 0x3e,
  0xf8, 0x7f, 0xdb, 0x3d, 0xbf, 0x90, 0xb7, 0x3e, 0x69, 0xea, 0xc9, 0xbe,
  0x4e, 0x5d, 0x7e, 0x3e, 0x18, 0x59, 0xcb, 0xbe, 0xc4, 0xa2, 0x1e, 0xbe,
  0xdd, 0x63, 0xe2, 0x3d, 0x10, 0x83, 0xad, 0xbe, 0x15, 0x36, 0x6f, 0xbe,
  0xb9, 0x47, 0xce, 0xbd, 0x6b, 0xe0, 0xb4, 0x3e, 0xe1, 0xe2, 0xfa, 0xbd,
  0xd8, 0x70, 0x60, 0x3e, 0x22, 0x04, 0x65, 0x3e, 0xf0, 0xc0, 0x2f, 0x3e,
  0x04, 0x45, 0x82, 0xbc, 0x69, 0xa9, 0xcb, 0xbe, 0x53, 0x94, 0xc1, 0x3e,
  0x4c, 0x73, 0xcf, 0x3d, 0xdb, 0x7e, 0x4d, 0xbe, 0xcb, 0xcd, 0x29, 0x3e,
  0xd9, 0x1f, 0xd3, 0xbd, 0x8e, 0x94, 0xca, 0xbe, 0x87, 0x76, 0xd9, 0x3d,
  0xa1, 0x09, 0x43, 0xbe, 0xbe, 0xa7, 0x2e, 0x3e, 0x09, 0x07, 0xcf, 0xbe,
  0xc7, 0x13, 0x89, 0x3e, 0x3f, 0xa4, 0xbe, 0xbe, 0xdb, 0x6d, 0xe9, 0x3e,
  0xf4, 0x78, 0xb3, 0x3e, 0x9d, 0x0a, 0x8b, 0x3d, 0xf3, 0x0a, 0xb7, 0xbd,
  0x64, 0x98, 0x0f, 0xbe, 0x97, 0x7f, 0x83, 0xbe, 0x83, 0x9e, 0xbc, 0xbe,
  0xbc, 0x2f, 0xd0, 0x3e, 0xab, 0xbe, 0xeb, 0x3d, 0x69, 0xbe, 0xd2, 0x3d,
  0x46, 0xfb, 0xfc, 0x3c, 0x27, 0x7f, 0x02, 0xbe, 0xcf, 0x0f, 0xb7, 0x3e,
  0xa6, 0xdc, 0x95, 0xbd, 0x49, 0x1c, 0x5d, 0xbe, 0x2e, 0x9f, 0x22, 0x3e,
  0xf6, 0x8e, 0xdb, 0xbe, 0x14, 0xa1, 0xf8, 0xbe, 0x05, 0x88, 0x18, 0x3e,
  0x71, 0x19, 0xc6, 0xbe, 0x30, 0xf2, 0x35, 0x3d, 0x55, 0x9c, 0x28, 0xbf,
  0x59, 0x19, 0x84, 0x3f, 0x69, 0xc7, 0x2a, 0x3f, 0x17, 0x8c, 0xcb, 0x3d,
  0x85, 0x7f, 0xb5, 0xbf, 0x28, 0xf7, 0x04, 0xbf, 0xf6, 0x0a, 0x77, 0x3f,
  0xf4, 0x29, 0x44, 0x3f, 0xae, 0xd3, 0x28, 0x3f, 0x11, 0x36, 0x45, 0xbf,
  0xf9, 0x15, 0xda, 0x3d, 0xe9, 0x75, 0x87, 0x3f, 0xca, 0x66, 0x89, 0x3f,
  0xe1, 0x4e, 0x59, 0x3f, 0x3a, 0x5a, 0xae, 0xbe, 0x9b, 0x31, 0x59, 0x3f,
  0x94, 0x8d, 0x0d, 0xbf, 0xdb, 0x83, 0x08, 0xbd, 0x5a, 0x01, 0x8b, 0x3e,
  0xff, 0xd9, 0x7c, 0x3f, 0x26, 0xb2, 0x55, 0xbf, 0xa0, 0x02, 0x33, 0xbf,
  0x14, 0xe8, 0xad, 0x3d, 0xf2, 0xf5, 0x2b, 0xbf, 0x95, 0x5f, 0xd3, 0x3e,
  0xe4, 0xa1, 0x6a, 0x3f, 0x36, 0x38, 0x5c, 0xbf, 0xd6, 0x9f, 0xb6, 0x3d,
  0x8a, 0xc6, 0xd8, 0xbd, 0xa5, 0xdc, 0x37, 0x3f, 0x37, 0xaf, 0x5d, 0xbf,
  0xa6, 0x3e, 0xd7, 0x3e, 0x53, 0x7b, 0x44, 0xbe, 0xd5, 0x9f, 0x5d, 0x3f,
  0x2f, 0xc7, 0x7e, 0xbf, 0x97, 0x37, 0xaa, 0xbd, 0x40, 0x08, 0x60, 0x3f,
  0xc9, 0x3f, 0xbf, 0xbd, 0x74, 0x3e, 0xba, 0x3e, 0x63, 0x6e, 0x57, 0xbf,
  0xf4, 0xbb, 0x2b, 0x3f, 0x85, 0x64, 0xa2, 0xbd, 0xb0, 0x10, 0x7b, 0x3f,
  0xbe, 0x42, 0x3b, 0xbe, 0x12, 0xd0, 0x3a, 0x3f, 0x0b, 0x8c, 0x44, 0x3f,
  0x15, 0x12, 0x1a, 0xbf, 0xc8, 0xca, 0x97, 0x3f, 0x77, 0x9f, 0x12, 0xbd,
  0xb4, 0x4c, 0x4f, 0x3d, 0x40, 0x29, 0x2f, 0x3e, 0x48, 0x2a, 0x68, 0xbe,
  0x81, 0x1d, 0xc9, 0xbd, 0x89, 0x98, 0x44, 0x3c, 0xdf, 0xbe, 0x0a, 0xbd,
  0xa0, 0x3b, 0x0b, 0x3e, 0x28, 0x1c, 0xe0, 0xbc, 0xfc, 0xb2, 0xc8, 0x3c,
  0xe6, 0x02, 0xdf, 0xbd, 0x5e, 0xcf, 0xc1, 0xbd, 0xb7, 0x94, 0x44, 0x3d,
  0x80, 0x6d, 0x3d, 0xbd, 0x7e, 0xa1, 0xec, 0xbd, 0x53, 0x54, 0x94, 0xba,
  0x27, 0x21, 0xa3, 0x3d, 0x48, 0x78, 0x00, 0xbe, 0x33, 0x4f, 0xf7, 0xbb,
  0xf3, 0x42, 0xe5, 0x3d, 0x31, 0xf6, 0x96, 0xbe, 0xe0, 0x7b, 0xeb, 0xbd,
  0x90, 0xb3, 0x15, 0x3e, 0xba, 0x14, 0x85, 0x3d, 0x40, 0x5e, 0x4b, 0x3e,
  0x25, 0xd2, 0x33, 0x3e, 0xda, 0xbf, 0x4c, 0x3e, 0x64, 0xda, 0x04, 0x3e,
  0xb6, 0xb4, 0xfe, 0x3a, 0xb0, 0xe5, 0xf6, 0xbd, 0xe5, 0x5d, 0xdc, 0xbd,
  0x70, 0x07, 0xaf, 0x3d, 0xd0, 0x5a, 0x5c, 0xbe, 0x4b, 0xed, 0xf2, 0xbd,
  0xae, 0x1a, 0x00, 0xbe, 0x37, 0xc4, 0x93, 0x3d, 0xcf, 0x1d, 0x7f, 0x3e,
  0x2c, 0x6e, 0x38, 0xbc, 0xd6, 0x6a, 0x77, 0x3d, 0xce, 0xb9, 0x5b, 0xbd,
  0xad, 0xb8, 0x7f, 0xbe, 0x37, 0x97, 0x20, 0x3e, 0x99, 0xce, 0x08, 0x3e,
  0xd3, 0xc5, 0x53, 0xbe, 0xf7, 0xc8, 0x04, 0xbe, 0x6b, 0xf4, 0x7f, 0x3c,
  0x30, 0xbe, 0x16, 0x3e, 0x79, 0x9e, 0x1a, 0x3e, 0x22, 0xae, 0x16, 0x3f,
  0x28, 0x42, 0x29, 0x3e, 0x19, 0x5c, 0x1c, 0xbf, 0x0a, 0x40, 0xf9, 0x3e,
  0x36, 0x29, 0x03, 0x3f, 0x8e, 0x3e, 0x73, 0x3e, 0x32, 0xad, 0x94, 0xbb,
  0xbb, 0xea, 0x97, 0x3d, 0x15, 0x61, 0x04, 0xbf, 0x3e, 0xa1, 0x10, 0xbf,
  0xad, 0x5b, 0xf2, 0x3d, 0xbc, 0xca, 0x83, 0x3e, 0x95, 0xa4, 0x7a, 0x3d,
  0x34, 0x08, 0x03, 0x3e, 0x73, 0xc7, 0x34, 0x3e, 0x7d, 0xc3, 0x98, 0x3e,
  0xb1, 0x6c, 0x86, 0xbe, 0x70, 0xef, 0x73, 0x3e, 0xfb, 0x7a, 0xf5, 0x3e,
  0xe6, 0x15, 0x9b, 0x3d, 0x5d, 0x5a, 0xc2, 0xbd, 0x70, 0xe9, 0x85, 0x3e,
  0x40, 0x05, 0x2d, 0xbf, 0xe6, 0x70, 0xb5, 0xbe, 0xfa, 0x0a, 0x00, 0x3e,
  0xd4, 0x06, 0x5c, 0xbe, 0x01, 0xbd, 0xd1, 0x3d, 0x6e, 0xab, 0xbc, 0x3e,
  0x2d, 0x52, 0x7c, 0xbe, 0xcf, 0x40, 0x25, 0x3d, 0xbb, 0x27, 0x1a, 0x3f,
  0xff, 0x20, 0x12, 0x3f, 0x54, 0x80, 0xd3, 0x3e, 0x38, 0x69, 0x95, 0xbd,
  0x5d, 0x9c, 0x7e, 0xbe, 0x05, 0x7d, 0x1f, 0xbe, 0xb9, 0xda, 0x47, 0x3e,
  0xbb, 0x73, 0x88, 0x3e, 0x82, 0xeb, 0x08, 0x3f, 0x62, 0xd6, 0xf5, 0xbe,
  0x2e, 0x6b, 0xe5, 0x3d, 0x73, 0xae, 0x89, 0xbd, 0xe7, 0x5b, 0x5f, 0xbe,
  0x18, 0x7c, 0xd5, 0xbc, 0x97, 0x78, 0x98, 0xbd, 0x38, 0x7f, 0xa4, 0x3d,
  0xe5, 0xf5, 0x28, 0x3e, 0xc8, 0x33, 0x3f, 0xbe, 0xc1, 0x1e, 0xef, 0x3d,
  0x19, 0xc1, 0x41, 0xbf, 0x5c, 0x2f, 0x26, 0xbf, 0xe9, 0x9b, 0x92, 0x3d,
  0x85, 0x75, 0x2c, 0x3e, 0x8b, 0x9e, 0xea, 0xbe, 0x31, 0xf9, 0x39, 0x3f,
  0xfe, 0x23, 0x1e, 0xbf, 0x0e, 0xb9, 0x44, 0x3e, 0x13, 0xa6, 0x08, 0x3f,
  0xf8, 0x9e, 0x8d, 0xbe, 0x2d, 0x59, 0x0d, 0xbe, 0xd6, 0xca, 0x0a, 0xbf,
  0x8d, 0xd2, 0x98, 0xbe, 0xfd, 0xfd, 0xbf, 0xbd, 0x59, 0x18, 0x29, 0x3f,
  0xc8, 0x1d, 0xad, 0x3c, 0x6c, 0x34, 0x08, 0xbf, 0xcf, 0x1f, 0x05, 0xbf,
  0x6c, 0x74, 0x3d, 0x3f, 0x95, 0x0e, 0x70, 0x3f, 0x39, 0x03, 0xec, 0x3e,
  0xd6, 0x93, 0xa7, 0x3e, 0x4e, 0xc2, 0x05, 0xbf, 0x81, 0x70, 0x18, 0xbf,
  0xf2, 0x05, 0x3e, 0xbe, 0xd8, 0x31, 0xac, 0xbd, 0xbd, 0x93, 0x51, 0x3e,
  0x51, 0x40, 0xdc, 0x3e, 0x92, 0xba, 0xea, 0xbe, 0xd8, 0x4a, 0x51, 0x3e,
  0x27, 0x8e, 0xda, 0x3d, 0xd2, 0x76, 0x21, 0xbe, 0xee, 0x0c, 0x86, 0xbe,
  0x18, 0xd9, 0x7f, 0xbe, 0x17, 0xbe, 0x93, 0xbe, 0x35, 0x7b, 0xf2, 0xbe,
  0xa7, 0x6c, 0x0b, 0x3f, 0x88, 0x6a, 0xdd, 0xbe, 0xd1, 0xaa, 0x61, 0xbe,
  0xae, 0x89, 0x8e, 0xbe, 0x2e, 0xfd, 0xd2, 0xbe, 0x0e, 0x6e, 0xbd, 0x3e,
  0x29, 0x16, 0xc3, 0xbe, 0x57, 0xc5, 0x33, 0x3f, 0xfd, 0xc1, 0xc5, 0x3e,
  0xa7, 0x64, 0x73, 0x3e, 0xfa, 0xa7, 0x47, 0xbf, 0x0d, 0xf2, 0xa1, 0x3e,
  0x2c, 0xda, 0xcc, 0xbd, 0xf3, 0x2c, 0x82, 0x3e, 0x69, 0x01, 0xd2, 0xbc,
  0xd6, 0xec, 0xa7, 0x3d, 0xec, 0x3d, 0x23, 0x3e, 0xcb, 0x94, 0xdf, 0xbd,
  0xc1, 0x9b, 0xdc, 0xbe, 0x84, 0x71, 0x07, 0x3e, 0xa5, 0x47, 0x10, 0xbe,
  0x95, 0x87, 0x04, 0x3e, 0x83, 0x08, 0x2b, 0x3e, 0x71, 0xcd, 0xf8, 0xbc,
  0x27, 0xc1, 0x88, 0x3e, 0x72, 0xd4, 0x0d, 0x3f, 0x8e, 0xc2, 0xbc, 0x3e,
  0x7c, 0xd9, 0xe6, 0x3e, 0x9b, 0x90, 0x94, 0xbe, 0x7f, 0x0c, 0xa5, 0xbe,
  0xdf, 0x24, 0x13, 0x3e, 0x55, 0x7f, 0xe0, 0xbe, 0xba, 0x2d, 0x5e, 0xbd,
  0x00, 0xfc, 0x62, 0xbe, 0x1e, 0xe0, 0x31, 0x3f, 0xef, 0xd4, 0xd3, 0x3e,
  0x98, 0x6e, 0x05, 0x3f, 0x83, 0x9e, 0xa6, 0xbe, 0xde, 0x13, 0x06, 0x3e,
  0xf1, 0x19, 0xb6, 0xbe, 0x6a, 0xe3, 0x13, 0xbe, 0x8b, 0x86, 0xce, 0x3d,
  0x03, 0xad, 0x87, 0xbd, 0xce, 0x5a, 0x98, 0x3e, 0xbc, 0x36, 0x9d, 0x3e,
  0x34, 0x30, 0x8a, 0x3e, 0xe3, 0x39, 0x20, 0xbd, 0x89, 0xc2, 0x2c, 0xbe,
  0x77, 0xd3, 0xc2, 0x3e, 0xe0, 0xeb, 0x9b, 0xbe, 0xe5, 0x4d, 0x9f, 0xbe,
  0x60, 0xea, 0xe6, 0x3e, 0x02, 0x45, 0xb9, 0x3e, 0x4f, 0x79, 0xdb, 0x3e,
  0x5e, 0xa9, 0xb1, 0xbd, 0xb4, 0x45, 0xe3, 0xbe, 0x2f, 0xdb, 0x3a, 0x3d,
  0x68, 0x1a, 0xff, 0xbd, 0x51, 0xb0, 0xfa, 0x3e, 0x52, 0xfa, 0xff, 0xff,
  0x04, 0x00, 0x00, 0x00, 0x20, 0x00, 0x00, 0x00, 0x4f, 0x43, 0x88, 0xbe,
  0x2d, 0x7e, 0x87, 0x3c, 0x3b, 0xd5, 0x10, 0x3f, 0x70, 0x19, 0x53, 0x3e,
  0x78, 0xf8, 0xb1, 0xbe, 0x9b, 0x70, 0x0f, 0x3d, 0xa6, 0x00, 0x82, 0x3d,
  0x01, 0x5e, 0x3e, 0x3e, 0x7e, 0xfa, 0xff, 0xff, 0x04, 0x00, 0x00, 0x00,
  0x40, 0x00, 0x00, 0x00, 0xb8, 0xe6, 0x40, 0x3f, 0x8e, 0xf4, 0x27, 0x3e,
  0xaf, 0xfb, 0x0a, 0xbf, 0x8d, 0x94, 0x6b, 0x3f, 0x06, 0x73, 0x9d, 0x3f,
  0xec, 0x2d, 0xc9, 0xbe, 0x51, 0x83, 0x3c, 0x3e, 0xd0, 0x79, 0x29, 0x3c,
  0x20, 0xef, 0x63, 0x3d, 0xdb, 0x33, 0x54, 0xbf, 0x8a, 0xd4, 0x37, 0xbe,
  0xda, 0x1a, 0x7d, 0xbf, 0x78, 0x73, 0x4c, 0xbe, 0x83, 0xd0, 0x83, 0x3e,
  0x31, 0x5a, 0x1c, 0xbd, 0x6e, 0xf2, 0x12, 0xbe, 0xca, 0xfa, 0xff, 0xff,
  0x04, 0x00, 0x00, 0x00, 0x50, 0x00, 0x00, 0x00, 0xe7, 0xf9, 0x74, 0x3e,
  0xc9, 0x26, 0x1f, 0xbf, 0xbd, 0x65, 0x7c, 0xbf, 0x7f, 0x46, 0x00, 0xbf,
  0x5e, 0x24, 0xff, 0x3e, 0xe0, 0x9e, 0x73, 0x3f, 0x7b, 0x25, 0x1f, 0xbe,
  0x42, 0x21, 0x54, 0xbf, 0x0b, 0x04, 0xa4, 0xbf, 0x7c, 0x2e, 0x99, 0xbf,
  0x42, 0xac, 0x5c, 0x3f, 0x1d, 0x67, 0x4e, 0xbf, 0x44, 0x29, 0xb4, 0xbe,
  0x1b, 0xae, 0xce, 0xbd, 0x0d, 0x0e, 0xad, 0x3e, 0x12, 0x5d, 0x0e, 0xc0,
  0x41, 0xc8, 0x55, 0xbe, 0x7c, 0x29, 0x04, 0xbf, 0x9d, 0x8e, 0x84, 0x3f,
  0xd6, 0x52, 0xa3, 0xbf, 0x60, 0xe5, 0xff, 0xff, 0x64, 0xe5, 0xff, 0xff,
  0x0f, 0x00, 0x00, 0x00, 0x4d, 0x4c, 0x49, 0x52, 0x20, 0x43, 0x6f, 0x6e,
  0x76, 0x65, 0x72, 0x74, 0x65, 0x64, 0x2e, 0x00, 0x01, 0x00, 0x00, 0x00,
  0x14, 0x00, 0x00, 0x00, 0x00, 0x00, 0x0e, 0x00, 0x18, 0x00, 0x14, 0x00,
  0x10, 0x00, 0x0c, 0x00, 0x08, 0x00, 0x04, 0x00, 0x0e, 0x00, 0x00, 0x00,
  0x14, 0x00, 0x00, 0x00, 0x1c, 0x00, 0x00, 0x00, 0x7c, 0x05, 0x00, 0x00,
  0x80, 0x05, 0x00, 0x00, 0x84, 0x05, 0x00, 0x00, 0x04, 0x00, 0x00, 0x00,
  0x6d, 0x61, 0x69, 0x6e, 0x00, 0x00, 0x00, 0x00, 0x19, 0x00, 0x00, 0x00,
  0x34, 0x05, 0x00, 0x00, 0xd8, 0x04, 0x00, 0x00, 0xa0, 0x04, 0x00, 0x00,
  0x58, 0x04, 0x00, 0x00, 0x28, 0x04, 0x00, 0x00, 0xd4, 0x03, 0x00, 0x00,
  0xac, 0x03, 0x00, 0x00, 0x7c, 0x03, 0x00, 0x00, 0x3c, 0x03, 0x00, 0x00,
  0x14, 0x03, 0x00, 0x00, 0xe0, 0x02, 0x00, 0x00, 0xb0, 0x02, 0x00, 0x00,
  0x6c, 0x02, 0x00, 0x00, 0x44, 0x02, 0x00, 0x00, 0x14, 0x02, 0x00, 0x00,
  0xd4, 0x01, 0x00, 0x00, 0xac, 0x01, 0x00, 0x00, 0x78, 0x01, 0x00, 0x00,
  0x48, 0x01, 0x00, 0x00, 0x04, 0x01, 0x00, 0x00, 0xdc, 0x00, 0x00, 0x00,
  0xa4, 0x00, 0x00, 0x00, 0x70, 0x00, 0x00, 0x00, 0x38, 0x00, 0x00, 0x00,
  0x04, 0x00, 0x00, 0x00, 0x96, 0xfb, 0xff, 0xff, 0x14, 0x00, 0x00, 0x00,
  0x00, 0x00, 0x00, 0x09, 0x14, 0x00, 0x00, 0x00, 0x18, 0x00, 0x00, 0x00,
  0x06, 0x00, 0x00, 0x00, 0xfe, 0xfb, 0xff, 0xff, 0x00, 0x00, 0x80, 0x3f,
  0x01, 0x00, 0x00, 0x00, 0x2b, 0x00, 0x00, 0x00, 0x01, 0x00, 0x00, 0x00,
  0x2a, 0x00, 0x00, 0x00, 0xc6, 0xfb, 0xff, 0xff, 0x14, 0x00, 0x00, 0x00,
  0x00, 0x00, 0x00, 0x08, 0x10, 0x00, 0x00, 0x00, 0x14, 0x00, 0x00, 0x00,
  0x05, 0x00, 0x00, 0x00, 0x68, 0xe6, 0xff, 0xff, 0x01, 0x00, 0x00, 0x00,
  0x2a, 0x00, 0x00, 0x00, 0x03, 0x00, 0x00, 0x00, 0x29, 0x00, 0x00, 0x00,
  0x0e, 0x00, 0x00, 0x00, 0x0f, 0x00, 0x00, 0x00, 0xfa, 0xfb, 0xff, 0xff,
  0x14, 0x00, 0x00, 0x00, 0x00, 0x00, 0x00, 0x4b, 0x14, 0x00, 0x00, 0x00,
  0x18, 0x00, 0x00, 0x00, 0x03, 0x00, 0x00, 0x00, 0x62, 0xfc, 0xff, 0xff,
  0x9a, 0x99, 0x99, 0x3e, 0x01, 0x00, 0x00, 0x00, 0x29, 0x00, 0x00, 0x00,
  0x01, 0x00, 0x00, 0x00, 0x28, 0x00, 0x00, 0x00, 0x2a, 0xfc, 0xff, 0xff,
  0x14, 0x00, 0x00, 0x00, 0x00, 0x00, 0x00, 0x08, 0x10, 0x00, 0x00, 0x00,
  0x14, 0x00, 0x00, 0x00, 0x05, 0x00, 0x00, 0x00, 0xcc, 0xe6, 0xff, 0xff,
  0x01, 0x00, 0x00, 0x00, 0x28, 0x00, 0x00, 0x00, 0x03, 0x00, 0x00, 0x00,
  0x27, 0x00, 0x00, 0x00, 0x08, 0x00, 0x00, 0x00, 0x07, 0x00, 0x00, 0x00,
  0x8e, 0xfc, 0xff, 0xff, 0x0c, 0x00, 0x00, 0x00, 0x10, 0x00, 0x00, 0x00,
  0x02, 0x00, 0x00, 0x00, 0x01, 0x00, 0x00, 0x00, 0x27, 0x00, 0x00, 0x00,
  0x02, 0x00, 0x00, 0x00, 0x26, 0x00, 0x00, 0x00, 0x11, 0x00, 0x00, 0x00,
  0x82, 0xfc, 0xff, 0xff, 0x14, 0x00, 0x00, 0x00, 0x00, 0x00, 0x00, 0x05,
  0x24, 0x00, 0x00, 0x00, 0x28, 0x00, 0x00, 0x00, 0x04, 0x00, 0x00, 0x00,
  0x66, 0xfd, 0xff, 0xff, 0x01, 0x00, 0x00, 0x00, 0x02, 0x00, 0x00, 0x00,
  0x01, 0x00, 0x00, 0x00, 0x02, 0x00, 0x00, 0x00, 0x00, 0x00, 0x00, 0x01,
  0x01, 0x00, 0x00, 0x00, 0x26, 0x00, 0x00, 0x00, 0x01, 0x00, 0x00, 0x00,
  0x25, 0x00, 0x00, 0x00, 0x6a, 0xfc, 0xff, 0xff, 0x10, 0x00, 0x00, 0x00,
  0x00, 0x00, 0x00, 0x34, 0x0c, 0x00, 0x00, 0x00, 0x10, 0x00, 0x00, 0x00,
  0x60, 0xe7, 0xff, 0xff, 0x01, 0x00, 0x00, 0x00, 0x25, 0x00, 0x00, 0x00,
  0x02, 0x00, 0x00, 0x00, 0x24, 0x00, 0x00, 0x00, 0x10, 0x00, 0x00, 0x00,
  0xee, 0xfc, 0xff, 0xff, 0x14, 0x00, 0x00, 0x00, 0x00, 0x00, 0x00, 0x4b,
  0x14, 0x00, 0x00, 0x00, 0x18, 0x00, 0x00, 0x00, 0x03, 0x00, 0x00, 0x00,
  0x56, 0xfd, 0xff, 0xff, 0x9a, 0x99, 0x99, 0x3e, 0x01, 0x00, 0x00, 0x00,
  0x24, 0x00, 0x00, 0x00, 0x01, 0x00, 0x00, 0x00, 0x23, 0x00, 0x00, 0x00,
  0x4e, 0xfd, 0xff, 0xff, 0x0c, 0x00, 0x00, 0x00, 0x10, 0x00, 0x00, 0x00,
  0x02, 0x00, 0x00, 0x00, 0x01, 0x00, 0x00, 0x00, 0x23, 0x00, 0x00, 0x00,
  0x02, 0x00, 0x00, 0x00, 0x22, 0x00, 0x00, 0x00, 0x09, 0x00, 0x00, 0x00,
  0x42, 0xfd, 0xff, 0xff, 0x14, 0x00, 0x00, 0x00, 0x00, 0x00, 0x00, 0x01,
  0x18, 0x00, 0x00, 0x00, 0x1c, 0x00, 0x00, 0x00, 0x01, 0x00, 0x00, 0x00,
  0x32, 0xfd, 0xff, 0xff, 0x01, 0x00, 0x00, 0x00, 0x01, 0x00, 0x00, 0x00,
  0x01, 0x00, 0x00, 0x00, 0x22, 0x00, 0x00, 0x00, 0x03, 0x00, 0x00, 0x00,
  0x21, 0x00, 0x00, 0x00, 0x04, 0x00, 0x00, 0x00, 0x01, 0x00, 0x00, 0x00,
  0x26, 0xfd, 0xff, 0xff, 0x10, 0x00, 0x00, 0x00, 0x00, 0x00, 0x00, 0x34,
  0x0c, 0x00, 0x00, 0x00, 0x10, 0x00, 0x00, 0x00, 0x1c, 0xe8, 0xff, 0xff,
  0x01, 0x00, 0x00, 0x00, 0x21, 0x00, 0x00, 0x00, 0x02, 0x00, 0x00, 0x00,
  0x20, 0x00, 0x00, 0x00, 0x12, 0x00, 0x00, 0x00, 0xda, 0xfd, 0xff, 0xff,
  0x0c, 0x00, 0x00, 0x00, 0x10, 0x00, 0x00, 0x00, 0x02, 0x00, 0x00, 0x00,
  0x01, 0x00, 0x00, 0x00, 0x20, 0x00, 0x00, 0x00, 0x02, 0x00, 0x00, 0x00,
  0x1f, 0x00, 0x00, 0x00, 0x0a, 0x00, 0x00, 0x00, 0xce, 0xfd, 0xff, 0xff,
  0x14, 0x00, 0x00, 0x00, 0x00, 0x00, 0x00, 0x05, 0x24, 0x00, 0x00, 0x00,
  0x28, 0x00, 0x00, 0x00, 0x04, 0x00, 0x00, 0x00, 0xb2, 0xfe, 0xff, 0xff,
  0x01, 0x00, 0x00, 0x00, 0x02, 0x00, 0x00, 0x00, 0x01, 0x00, 0x00, 0x00,
  0x02, 0x00, 0x00, 0x00, 0x00, 0x00, 0x00, 0x01, 0x01, 0x00, 0x00, 0x00,
  0x1f, 0x00, 0x00, 0x00, 0x01, 0x00, 0x00, 0x00, 0x1e, 0x00, 0x00, 0x00,
  0xb6, 0xfd, 0xff, 0xff, 0x10, 0x00, 0x00, 0x00, 0x00, 0x00, 0x00, 0x34,
  0x0c, 0x00, 0x00, 0x00, 0x10, 0x00, 0x00, 0x00, 0xac, 0xe8, 0xff, 0xff,
  0x01, 0x00, 0x00, 0x00, 0x1e, 0x00, 0x00, 0x00, 0x02, 0x00, 0x00, 0x00,
  0x1d, 0x00, 0x00, 0x00, 0x10, 0x00, 0x00, 0x00, 0x3a, 0xfe, 0xff, 0xff,
  0x14, 0x00, 0x00, 0x00, 0x00, 0x00, 0x00, 0x4b, 0x14, 0x00, 0x00, 0x00,
  0x18, 0x00, 0x00, 0x00, 0x03, 0x00, 0x00, 0x00, 0xa2, 0xfe, 0xff, 0xff,
  0x9a, 0x99, 0x99, 0x3e, 0x01, 0x00, 0x00, 0x00, 0x1d, 0x00, 0x00, 0x00,
  0x01, 0x00, 0x00, 0x00, 0x1c, 0x00, 0x00, 0x00, 0x9a, 0xfe, 0xff, 0xff,
  0x0c, 0x00, 0x00, 0x00, 0x10, 0x00, 0x00, 0x00, 0x02, 0x00, 0x00, 0x00,
  0x01, 0x00, 0x00, 0x00, 0x1c, 0x00, 0x00, 0x00, 0x02, 0x00, 0x00, 0x00,
  0x1b, 0x00, 0x00, 0x00, 0x0b, 0x00, 0x00, 0x00, 0x8e, 0xfe, 0xff, 0xff,
  0x14, 0x00, 0x00, 0x00, 0x00, 0x00, 0x00, 0x01, 0x18, 0x00, 0x00, 0x00,
  0x1c, 0x00, 0x00, 0x00, 0x01, 0x00, 0x00, 0x00, 0x7e, 0xfe, 0xff, 0xff,
  0x01, 0x00, 0x00, 0x00, 0x01, 0x00, 0x00, 0x00, 0x01, 0x00, 0x00, 0x00,
  0x1b, 0x00, 0x00, 0x00, 0x03, 0x00, 0x00, 0x00, 0x1a, 0x00, 0x00, 0x00,
  0x05, 0x00, 0x00, 0x00, 0x02, 0x00, 0x00, 0x00, 0x72, 0xfe, 0xff, 0xff,
  0x10, 0x00, 0x00, 0x00, 0x00, 0x00, 0x00, 0x34, 0x0c, 0x00, 0x00, 0x00,
  0x10, 0x00, 0x00, 0x00, 0x68, 0xe9, 0xff, 0xff, 0x01, 0x00, 0x00, 0x00,
  0x1a, 0x00, 0x00, 0x00, 0x02, 0x00, 0x00, 0x00, 0x19, 0x00, 0x00, 0x00,
  0x12, 0x00, 0x00, 0x00, 0x26, 0xff, 0xff, 0xff, 0x0c, 0x00, 0x00, 0x00,
  0x10, 0x00, 0x00, 0x00, 0x02, 0x00, 0x00, 0x00, 0x01, 0x00, 0x00, 0x00,
  0x19, 0x00, 0x00, 0x00, 0x02, 0x00, 0x00, 0x00, 0x18, 0x00, 0x00, 0x00,
  0x0c, 0x00, 0x00, 0x00, 0x1a, 0xff, 0xff, 0xff, 0x24, 0x00, 0x00, 0x00,
  0x00, 0x00, 0x00, 0x05, 0x34, 0x00, 0x00, 0x00, 0x38, 0x00, 0x00, 0x00,
  0x04, 0x00, 0x00, 0x00, 0x00, 0x00, 0x0e, 0x00, 0x18, 0x00, 0x17, 0x00,
  0x10, 0x00, 0x0c, 0x00, 0x08, 0x00, 0x04, 0x00, 0x0e, 0x00, 0x00, 0x00,
  0x01, 0x00, 0x00, 0x00, 0x02, 0x00, 0x00, 0x00, 0x01, 0x00, 0x00, 0x00,
  0x02, 0x00, 0x00, 0x00, 0x00, 0x00, 0x00, 0x01, 0x01, 0x00, 0x00, 0x00,
  0x18, 0x00, 0x00, 0x00, 0x01, 0x00, 0x00, 0x00, 0x17, 0x00, 0x00, 0x00,
  0x12, 0xff, 0xff, 0xff, 0x10, 0x00, 0x00, 0x00, 0x00, 0x00, 0x00, 0x34,
  0x0c, 0x00, 0x00, 0x00, 0x10, 0x00, 0x00, 0x00, 0x08, 0xea, 0xff, 0xff,
  0x01, 0x00, 0x00, 0x00, 0x17, 0x00, 0x00, 0x00, 0x02, 0x00, 0x00, 0x00,
  0x16, 0x00, 0x00, 0x00, 0x10, 0x00, 0x00, 0x00, 0x96, 0xff, 0xff, 0xff,
  0x1c, 0x00, 0x00, 0x00, 0x00, 0x00, 0x00, 0x4b, 0x1c, 0x00, 0x00, 0x00,
  0x20, 0x00, 0x00, 0x00, 0x03, 0x00, 0x00, 0x00, 0x00, 0x00, 0x06, 0x00,
  0x08, 0x00, 0x04, 0x00, 0x06, 0x00, 0x00, 0x00, 0x9a, 0x99, 0x99, 0x3e,
  0x01, 0x00, 0x00, 0x00, 0x16, 0x00, 0x00, 0x00, 0x01, 0x00, 0x00, 0x00,
  0x15, 0x00, 0x00, 0x00, 0x00, 0x00, 0x0a, 0x00, 0x10, 0x00, 0x0c, 0x00,
  0x08, 0x00, 0x04, 0x00, 0x0a, 0x00, 0x00, 0x00, 0x0c, 0x00, 0x00, 0x00,
  0x10, 0x00, 0x00, 0x00, 0x02, 0x00, 0x00, 0x00, 0x01, 0x00, 0x00, 0x00,
  0x15, 0x00, 0x00, 0x00, 0x02, 0x00, 0x00, 0x00, 0x14, 0x00, 0x00, 0x00,
  0x0d, 0x00, 0x00, 0x00, 0x00, 0x00, 0x0e, 0x00, 0x1a, 0x00, 0x14, 0x00,
  0x10, 0x00, 0x0c, 0x00, 0x0b, 0x00, 0x04, 0x00, 0x0e, 0x00, 0x00, 0x00,
  0x20, 0x00, 0x00, 0x00, 0x00, 0x00, 0x00, 0x01, 0x24, 0x00, 0x00, 0x00,
  0x28, 0x00, 0x00, 0x00, 0x01, 0x00, 0x00, 0x00, 0x00, 0x00, 0x0a, 0x00,
  0x0c, 0x00, 0x00, 0x00, 0x08, 0x00, 0x04, 0x00, 0x0a, 0x00, 0x00, 0x00,
  0x01, 0x00, 0x00, 0x00, 0x01, 0x00, 0x00, 0x00, 0x01, 0x00, 0x00, 0x00,
  0x14, 0x00, 0x00, 0x00, 0x03, 0x00, 0x00, 0x00, 0x13, 0x00, 0x00, 0x00,
  0x06, 0x00, 0x00, 0x00, 0x03, 0x00, 0x00, 0x00, 0x00, 0x00, 0x0e, 0x00,
  0x14, 0x00, 0x00, 0x00, 0x10, 0x00, 0x0c, 0x00, 0x0b, 0x00, 0x04, 0x00,
  0x0e, 0x00, 0x00, 0x00, 0x10, 0x00, 0x00, 0x00, 0x00, 0x00, 0x00, 0x34,
  0x0c, 0x00, 0x00, 0x00, 0x10, 0x00, 0x00, 0x00, 0x04, 0xeb, 0xff, 0xff,
  0x01, 0x00, 0x00, 0x00, 0x13, 0x00, 0x00, 0x00, 0x02, 0x00, 0x00, 0x00,
  0x00, 0x00, 0x00, 0x00, 0x12, 0x00, 0x00, 0x00, 0x01, 0x00, 0x00, 0x00,
  0x2b, 0x00, 0x00, 0x00, 0x01, 0x00, 0x00, 0x00, 0x00, 0x00, 0x00, 0x00,
  0x2c, 0x00, 0x00, 0x00, 0xa4, 0x14, 0x00, 0x00, 0x50, 0x14, 0x00, 0x00,
  0xfc, 0x13, 0x00, 0x00, 0xc0, 0x13, 0x00, 0x00, 0x78, 0x13, 0x00, 0x00,
  0x30, 0x13, 0x00, 0x00, 0xe8, 0x12, 0x00, 0x00, 0xac, 0x12, 0x00, 0x00,
  0x6c, 0x12, 0x00, 0x00, 0x2c, 0x12, 0x00, 0x00, 0xd4, 0x11, 0x00, 0x00,
  0x90, 0x11, 0x00, 0x00, 0x4c, 0x11, 0x00, 0x00, 0x08, 0x11, 0x00, 0x00,
  0xc4, 0x10, 0x00, 0x00, 0x84, 0x10, 0x00, 0x00, 0x44, 0x10, 0x00, 0x00,
  0x00, 0x10, 0x00, 0x00, 0xc0, 0x0f, 0x00, 0x00, 0x40, 0x0f, 0x00, 0x00,
  0x1c, 0x0e, 0x00, 0x00, 0x24, 0x0d, 0x00, 0x00, 0xb4, 0x0c, 0x00, 0x00,
  0x30, 0x0c, 0x00, 0x00, 0xb8, 0x0b, 0x00, 0x00, 0x40, 0x0b, 0x00, 0x00,
  0xc0, 0x0a, 0x00, 0x00, 0x94, 0x09, 0x00, 0x00, 0x94, 0x08, 0x00, 0x00,
  0x24, 0x08, 0x00, 0x00, 0xa0, 0x07, 0x00, 0x00, 0x24, 0x07, 0x00, 0x00,
  0xa8, 0x06, 0x00, 0x00, 0x28, 0x06, 0x00, 0x00, 0xfc, 0x04, 0x00, 0x00,
  0xfc, 0x03, 0x00, 0x00, 0x8c, 0x03, 0x00, 0x00, 0x08, 0x03, 0x00, 0x00,
  0x8c, 0x02, 0x00, 0x00, 0x2c, 0x02, 0x00, 0x00, 0x48, 0x01, 0x00, 0x00,
  0xe0, 0x00, 0x00, 0x00, 0x60, 0x00, 0x00, 0x00, 0x04, 0x00, 0x00, 0x00,
  0x22, 0xec, 0xff, 0xff, 0x00, 0x00, 0x00, 0x01, 0x14, 0x00, 0x00, 0x00,
  0x1c, 0x00, 0x00, 0x00, 0x1c, 0x00, 0x00, 0x00, 0x2c, 0x00, 0x00, 0x00,
  0x34, 0x00, 0x00, 0x00, 0x02, 0x00, 0x00, 0x00, 0xff, 0xff, 0xff, 0xff,
  0x02, 0x00, 0x00, 0x00, 0x08, 0xec, 0xff, 0xff, 0x1b, 0x00, 0x00, 0x00,
  0x53, 0x74, 0x61, 0x74, 0x65, 0x66, 0x75, 0x6c, 0x50, 0x61, 0x72, 0x74,
  0x69, 0x74, 0x69, 0x6f, 0x6e, 0x65, 0x64, 0x43, 0x61, 0x6c, 0x6c, 0x5f,
  0x31, 0x3a, 0x30, 0x00, 0x02, 0x00, 0x00, 0x00, 0x01, 0x00, 0x00, 0x00,
  0x02, 0x00, 0x00, 0x00, 0x7a, 0xec, 0xff, 0xff, 0x00, 0x00, 0x00, 0x01,
  0x14, 0x00, 0x00, 0x00, 0x1c, 0x00, 0x00, 0x00, 0x1c, 0x00, 0x00, 0x00,
  0x2b, 0x00, 0x00, 0x00, 0x58, 0x00, 0x00, 0x00, 0x02, 0x00, 0x00, 0x00,
  0xff, 0xff, 0xff, 0xff, 0x02, 0x00, 0x00, 0x00, 0x60, 0xec, 0xff, 0xff,
  0x3c, 0x00, 0x00, 0x00, 0x73, 0x65, 0x71, 0x75, 0x65, 0x6e, 0x74, 0x69,
  0x61, 0x6c, 0x5f, 0x31, 0x2f, 0x64, 0x65, 0x6e, 0x73, 0x65, 0x5f, 0x31,
  0x5f, 0x32, 0x2f, 0x4d, 0x61, 0x74, 0x4d, 0x75, 0x6c, 0x3b, 0x73, 0x65,
  0x71, 0x75, 0x65, 0x6e, 0x74, 0x69, 0x61, 0x6c, 0x5f, 0x31, 0x2f, 0x64,
  0x65, 0x6e, 0x73, 0x65, 0x5f, 0x31, 0x5f, 0x32, 0x2f, 0x42, 0x69, 0x61,
  0x73, 0x41, 0x64, 0x64, 0x00, 0x00, 0x00, 0x00, 0x02, 0x00, 0x00, 0x00,
  0x01, 0x00, 0x00, 0x00, 0x02, 0x00, 0x00, 0x00, 0xf6, 0xec, 0xff, 0xff,
  0x00, 0x00, 0x00, 0x01, 0x14, 0x00, 0x00, 0x00, 0x1c, 0x00, 0x00, 0x00,
  0x1c, 0x00, 0x00, 0x00, 0x2a, 0x00, 0x00, 0x00, 0x40, 0x00, 0x00, 0x00,
  0x02, 0x00, 0x00, 0x00, 0xff, 0xff, 0xff, 0xff, 0x14, 0x00, 0x00, 0x00,
  0xdc, 0xec, 0xff, 0xff, 0x26, 0x00, 0x00, 0x00, 0x73, 0x65, 0x71, 0x75,
  0x65, 0x6e, 0x74, 0x69, 0x61, 0x6c, 0x5f, 0x31, 0x2f, 0x6c, 0x65, 0x61,
  0x6b, 0x79, 0x5f, 0x72, 0x65, 0x5f, 0x6c, 0x75, 0x5f, 0x33, 0x5f, 0x31,
  0x2f, 0x4c, 0x65, 0x61, 0x6b, 0x79, 0x52, 0x65, 0x6c, 0x75, 0x00, 0x00,
  0x02, 0x00, 0x00, 0x00, 0x01, 0x00, 0x00, 0x00, 0x14, 0x00, 0x00, 0x00,
  0x5a, 0xed, 0xff, 0xff, 0x00, 0x00, 0x00, 0x01, 0x14, 0x00, 0x00, 0x00,
  0x1c, 0x00, 0x00, 0x00, 0x1c, 0x00, 0x00, 0x00, 0x29, 0x00, 0x00, 0x00,
  0xbc, 0x00, 0x00, 0x00, 0x02, 0x00, 0x00, 0x00, 0xff, 0xff, 0xff, 0xff,
  0x14, 0x00, 0x00, 0x00, 0x40, 0xed, 0xff, 0xff, 0xa2, 0x00, 0x00, 0x00,
  0x73, 0x65, 0x71, 0x75, 0x65, 0x6e, 0x74, 0x69, 0x61, 0x6c, 0x5f, 0x31,
  0x2f, 0x64, 0x65, 0x6e, 0x73, 0x65, 0x5f, 0x31, 0x2f, 0x4d, 0x61, 0x74,
  0x4d, 0x75, 0x6c, 0x3b, 0x73, 0x65, 0x71, 0x75, 0x65, 0x6e, 0x74, 0x69,
  0x61, 0x6c, 0x5f, 0x31, 0x2f, 0x64, 0x65, 0x6e, 0x73, 0x65, 0x5f, 0x31,
  0x2f, 0x42, 0x69, 0x61, 0x73, 0x41, 0x64, 0x64, 0x3b, 0x73, 0x65, 0x71,
  0x75, 0x65, 0x6e, 0x74, 0x69, 0x61, 0x6c, 0x5f, 0x31, 0x2f, 0x62, 0x61,
  0x74, 0x63, 0x68, 0x5f, 0x6e, 0x6f, 0x72, 0x6d, 0x61, 0x6c, 0x69, 0x7a,
  0x61, 0x74, 0x69, 0x6f, 0x6e, 0x5f, 0x33, 0x5f, 0x31, 0x2f, 0x62, 0x61,
  0x74, 0x63, 0x68, 0x6e, 0x6f, 0x72, 0x6d, 0x2f, 0x6d, 0x75, 0x6c, 0x5f,
  0x31, 0x3b, 0x73, 0x65, 0x71, 0x75, 0x65, 0x6e, 0x74, 0x69, 0x61, 0x6c,
  0x5f, 0x31, 0x2f, 0x62, 0x61, 0x74, 0x63, 0x68, 0x5f, 0x6e, 0x6f, 0x72,
  0x6d, 0x61, 0x6c, 0x69, 0x7a, 0x61, 0x74, 0x69, 0x6f, 0x6e, 0x5f, 0x33,
  0x5f, 0x31, 0x2f, 0x62, 0x61, 0x74, 0x63, 0x68, 0x6e, 0x6f, 0x72, 0x6d,
  0x2f, 0x61, 0x64, 0x64, 0x5f, 0x31, 0x00, 0x00, 0x02, 0x00, 0x00, 0x00,
  0x01, 0x00, 0x00, 0x00, 0x14, 0x00, 0x00, 0x00, 0x3a, 0xee, 0xff, 0xff,
  0x00, 0x00, 0x00, 0x01, 0x14, 0x00, 0x00, 0x00, 0x1c, 0x00, 0x00, 0x00,
  0x1c, 0x00, 0x00, 0x00, 0x28, 0x00, 0x00, 0x00, 0x38, 0x00, 0x00, 0x00,
  0x02, 0x00, 0x00, 0x00, 0xff, 0xff, 0xff, 0xff, 0x28, 0x00, 0x00, 0x00,
  0x20, 0xee, 0xff, 0xff, 0x1e, 0x00, 0x00, 0x00, 0x73, 0x65, 0x71, 0x75,
  0x65, 0x6e, 0x74, 0x69, 0x61, 0x6c, 0x5f, 0x31, 0x2f, 0x66, 0x6c, 0x61,
  0x74, 0x74, 0x65, 0x6e, 0x5f, 0x31, 0x2f, 0x52, 0x65, 0x73, 0x68, 0x61,
  0x70, 0x65, 0x00, 0x00, 0x02, 0x00, 0x00, 0x00, 0x01, 0x00, 0x00, 0x00,
  0x28, 0x00, 0x00, 0x00, 0x96, 0xee, 0xff, 0xff, 0x00, 0x00, 0x00, 0x01,
  0x14, 0x00, 0x00, 0x00, 0x24, 0x00, 0x00, 0x00, 0x24, 0x00, 0x00, 0x00,
  0x27, 0x00, 0x00, 0x00, 0x4c, 0x00, 0x00, 0x00, 0x04, 0x00, 0x00, 0x00,
  0xff, 0xff, 0xff, 0xff, 0x01, 0x00, 0x00, 0x00, 0x02, 0x00, 0x00, 0x00,
  0x14, 0x00, 0x00, 0x00, 0x84, 0xee, 0xff, 0xff, 0x28, 0x00, 0x00, 0x00,
  0x73, 0x65, 0x71, 0x75, 0x65, 0x6e, 0x74, 0x69, 0x61, 0x6c, 0x5f, 0x31,
  0x2f, 0x6d, 0x61, 0x78, 0x5f, 0x70, 0x6f, 0x6f, 0x6c, 0x69, 0x6e, 0x67,
  0x31, 0x64, 0x5f, 0x32, 0x5f, 0x31, 0x2f, 0x4d, 0x61, 0x78, 0x50, 0x6f,
  0x6f, 0x6c, 0x31, 0x64, 0x00, 0x00, 0x00, 0x00, 0x04, 0x00, 0x00, 0x00,
  0x01, 0x00, 0x00, 0x00, 0x01, 0x00, 0x00, 0x00, 0x02, 0x00, 0x00, 0x00,
  0x14, 0x00, 0x00, 0x00, 0x0e, 0xef, 0xff, 0xff, 0x00, 0x00, 0x00, 0x01,
  0x14, 0x00, 0x00, 0x00, 0x24, 0x00, 0x00, 0x00, 0x24, 0x00, 0x00, 0x00,
  0x26, 0x00, 0x00, 0x00, 0x54, 0x00, 0x00, 0x00, 0x04, 0x00, 0x00, 0x00,
  0xff, 0xff, 0xff, 0xff, 0x01, 0x00, 0x00, 0x00, 0x04, 0x00, 0x00, 0x00,
  0x14, 0x00, 0x00, 0x00, 0xfc, 0xee, 0xff, 0xff, 0x33, 0x00, 0x00, 0x00,
  0x73, 0x65, 0x71, 0x75, 0x65, 0x6e, 0x74, 0x69, 0x61, 0x6c, 0x5f, 0x31,
  0x2f, 0x6d, 0x61, 0x78, 0x5f, 0x70, 0x6f, 0x6f, 0x6c, 0x69, 0x6e, 0x67,
  0x31, 0x64, 0x5f, 0x32, 0x5f, 0x31, 0x2f, 0x4d, 0x61, 0x78, 0x50, 0x6f,
  0x6f, 0x6c, 0x31, 0x64, 0x2f, 0x45, 0x78, 0x70, 0x61, 0x6e, 0x64, 0x44,
  0x69, 0x6d, 0x73, 0x00, 0x04, 0x00, 0x00, 0x00, 0x01, 0x00, 0x00, 0x00,
  0x01, 0x00, 0x00, 0x00, 0x04, 0x00, 0x00, 0x00, 0x14, 0x00, 0x00, 0x00,
  0x8e, 0xef, 0xff, 0xff, 0x00, 0x00, 0x00, 0x01, 0x14, 0x00, 0x00, 0x00,
  0x20, 0x00, 0x00, 0x00, 0x20, 0x00, 0x00, 0x00, 0x25, 0x00, 0x00, 0x00,
  0x44, 0x00, 0x00, 0x00, 0x03, 0x00, 0x00, 0x00, 0xff, 0xff, 0xff, 0xff,
  0x04, 0x00, 0x00, 0x00, 0x14, 0x00, 0x00, 0x00, 0x78, 0xef, 0xff, 0xff,
  0x26, 0x00, 0x00, 0x00, 0x73, 0x65, 0x71, 0x75, 0x65, 0x6e, 0x74, 0x69,
  0x61, 0x6c, 0x5f, 0x31, 0x2f, 0x6c, 0x65, 0x61, 0x6b, 0x79, 0x5f, 0x72,
  0x65, 0x5f, 0x6c, 0x75, 0x5f, 0x32, 0x5f, 0x31, 0x2f, 0x4c, 0x65, 0x61,
  0x6b, 0x79, 0x52, 0x65, 0x6c, 0x75, 0x00, 0x00, 0x03, 0x00, 0x00, 0x00,
  0x01, 0x00, 0x00, 0x00, 0x04, 0x00, 0x00, 0x00, 0x14, 0x00, 0x00, 0x00,
  0xfa, 0xef, 0xff, 0xff, 0x00, 0x00, 0x00, 0x01, 0x14, 0x00, 0x00, 0x00,
  0x20, 0x00, 0x00, 0x00, 0x20, 0x00, 0x00, 0x00, 0x24, 0x00, 0x00, 0x00,
  0xd4, 0x00, 0x00, 0x00, 0x03, 0x00, 0x00, 0x00, 0xff, 0xff, 0xff, 0xff,
  0x04, 0x00, 0x00, 0x00, 0x14, 0x00, 0x00, 0x00, 0xe4, 0xef, 0xff, 0xff,
  0xb6, 0x00, 0x00, 0x00, 0x73, 0x65, 0x71, 0x75, 0x65, 0x6e, 0x74, 0x69,
  0x61, 0x6c, 0x5f, 0x31, 0x2f, 0x62, 0x61, 0x74, 0x63, 0x68, 0x5f, 0x6e,
  0x6f, 0x72, 0x6d, 0x61, 0x6c, 0x69, 0x7a, 0x61, 0x74, 0x69, 0x6f, 0x6e,
  0x5f, 0x32, 0x5f, 0x31, 0x2f, 0x62, 0x61, 0x74, 0x63, 0x68, 0x6e, 0x6f,
  0x72, 0x6d, 0x2f, 0x61, 0x64, 0x64, 0x5f, 0x31, 0x3b, 0x73, 0x65, 0x71,
  0x75, 0x65, 0x6e, 0x74, 0x69, 0x61, 0x6c, 0x5f, 0x31, 0x2f, 0x63, 0x6f,
  0x6e, 0x76, 0x31, 0x64, 0x5f, 0x32, 0x5f, 0x31, 0x2f, 0x63, 0x6f, 0x6e,
  0x76, 0x6f, 0x6c, 0x75, 0x74, 0x69, 0x6f, 0x6e, 0x2f, 0x53, 0x71, 0x75,
  0x65, 0x65, 0x7a, 0x65, 0x3b, 0x73, 0x65, 0x71, 0x75, 0x65, 0x6e, 0x74,
  0x69, 0x61, 0x6c, 0x5f, 0x31, 0x2f, 0x62, 0x61, 0x74, 0x63, 0x68, 0x5f,
  0x6e, 0x6f, 0x72, 0x6d, 0x61, 0x6c, 0x69, 0x7a, 0x61, 0x74, 0x69, 0x6f,
  0x6e, 0x5f, 0x32, 0x5f, 0x31, 0x2f, 0x62, 0x61, 0x74, 0x63, 0x68, 0x6e,
  0x6f, 0x72, 0x6d, 0x2f, 0x6d, 0x75, 0x6c, 0x5f, 0x31, 0x3b, 0x73, 0x65,
  0x71, 0x75, 0x65, 0x6e, 0x74, 0x69, 0x61, 0x6c, 0x5f, 0x31, 0x2f, 0x63,
  0x6f, 0x6e, 0x76, 0x31, 0x64, 0x5f, 0x32, 0x5f, 0x31, 0x2f, 0x42, 0x69,
  0x61, 0x73, 0x41, 0x64, 0x64, 0x3b, 0x00, 0x00, 0x03, 0x00, 0x00, 0x00,
  0x01, 0x00, 0x00, 0x00, 0x04, 0x00, 0x00, 0x00, 0x14, 0x00, 0x00, 0x00,
  0xf6, 0xf0, 0xff, 0xff, 0x00, 0x00, 0x00, 0x01, 0x14, 0x00, 0x00, 0x00,
  0x24, 0x00, 0x00, 0x00, 0x24, 0x00, 0x00, 0x00, 0x23, 0x00, 0x00, 0x00,
  0xfc, 0x00, 0x00, 0x00, 0x04, 0x00, 0x00, 0x00, 0xff, 0xff, 0xff, 0xff,
  0x01, 0x00, 0x00, 0x00, 0x04, 0x00, 0x00, 0x00, 0x14, 0x00, 0x00, 0x00,
  0xe4, 0xf0, 0xff, 0xff, 0xda, 0x00, 0x00, 0x00, 0x73, 0x65, 0x71, 0x75,
  0x65, 0x6e, 0x74, 0x69, 0x61, 0x6c, 0x5f, 0x31, 0x2f, 0x62, 0x61, 0x74,
  0x63, 0x68, 0x5f, 0x6e, 0x6f, 0x72, 0x6d, 0x61, 0x6c, 0x69, 0x7a, 0x61,
  0x74, 0x69, 0x6f, 0x6e, 0x5f, 0x32, 0x5f, 0x31, 0x2f, 0x62, 0x61, 0x74,
  0x63, 0x68, 0x6e, 0x6f, 0x72, 0x6d, 0x2f, 0x61, 0x64, 0x64, 0x5f, 0x31,
  0x3b, 0x73, 0x65, 0x71, 0x75, 0x65, 0x6e, 0x74, 0x69, 0x61, 0x6c, 0x5f,
  0x31, 0x2f, 0x63, 0x6f, 0x6e, 0x76, 0x31, 0x64, 0x5f, 0x32, 0x5f, 0x31,
  0x2f, 0x63, 0x6f, 0x6e, 0x76, 0x6f, 0x6c, 0x75, 0x74, 0x69, 0x6f, 0x6e,
  0x2f, 0x53, 0x71, 0x75, 0x65, 0x65, 0x7a, 0x65, 0x3b, 0x73, 0x65, 0x71,
  0x75, 0x65, 0x6e, 0x74, 0x69, 0x61, 0x6c, 0x5f, 0x31, 0x2f, 0x62, 0x61,
  0x74, 0x63, 0x68, 0x5f, 0x6e, 0x6f, 0x72, 0x6d, 0x61, 0x6c, 0x69, 0x7a,
  0x61, 0x74, 0x69, 0x6f, 0x6e, 0x5f, 0x32, 0x5f, 0x31, 0x2f, 0x62, 0x61,
  0x74, 0x63, 0x68, 0x6e, 0x6f, 0x72, 0x6d, 0x2f, 0x6d, 0x75, 0x6c, 0x5f,
  0x31, 0x3b, 0x73, 0x65, 0x71, 0x75, 0x65, 0x6e, 0x74, 0x69, 0x61, 0x6c,
  0x5f, 0x31, 0x2f, 0x63, 0x6f, 0x6e, 0x76, 0x31, 0x64, 0x5f, 0x32, 0x5f,
  0x31, 0x2f, 0x42, 0x69, 0x61, 0x73, 0x41, 0x64, 0x64, 0x3b, 0x3b, 0x73,
  0x65, 0x71, 0x75, 0x65, 0x6e, 0x74, 0x69, 0x61, 0x6c, 0x5f, 0x31, 0x2f,
  0x63, 0x6f, 0x6e, 0x76, 0x31, 0x64, 0x5f, 0x32, 0x5f, 0x31, 0x2f, 0x63,
  0x6f, 0x6e, 0x76, 0x6f, 0x6c, 0x75, 0x74, 0x69, 0x6f, 0x6e, 0x00, 0x00,
  0x04, 0x00, 0x00, 0x00, 0x01, 0x00, 0x00, 0x00, 0x01, 0x00, 0x00, 0x00,
  0x04, 0x00, 0x00, 0x00, 0x14, 0x00, 0x00, 0x00, 0x1e, 0xf2, 0xff, 0xff,
  0x00, 0x00, 0x00, 0x01, 0x14, 0x00, 0x00, 0x00, 0x24, 0x00, 0x00, 0x00,
  0x24, 0x00, 0x00, 0x00, 0x22, 0x00, 0x00, 0x00, 0x50, 0x00, 0x00, 0x00,
  0x04, 0x00, 0x00, 0x00, 0xff, 0xff, 0xff, 0xff, 0x01, 0x00, 0x00, 0x00,
  0x04, 0x00, 0x00, 0x00, 0x10, 0x00, 0x00, 0x00, 0x0c, 0xf2, 0xff, 0xff,
  0x2e, 0x00, 0x00, 0x00, 0x73, 0x65, 0x71, 0x75, 0x65, 0x6e, 0x74, 0x69,
  0x61, 0x6c, 0x5f, 0x31, 0x2f, 0x63, 0x6f, 0x6e, 0x76, 0x31, 0x64, 0x5f,
  0x32, 0x5f, 0x31, 0x2f, 0x63, 0x6f, 0x6e, 0x76, 0x6f, 0x6c, 0x75, 0x74,
  0x69, 0x6f, 0x6e, 0x2f, 0x45, 0x78, 0x70, 0x61, 0x6e, 0x64, 0x44, 0x69,
  0x6d, 0x73, 0x00, 0x00, 0x04, 0x00, 0x00, 0x00, 0x01, 0x00, 0x00, 0x00,
  0x01, 0x00, 0x00, 0x00, 0x04, 0x00, 0x00, 0x00, 0x10, 0x00, 0x00, 0x00,
  0x9a, 0xf2, 0xff, 0xff, 0x00, 0x00, 0x00, 0x01, 0x14, 0x00, 0x00, 0x00,
  0x20, 0x00, 0x00, 0x00, 0x20, 0x00, 0x00, 0x00, 0x21, 0x00, 0x00, 0x00,
  0x50, 0x00, 0x00, 0x00, 0x03, 0x00, 0x00, 0x00, 0xff, 0xff, 0xff, 0xff,
  0x04, 0x00, 0x00, 0x00, 0x10, 0x00, 0x00, 0x00, 0x84, 0xf2, 0xff, 0xff,
  0x30, 0x00, 0x00, 0x00, 0x73, 0x65, 0x71, 0x75, 0x65, 0x6e, 0x74, 0x69,
  0x61, 0x6c, 0x5f, 0x31, 0x2f, 0x6d, 0x61, 0x78, 0x5f, 0x70, 0x6f, 0x6f,
  0x6c, 0x69, 0x6e, 0x67, 0x31, 0x64, 0x5f, 0x31, 0x5f, 0x32, 0x2f, 0x4d,
  0x61, 0x78, 0x50, 0x6f, 0x6f, 0x6c, 0x31, 0x64, 0x2f, 0x53, 0x71, 0x75,
  0x65, 0x65, 0x7a, 0x65, 0x00, 0x00, 0x00, 0x00, 0x03, 0x00, 0x00, 0x00,
  0x01, 0x00, 0x00, 0x00, 0x04, 0x00, 0x00, 0x00, 0x10, 0x00, 0x00, 0x00,
  0x12, 0xf3, 0xff, 0xff, 0x00, 0x00, 0x00, 0x01, 0x14, 0x00, 0x00, 0x00,
  0x24, 0x00, 0x00, 0x00, 0x24, 0x00, 0x00, 0x00, 0x20, 0x00, 0x00, 0x00,
  0x4c, 0x00, 0x00, 0x00, 0x04, 0x00, 0x00, 0x00, 0xff, 0xff, 0xff, 0xff,
  0x01, 0x00, 0x00, 0x00, 0x04, 0x00, 0x00, 0x00, 0x10, 0x00, 0x00, 0x00,
  0x00, 0xf3, 0xff, 0xff, 0x28, 0x00, 0x00, 0x00, 0x73, 0x65, 0x71, 0x75,
  0x65, 0x6e, 0x74, 0x69, 0x61, 0x6c, 0x5f, 0x31, 0x2f, 0x6d, 0x61, 0x78,
  0x5f, 0x70, 0x6f, 0x6f, 0x6c, 0x69, 0x6e, 0x67, 0x31, 0x64, 0x5f, 0x31,
  0x5f, 0x32, 0x2f, 0x4d, 0x61, 0x78, 0x50, 0x6f, 0x6f, 0x6c, 0x31, 0x64,
  0x00, 0x00, 0x00, 0x00, 0x04, 0x00, 0x00, 0x00, 0x01, 0x00, 0x00, 0x00,
  0x01, 0x00, 0x00, 0x00, 0x04, 0x00, 0x00, 0x00, 0x10, 0x00, 0x00, 0x00,
  0x8a, 0xf3, 0xff, 0xff, 0x00, 0x00, 0x00, 0x01, 0x14, 0x00, 0x00, 0x00,
  0x24, 0x00, 0x00, 0x00, 0x24, 0x00, 0x00, 0x00, 0x1f, 0x00, 0x00, 0x00,
  0x54, 0x00, 0x00, 0x00, 0x04, 0x00, 0x00, 0x00, 0xff, 0xff, 0xff, 0xff,
  0x01, 0x00, 0x00, 0x00, 0x08, 0x00, 0x00, 0x00, 0x10, 0x00, 0x00, 0x00,
  0x78, 0xf3, 0xff, 0xff, 0x33, 0x00, 0x00, 0x00, 0x73, 0x65, 0x71, 0x75,
  0x65, 0x6e, 0x74, 0x69, 0x61, 0x6c, 0x5f, 0x31, 0x2f, 0x6d, 0x61, 0x78,
  0x5f, 0x70, 0x6f, 0x6f, 0x6c, 0x69, 0x6e, 0x67, 0x31, 0x64, 0x5f, 0x31,
  0x5f, 0x32, 0x2f, 0x4d, 0x61, 0x78, 0x50, 0x6f, 0x6f, 0x6c, 0x31, 0x64,
  0x2f, 0x45, 0x78, 0x70, 0x61, 0x6e, 0x64, 0x44, 0x69, 0x6d, 0x73, 0x00,
  0x04, 0x00, 0x00, 0x00, 0x01, 0x00, 0x00, 0x00, 0x01, 0x00, 0x00, 0x00,
  0x08, 0x00, 0x00, 0x00, 0x10, 0x00, 0x00, 0x00, 0x0a, 0xf4, 0xff, 0xff,
  0x00, 0x00, 0x00, 0x01, 0x14, 0x00, 0x00, 0x00, 0x20, 0x00, 0x00, 0x00,
  0x20, 0x00, 0x00, 0x00, 0x1e, 0x00, 0x00, 0x00, 0x44, 0x00, 0x00, 0x00,
  0x03, 0x00, 0x00, 0x00, 0xff, 0xff, 0xff, 0xff, 0x08, 0x00, 0x00, 0x00,
  0x10, 0x00, 0x00, 0x00, 0xf4, 0xf3, 0xff, 0xff, 0x26, 0x00, 0x00, 0x00,
  0x73, 0x65, 0x71, 0x75, 0x65, 0x6e, 0x74, 0x69, 0x61, 0x6c, 0x5f, 0x31,
  0x2f, 0x6c, 0x65, 0x61, 0x6b, 0x79, 0x5f, 0x72, 0x65, 0x5f, 0x6c, 0x75,
  0x5f, 0x31, 0x5f, 0x32, 0x2f, 0x4c, 0x65, 0x61, 0x6b, 0x79, 0x52, 0x65,
  0x6c, 0x75, 0x00, 0x00, 0x03, 0x00, 0x00, 0x00, 0x01, 0x00, 0x00, 0x00,
  0x08, 0x00, 0x00, 0x00, 0x10, 0x00, 0x00, 0x00, 0x76, 0xf4, 0xff, 0xff,
  0x00, 0x00, 0x00, 0x01, 0x14, 0x00, 0x00, 0x00, 0x20, 0x00, 0x00, 0x00,
  0x20, 0x00, 0x00, 0x00, 0x1d, 0x00, 0x00, 0x00, 0xd4, 0x00, 0x00, 0x00,
  0x03, 0x00, 0x00, 0x00, 0xff, 0xff, 0xff, 0xff, 0x08, 0x00, 0x00, 0x00,
  0x10, 0x00, 0x00, 0x00, 0x60, 0xf4, 0xff, 0xff, 0xb6, 0x00, 0x00, 0x00,
  0x73, 0x65, 0x71, 0x75, 0x65, 0x6e, 0x74, 0x69, 0x61, 0x6c, 0x5f, 0x31,
  0x2f, 0x62, 0x61, 0x74, 0x63, 0x68, 0x5f, 0x6e, 0x6f, 0x72, 0x6d, 0x61,
  0x6c, 0x69, 0x7a, 0x61, 0x74, 0x69, 0x6f, 0x6e, 0x5f, 0x31, 0x5f, 0x32,
  0x2f, 0x62, 0x61, 0x74, 0x63, 0x68, 0x6e, 0x6f, 0x72, 0x6d, 0x2f, 0x61,
  0x64, 0x64, 0x5f, 0x31, 0x3b, 0x73, 0x65, 0x71, 0x75, 0x65, 0x6e, 0x74,
  0x69, 0x61, 0x6c, 0x5f, 0x31, 0x2f, 0x63, 0x6f, 0x6e, 0x76, 0x31, 0x64,
  0x5f, 0x31, 0x5f, 0x32, 0x2f, 0x63, 0x6f, 0x6e, 0x76, 0x6f, 0x6c, 0x75,
  0x74, 0x69, 0x6f, 0x6e, 0x2f, 0x53, 0x71, 0x75, 0x65, 0x65, 0x7a, 0x65,
  0x3b, 0x73, 0x65, 0x71, 0x75, 0x65, 0x6e, 0x74, 0x69, 0x61, 0x6c, 0x5f,
  0x31, 0x2f, 0x62, 0x61, 0x74, 0x63, 0x68, 0x5f, 0x6e, 0x6f, 0x72, 0x6d,
  0x61, 0x6c, 0x69, 0x7a, 0x61, 0x74, 0x69, 0x6f, 0x6e, 0x5f, 0x31, 0x5f,
  0x32, 0x2f, 0x62, 0x61, 0x74, 0x63, 0x68, 0x6e, 0x6f, 0x72, 0x6d, 0x2f,
  0x6d, 0x75, 0x6c, 0x5f, 0x31, 0x3b, 0x73, 0x65, 0x71, 0x75, 0x65, 0x6e,
  0x74, 0x69, 0x61, 0x6c, 0x5f, 0x31, 0x2f, 0x63, 0x6f, 0x6e, 0x76, 0x31,
  0x64, 0x5f, 0x31, 0x5f, 0x32, 0x2f, 0x42, 0x69, 0x61, 0x73, 0x41, 0x64,
  0x64, 0x3b, 0x00, 0x00, 0x03, 0x00, 0x00, 0x00, 0x01, 0x00, 0x00, 0x00,
  0x08, 0x00, 0x00, 0x00, 0x10, 0x00, 0x00, 0x00, 0x72, 0xf5, 0xff, 0xff,
  0x00, 0x00, 0x00, 0x01, 0x14, 0x00, 0x00, 0x00, 0x24, 0x00, 0x00, 0x00,
  0x24, 0x00, 0x00, 0x00, 0x1c, 0x00, 0x00, 0x00, 0xfc, 0x00, 0x00, 0x00,
  0x04, 0x00, 0x00, 0x00, 0xff, 0xff, 0xff, 0xff, 0x01, 0x00, 0x00, 0x00,
  0x08, 0x00, 0x00, 0x00, 0x10, 0x00, 0x00, 0x00, 0x60, 0xf5, 0xff, 0xff,
  0xda, 0x00, 0x00, 0x00, 0x73, 0x65, 0x71, 0x75, 0x65, 0x6e, 0x74, 0x69,
  0x61, 0x6c, 0x5f, 0x31, 0x2f, 0x62, 0x61, 0x74, 0x63, 0x68, 0x5f, 0x6e,
  0x6f, 0x72, 0x6d, 0x61, 0x6c, 0x69, 0x7a, 0x61, 0x74, 0x69, 0x6f, 0x6e,
  0x5f, 0x31, 0x5f, 0x32, 0x2f, 0x62, 0x61, 0x74, 0x63, 0x68, 0x6e, 0x6f,
  0x72, 0x6d, 0x2f, 0x61, 0x64, 0x64, 0x5f, 0x31, 0x3b, 0x73, 0x65, 0x71,
  0x75, 0x65, 0x6e, 0x74, 0x69, 0x61, 0x6c, 0x5f, 0x31, 0x2f, 0x63, 0x6f,
  0x6e, 0x76, 0x31, 0x64, 0x5f, 0x31, 0x5f, 0x32, 0x2f, 0x63, 0x6f, 0x6e,
  0x76, 0x6f, 0x6c, 0x75, 0x74, 0x69, 0x6f, 0x6e, 0x2f, 0x53, 0x71, 0x75,
  0x65, 0x65, 0x7a, 0x65, 0x3b, 0x73, 0x65, 0x71, 0x75, 0x65, 0x6e, 0x74,
  0x69, 0x61, 0x6c, 0x5f, 0x31, 0x2f, 0x62, 0x61, 0x74, 0x63, 0x68, 0x5f,
  0x6e, 0x6f, 0x72, 0x6d, 0x61, 0x6c, 0x69, 0x7a, 0x61, 0x74, 0x69, 0x6f,
  0x6e, 0x5f, 0x31, 0x5f, 0x32, 0x2f, 0x62, 0x61, 0x74, 0x63, 0x68, 0x6e,
  0x6f, 0x72, 0x6d, 0x2f, 0x6d, 0x75, 0x6c, 0x5f, 0x31, 0x3b, 0x73, 0x65,
  0x71, 0x75, 0x65, 0x6e, 0x74, 0x69, 0x61, 0x6c, 0x5f, 0x31, 0x2f, 0x63,
  0x6f, 0x6e, 0x76, 0x31, 0x64, 0x5f, 0x31, 0x5f, 0x32, 0x2f, 0x42, 0x69,
  0x61, 0x73, 0x41, 0x64, 0x64, 0x3b, 0x3b, 0x73, 0x65, 0x71, 0x75, 0x65,
  0x6e, 0x74, 0x69, 0x61, 0x6c, 0x5f, 0x31, 0x2f, 0x63, 0x6f, 0x6e, 0x76,
  0x31, 0x64, 0x5f, 0x31, 0x5f, 0x32, 0x2f, 0x63, 0x6f, 0x6e, 0x76, 0x6f,
  0x6c, 0x75, 0x74, 0x69, 0x6f, 0x6e, 0x00, 0x00, 0x04, 0x00, 0x00, 0x00,
  0x01, 0x00, 0x00, 0x00, 0x01, 0x00, 0x00, 0x00, 0x08, 0x00, 0x00, 0x00,
  0x10, 0x00, 0x00, 0x00, 0x9a, 0xf6, 0xff, 0xff, 0x00, 0x00, 0x00, 0x01,
  0x14, 0x00, 0x00, 0x00, 0x24, 0x00, 0x00, 0x00, 0x24, 0x00, 0x00, 0x00,
  0x1b, 0x00, 0x00, 0x00, 0x50, 0x00, 0x00, 0x00, 0x04, 0x00, 0x00, 0x00,
  0xff, 0xff, 0xff, 0xff, 0x01, 0x00, 0x00, 0x00, 0x08, 0x00, 0x00, 0x00,
  0x08, 0x00, 0x00, 0x00, 0x88, 0xf6, 0xff, 0xff, 0x2e, 0x00, 0x00, 0x00,
  0x73, 0x65, 0x71, 0x75, 0x65, 0x6e, 0x74, 0x69, 0x61, 0x6c, 0x5f, 0x31,
  0x2f, 0x63, 0x6f, 0x6e, 0x76, 0x31, 0x64, 0x5f, 0x31, 0x5f, 0x32, 0x2f,
  0x63, 0x6f, 0x6e, 0x76, 0x6f, 0x6c, 0x75, 0x74, 0x69, 0x6f, 0x6e, 0x2f,
  0x45, 0x78, 0x70, 0x61, 0x6e, 0x64, 0x44, 0x69, 0x6d, 0x73, 0x00, 0x00,
  0x04, 0x00, 0x00, 0x00, 0x01, 0x00, 0x00, 0x00, 0x01, 0x00, 0x00, 0x00,
  0x08, 0x00, 0x00, 0x00, 0x08, 0x00, 0x00, 0x00, 0x16, 0xf7, 0xff, 0xff,
  0x00, 0x00, 0x00, 0x01, 0x14, 0x00, 0x00, 0x00, 0x20, 0x00, 0x00, 0x00,
  0x20, 0x00, 0x00, 0x00, 0x1a, 0x00, 0x00, 0x00, 0x4c, 0x00, 0x00, 0x00,
  0x03, 0x00, 0x00, 0x00, 0xff, 0xff, 0xff, 0xff, 0x08, 0x00, 0x00, 0x00,
  0x08, 0x00, 0x00, 0x00, 0x00, 0xf7, 0xff, 0xff, 0x2e, 0x00, 0x00, 0x00,
  0x73, 0x65, 0x71, 0x75, 0x65, 0x6e, 0x74, 0x69, 0x61, 0x6c, 0x5f, 0x31,
  0x2f, 0x6d, 0x61, 0x78, 0x5f, 0x70, 0x6f, 0x6f, 0x6c, 0x69, 0x6e, 0x67,
  0x31, 0x64, 0x5f, 0x31, 0x2f, 0x4d, 0x61, 0x78, 0x50, 0x6f, 0x6f, 0x6c,
  0x31, 0x64, 0x2f, 0x53, 0x71, 0x75, 0x65, 0x65, 0x7a, 0x65, 0x00, 0x00,
  0x03, 0x00, 0x00, 0x00, 0x01, 0x00, 0x00, 0x00, 0x08, 0x00, 0x00, 0x00,
  0x08, 0x00, 0x00, 0x00, 0x8a, 0xf7, 0xff, 0xff, 0x00, 0x00, 0x00, 0x01,
  0x14, 0x00, 0x00, 0x00, 0x24, 0x00, 0x00, 0x00, 0x24, 0x00, 0x00, 0x00,
  0x19, 0x00, 0x00, 0x00, 0x48, 0x00, 0x00, 0x00, 0x04, 0x00, 0x00, 0x00,
  0xff, 0xff, 0xff, 0xff, 0x01, 0x00, 0x00, 0x00, 0x08, 0x00, 0x00, 0x00,
  0x08, 0x00, 0x00, 0x00, 0x78, 0xf7, 0xff, 0xff, 0x26, 0x00, 0x00, 0x00,
  0x73, 0x65, 0x71, 0x75, 0x65, 0x6e, 0x74, 0x69, 0x61, 0x6c, 0x5f, 0x31,
  0x2f, 0x6d, 0x61, 0x78, 0x5f, 0x70, 0x6f, 0x6f, 0x6c, 0x69, 0x6e, 0x67,
  0x31, 0x64, 0x5f, 0x31, 0x2f, 0x4d, 0x61, 0x78, 0x50, 0x6f, 0x6f, 0x6c,
  0x31, 0x64, 0x00, 0x00, 0x04, 0x00, 0x00, 0x00, 0x01, 0x00, 0x00, 0x00,
  0x01, 0x00, 0x00, 0x00, 0x08, 0x00, 0x00, 0x00, 0x08, 0x00, 0x00, 0x00,
  0xfe, 0xf7, 0xff, 0xff, 0x00, 0x00, 0x00, 0x01, 0x14, 0x00, 0x00, 0x00,
  0x24, 0x00, 0x00, 0x00, 0x24, 0x00, 0x00, 0x00, 0x18, 0x00, 0x00, 0x00,
  0x54, 0x00, 0x00, 0x00, 0x04, 0x00, 0x00, 0x00, 0xff, 0xff, 0xff, 0xff,
  0x01, 0x00, 0x00, 0x00, 0x10, 0x00, 0x00, 0x00, 0x08, 0x00, 0x00, 0x00,
  0xec, 0xf7, 0xff, 0xff, 0x31, 0x00, 0x00, 0x00, 0x73, 0x65, 0x71, 0x75,
  0x65, 0x6e, 0x74, 0x69, 0x61, 0x6c, 0x5f, 0x31, 0x2f, 0x6d, 0x61, 0x78,
  0x5f, 0x70, 0x6f, 0x6f, 0x6c, 0x69, 0x6e, 0x67, 0x31, 0x64, 0x5f, 0x31,
  0x2f, 0x4d, 0x61, 0x78, 0x50, 0x6f, 0x6f, 0x6c, 0x31, 0x64, 0x2f, 0x45,
  0x78, 0x70, 0x61, 0x6e, 0x64, 0x44, 0x69, 0x6d, 0x73, 0x00, 0x00, 0x00,
  0x04, 0x00, 0x00, 0x00, 0x01, 0x00, 0x00, 0x00, 0x01, 0x00, 0x00, 0x00,
  0x10, 0x00, 0x00, 0x00, 0x08, 0x00, 0x00, 0x00, 0x7e, 0xf8, 0xff, 0xff,
  0x00, 0x00, 0x00, 0x01, 0x14, 0x00, 0x00, 0x00, 0x20, 0x00, 0x00, 0x00,
  0x20, 0x00, 0x00, 0x00, 0x17, 0x00, 0x00, 0x00, 0x44, 0x00, 0x00, 0x00,
  0x03, 0x00, 0x00, 0x00, 0xff, 0xff, 0xff, 0xff, 0x10, 0x00, 0x00, 0x00,
  0x08, 0x00, 0x00, 0x00, 0x68, 0xf8, 0xff, 0xff, 0x24, 0x00, 0x00, 0x00,
  0x73, 0x65, 0x71, 0x75, 0x65, 0x6e, 0x74, 0x69, 0x61, 0x6c, 0x5f, 0x31,
  0x2f, 0x6c, 0x65, 0x61, 0x6b, 0x79, 0x5f, 0x72, 0x65, 0x5f, 0x6c, 0x75,
  0x5f, 0x31, 0x2f, 0x4c, 0x65, 0x61, 0x6b, 0x79, 0x52, 0x65, 0x6c, 0x75,
  0x00, 0x00, 0x00, 0x00, 0x03, 0x00, 0x00, 0x00, 0x01, 0x00, 0x00, 0x00,
  0x10, 0x00, 0x00, 0x00, 0x08, 0x00, 0x00, 0x00, 0xea, 0xf8, 0xff, 0xff,
  0x00, 0x00, 0x00, 0x01, 0x14, 0x00, 0x00, 0x00, 0x20, 0x00, 0x00, 0x00,
  0x20, 0x00, 0x00, 0x00, 0x16, 0x00, 0x00, 0x00, 0xcc, 0x00, 0x00, 0x00,
  0x03, 0x00, 0x00, 0x00, 0xff, 0xff, 0xff, 0xff, 0x10, 0x00, 0x00, 0x00,
  0x08, 0x00, 0x00, 0x00, 0xd4, 0xf8, 0xff, 0xff, 0xae, 0x00, 0x00, 0x00,
  0x73, 0x65, 0x71, 0x75, 0x65, 0x6e, 0x74, 0x69, 0x61, 0x6c, 0x5f, 0x31,
  0x2f, 0x62, 0x61, 0x74, 0x63, 0x68, 0x5f, 0x6e, 0x6f, 0x72, 0x6d, 0x61,
  0x6c, 0x69, 0x7a, 0x61, 0x74, 0x69, 0x6f, 0x6e, 0x5f, 0x31, 0x2f, 0x62,
  0x61, 0x74, 0x63, 0x68, 0x6e, 0x6f, 0x72, 0x6d, 0x2f, 0x61, 0x64, 0x64,
  0x5f, 0x31, 0x3b, 0x73, 0x65, 0x71, 0x75, 0x65, 0x6e, 0x74, 0x69, 0x61,
  0x6c, 0x5f, 0x31, 0x2f, 0x63, 0x6f, 0x6e, 0x76, 0x31, 0x64, 0x5f, 0x31,
  0x2f, 0x63, 0x6f, 0x6e, 0x76, 0x6f, 0x6c, 0x75, 0x74, 0x69, 0x6f, 0x6e,
  0x2f, 0x53, 0x71, 0x75, 0x65, 0x65, 0x7a, 0x65, 0x3b, 0x73, 0x65, 0x71,
  0x75, 0x65, 0x6e, 0x74, 0x69, 0x61, 0x6c, 0x5f, 0x31, 0x2f, 0x62, 0x61,
  0x74, 0x63, 0x68, 0x5f, 0x6e, 0x6f, 0x72, 0x6d, 0x61, 0x6c, 0x69, 0x7a,
  0x61, 0x74, 0x69, 0x6f, 0x6e, 0x5f, 0x31, 0x2f, 0x62, 0x61, 0x74, 0x63,
  0x68, 0x6e, 0x6f, 0x72, 0x6d, 0x2f, 0x6d, 0x75, 0x6c, 0x5f, 0x31, 0x3b,
  0x73, 0x65, 0x71, 0x75, 0x65, 0x6e, 0x74, 0x69, 0x61, 0x6c, 0x5f, 0x31,
  0x2f, 0x63, 0x6f, 0x6e, 0x76, 0x31, 0x64, 0x5f, 0x31, 0x2f, 0x42, 0x69,
  0x61, 0x73, 0x41, 0x64, 0x64, 0x3b, 0x00, 0x00, 0x03, 0x00, 0x00, 0x00,
  0x01, 0x00, 0x00, 0x00, 0x10, 0x00, 0x00, 0x00, 0x08, 0x00, 0x00, 0x00,
  0xde, 0xf9, 0xff, 0xff, 0x00, 0x00, 0x00, 0x01, 0x14, 0x00, 0x00, 0x00,
  0x24, 0x00, 0x00, 0x00, 0x24, 0x00, 0x00, 0x00, 0x15, 0x00, 0x00, 0x00,
  0xf4, 0x00, 0x00, 0x00, 0x04, 0x00, 0x00, 0x00, 0xff, 0xff, 0xff, 0xff,
  0x01, 0x00, 0x00, 0x00, 0x10, 0x00, 0x00, 0x00, 0x08, 0x00, 0x00, 0x00,
  0xcc, 0xf9, 0xff, 0xff, 0xd0, 0x00, 0x00, 0x00, 0x73, 0x65, 0x71, 0x75,
  0x65, 0x6e, 0x74, 0x69, 0x61, 0x6c, 0x5f, 0x31, 0x2f, 0x62, 0x61, 0x74,
  0x63, 0x68, 0x5f, 0x6e, 0x6f, 0x72, 0x6d, 0x61, 0x6c, 0x69, 0x7a, 0x61,
  0x74, 0x69, 0x6f, 0x6e, 0x5f, 0x31, 0x2f, 0x62, 0x61, 0x74, 0x63, 0x68,
  0x6e, 0x6f, 0x72, 0x6d, 0x2f, 0x61, 0x64, 0x64, 0x5f, 0x31, 0x3b, 0x73,
  0x65, 0x71, 0x75, 0x65, 0x6e, 0x74, 0x69, 0x61, 0x6c, 0x5f, 0x31, 0x2f,
  0x63, 0x6f, 0x6e, 0x76, 0x31, 0x64, 0x5f, 0x31, 0x2f, 0x63, 0x6f, 0x6e,
  0x76, 0x6f, 0x6c, 0x75, 0x74, 0x69, 0x6f, 0x6e, 0x2f, 0x53, 0x71, 0x75,
  0x65, 0x65, 0x7a, 0x65, 0x3b, 0x73, 0x65, 0x71, 0x75, 0x65, 0x6e, 0x74,
  0x69, 0x61, 0x6c, 0x5f, 0x31, 0x2f, 0x62, 0x61, 0x74, 0x63, 0x68, 0x5f,
  0x6e, 0x6f, 0x72, 0x6d, 0x61, 0x6c, 0x69, 0x7a, 0x61, 0x74, 0x69, 0x6f,
  0x6e, 0x5f, 0x31, 0x2f, 0x62, 0x61, 0x74, 0x63, 0x68, 0x6e, 0x6f, 0x72,
  0x6d, 0x2f, 0x6d, 0x75, 0x6c, 0x5f, 0x31, 0x3b, 0x73, 0x65, 0x71, 0x75,
  0x65, 0x6e, 0x74, 0x69, 0x61, 0x6c, 0x5f, 0x31, 0x2f, 0x63, 0x6f, 0x6e,
  0x76, 0x31, 0x64, 0x5f, 0x31, 0x2f, 0x42, 0x69, 0x61, 0x73, 0x41, 0x64,
  0x64, 0x3b, 0x3b, 0x73, 0x65, 0x71, 0x75, 0x65, 0x6e, 0x74, 0x69, 0x61,
  0x6c, 0x5f, 0x31, 0x2f, 0x63, 0x6f, 0x6e, 0x76, 0x31, 0x64, 0x5f, 0x31,
  0x2f, 0x63, 0x6f, 0x6e, 0x76, 0x6f, 0x6c, 0x75, 0x74, 0x69, 0x6f, 0x6e,
  0x00, 0x00, 0x00, 0x00, 0x04, 0x00, 0x00, 0x00, 0x01, 0x00, 0x00, 0x00,
  0x01, 0x00, 0x00, 0x00, 0x10, 0x00, 0x00, 0x00, 0x08, 0x00, 0x00, 0x00,
  0xfe, 0xfa, 0xff, 0xff, 0x00, 0x00, 0x00, 0x01, 0x14, 0x00, 0x00, 0x00,
  0x24, 0x00, 0x00, 0x00, 0x24, 0x00, 0x00, 0x00, 0x14, 0x00, 0x00, 0x00,
  0x50, 0x00, 0x00, 0x00, 0x04, 0x00, 0x00, 0x00, 0xff, 0xff, 0xff, 0xff,
  0x01, 0x00, 0x00, 0x00, 0x10, 0x00, 0x00, 0x00, 0x01, 0x00, 0x00, 0x00,
  0xec, 0xfa, 0xff, 0xff, 0x2c, 0x00, 0x00, 0x00, 0x73, 0x65, 0x71, 0x75,
  0x65, 0x6e, 0x74, 0x69, 0x61, 0x6c, 0x5f, 0x31, 0x2f, 0x63, 0x6f, 0x6e,
  0x76, 0x31, 0x64, 0x5f, 0x31, 0x2f, 0x63, 0x6f, 0x6e, 0x76, 0x6f, 0x6c,
  0x75, 0x74, 0x69, 0x6f, 0x6e, 0x2f, 0x45, 0x78, 0x70, 0x61, 0x6e, 0x64,
  0x44, 0x69, 0x6d, 0x73, 0x00, 0x00, 0x00, 0x00, 0x04, 0x00, 0x00, 0x00,
  0x01, 0x00, 0x00, 0x00, 0x01, 0x00, 0x00, 0x00, 0x10, 0x00, 0x00, 0x00,
  0x01, 0x00, 0x00, 0x00, 0xce, 0xfd, 0xff, 0xff, 0x00, 0x00, 0x00, 0x01,
  0x14, 0x00, 0x00, 0x00, 0x14, 0x00, 0x00, 0x00, 0x13, 0x00, 0x00, 0x00,
  0x00, 0x00, 0x00, 0x02, 0x20, 0x00, 0x00, 0x00, 0x54, 0xfb, 0xff, 0xff,
  0x10, 0x00, 0x00, 0x00, 0x61, 0x72, 0x69, 0x74, 0x68, 0x2e, 0x63, 0x6f,
  0x6e, 0x73, 0x74, 0x61, 0x6e, 0x74, 0x31, 0x37, 0x00, 0x00, 0x00, 0x00,
  0x00, 0x00, 0x00, 0x00, 0x0a, 0xfe, 0xff, 0xff, 0x00, 0x00, 0x00, 0x01,
  0x14, 0x00, 0x00, 0x00, 0x14, 0x00, 0x00, 0x00, 0x12, 0x00, 0x00, 0x00,
  0x00, 0x00, 0x00, 0x02, 0x20, 0x00, 0x00, 0x00, 0x90, 0xfb, 0xff, 0xff,
  0x10, 0x00, 0x00, 0x00, 0x61, 0x72, 0x69, 0x74, 0x68, 0x2e, 0x63, 0x6f,
  0x6e, 0x73, 0x74, 0x61, 0x6e, 0x74, 0x31, 0x36, 0x00, 0x00, 0x00, 0x00,
  0x01, 0x00, 0x00, 0x00, 0x02, 0x00, 0x00, 0x00, 0x4a, 0xfe, 0xff, 0xff,
  0x00, 0x00, 0x00, 0x01, 0x14, 0x00, 0x00, 0x00, 0x14, 0x00, 0x00, 0x00,
  0x11, 0x00, 0x00, 0x00, 0x00, 0x00, 0x00, 0x02, 0x20, 0x00, 0x00, 0x00,
  0xd0, 0xfb, 0xff, 0xff, 0x10, 0x00, 0x00, 0x00, 0x61, 0x72, 0x69, 0x74,
  0x68, 0x2e, 0x63, 0x6f, 0x6e, 0x73, 0x74, 0x61, 0x6e, 0x74, 0x31, 0x35,
  0x00, 0x00, 0x00, 0x00, 0x00, 0x00, 0x00, 0x00, 0x82, 0xfc, 0xff, 0xff,
  0x00, 0x00, 0x00, 0x01, 0x10, 0x00, 0x00, 0x00, 0x10, 0x00, 0x00, 0x00,
  0x10, 0x00, 0x00, 0x00, 0x20, 0x00, 0x00, 0x00, 0x08, 0xfc, 0xff, 0xff,
  0x10, 0x00, 0x00, 0x00, 0x61, 0x72, 0x69, 0x74, 0x68, 0x2e, 0x63, 0x6f,
  0x6e, 0x73, 0x74, 0x61, 0x6e, 0x74, 0x31, 0x34, 0x00, 0x00, 0x00, 0x00,
  0x01, 0x00, 0x00, 0x00, 0x02, 0x00, 0x00, 0x00, 0xbe, 0xfc, 0xff, 0xff,
  0x00, 0x00, 0x00, 0x01, 0x10, 0x00, 0x00, 0x00, 0x10, 0x00, 0x00, 0x00,
  0x0f, 0x00, 0x00, 0x00, 0x20, 0x00, 0x00, 0x00, 0x44, 0xfc, 0xff, 0xff,
  0x10, 0x00, 0x00, 0x00, 0x61, 0x72, 0x69, 0x74, 0x68, 0x2e, 0x63, 0x6f,
  0x6e, 0x73, 0x74, 0x61, 0x6e, 0x74, 0x31, 0x33, 0x00, 0x00, 0x00, 0x00,
  0x02, 0x00, 0x00, 0x00, 0x02, 0x00, 0x00, 0x00, 0x14, 0x00, 0x00, 0x00,
  0x02, 0xff, 0xff, 0xff, 0x00, 0x00, 0x00, 0x01, 0x14, 0x00, 0x00, 0x00,
  0x14, 0x00, 0x00, 0x00, 0x0e, 0x00, 0x00, 0x00, 0x00, 0x00, 0x00, 0x02,
  0x20, 0x00, 0x00, 0x00, 0x88, 0xfc, 0xff, 0xff, 0x10, 0x00, 0x00, 0x00,
  0x61, 0x72, 0x69, 0x74, 0x68, 0x2e, 0x63, 0x6f, 0x6e, 0x73, 0x74, 0x61,
  0x6e, 0x74, 0x31, 0x32, 0x00, 0x00, 0x00, 0x00, 0x01, 0x00, 0x00, 0x00,
  0x03, 0x00, 0x00, 0x00, 0x42, 0xff, 0xff, 0xff, 0x00, 0x00, 0x00, 0x01,
  0x14, 0x00, 0x00, 0x00, 0x14, 0x00, 0x00, 0x00, 0x0d, 0x00, 0x00, 0x00,
  0x00, 0x00, 0x00, 0x02, 0x20, 0x00, 0x00, 0x00, 0xc8, 0xfc, 0xff, 0xff,
  0x10, 0x00, 0x00, 0x00, 0x61, 0x72, 0x69, 0x74, 0x68, 0x2e, 0x63, 0x6f,
  0x6e, 0x73, 0x74, 0x61, 0x6e, 0x74, 0x31, 0x31, 0x00, 0x00, 0x00, 0x00,
  0x01, 0x00, 0x00, 0x00, 0x03, 0x00, 0x00, 0x00, 0x82, 0xff, 0xff, 0xff,
  0x00, 0x00, 0x00, 0x01, 0x14, 0x00, 0x00, 0x00, 0x14, 0x00, 0x00, 0x00,
  0x0c, 0x00, 0x00, 0x00, 0x00, 0x00, 0x00, 0x02, 0x20, 0x00, 0x00, 0x00,
  0x08, 0xfd, 0xff, 0xff, 0x10, 0x00, 0x00, 0x00, 0x61, 0x72, 0x69, 0x74,
  0x68, 0x2e, 0x63, 0x6f, 0x6e, 0x73, 0x74, 0x61, 0x6e, 0x74, 0x31, 0x30,
  0x00, 0x00, 0x00, 0x00, 0x01, 0x00, 0x00, 0x00, 0x03, 0x00, 0x00, 0x00,
  0xc2, 0xff, 0xff, 0xff, 0x00, 0x00, 0x00, 0x01, 0x14, 0x00, 0x00, 0x00,
