#ifndef VOICE_IDENTIFICATION_H
#define VOICE_IDENTIFICATION_H


unsigned int voice_identification_len = 20044;
unsigned char voice_identification[] = {
 0x1c, 0x00, 0x00, 0x00, 0x54, 0x46, 0x4c, 0x33, 0x14, 0x00, 0x20, 0x00,
  0x1c, 0x00, 0x18, 0x00, 0x14, 0x00, 0x10, 0x00, 0x0c, 0x00, 0x00, 0x00,
  0x08, 0x00, 0x04, 0x00, 0x14, 0x00, 0x00, 0x00, 0x1c, 0x00, 0x00, 0x00,
  0x8c, 0x00, 0x00, 0x00, 0xe4, 0x00, 0x00, 0x00, 0xc4, 0x2c, 0x00, 0x00,
  0xd4, 0x2c, 0x00, 0x00, 0x8c, 0x4d, 0x00, 0x00, 0x03, 0x00, 0x00, 0x00,
  0x01, 0x00, 0x00, 0x00, 0x04, 0x00, 0x00, 0x00, 0x46, 0xce, 0xff, 0xff,
  0x0c, 0x00, 0x00, 0x00, 0x1c, 0x00, 0x00, 0x00, 0x3c, 0x00, 0x00, 0x00,
  0x0f, 0x00, 0x00, 0x00, 0x73, 0x65, 0x72, 0x76, 0x69, 0x6e, 0x67, 0x5f,
  0x64, 0x65, 0x66, 0x61, 0x75, 0x6c, 0x74, 0x00, 0x01, 0x00, 0x00, 0x00,
  0x04, 0x00, 0x00, 0x00, 0x90, 0xff, 0xff, 0xff, 0x33, 0x00, 0x00, 0x00,
  0x04, 0x00, 0x00, 0x00, 0x08, 0x00, 0x00, 0x00, 0x6f, 0x75, 0x74, 0x70,
  0x75, 0x74, 0x5f, 0x30, 0x00, 0x00, 0x00, 0x00, 0x01, 0x00, 0x00, 0x00,
  0x04, 0x00, 0x00, 0x00, 0xca, 0xd2, 0xff, 0xff, 0x04, 0x00, 0x00, 0x00,
  0x0c, 0x00, 0x00, 0x00, 0x6b, 0x65, 0x72, 0x61, 0x73, 0x5f, 0x74, 0x65,
  0x6e, 0x73, 0x6f, 0x72, 0x00, 0x00, 0x00, 0x00, 0x02, 0x00, 0x00, 0x00,
  0x34, 0x00, 0x00, 0x00, 0x04, 0x00, 0x00, 0x00, 0xdc, 0xff, 0xff, 0xff,
  0x36, 0x00, 0x00, 0x00, 0x04, 0x00, 0x00, 0x00, 0x13, 0x00, 0x00, 0x00,
  0x43, 0x4f, 0x4e, 0x56, 0x45, 0x52, 0x53, 0x49, 0x4f, 0x4e, 0x5f, 0x4d,
  0x45, 0x54, 0x41, 0x44, 0x41, 0x54, 0x41, 0x00, 0x08, 0x00, 0x0c, 0x00,
  0x08, 0x00, 0x04, 0x00, 0x08, 0x00, 0x00, 0x00, 0x35, 0x00, 0x00, 0x00,
  0x04, 0x00, 0x00, 0x00, 0x13, 0x00, 0x00, 0x00, 0x6d, 0x69, 0x6e, 0x5f,
  0x72, 0x75, 0x6e, 0x74, 0x69, 0x6d, 0x65, 0x5f, 0x76, 0x65, 0x72, 0x73,
  0x69, 0x6f, 0x6e, 0x00, 0x37, 0x00, 0x00, 0x00, 0xdc, 0x2b, 0x00, 0x00,
  0xd4, 0x2b, 0x00, 0x00, 0x74, 0x2b, 0x00, 0x00, 0x24, 0x2b, 0x00, 0x00,
  0xe4, 0x2a, 0x00, 0x00, 0xe4, 0x29, 0x00, 0x00, 0xc8, 0x29, 0x00, 0x00,
  0xac, 0x29, 0x00, 0x00, 0x90, 0x29, 0x00, 0x00, 0x74, 0x29, 0x00, 0x00,
  0x58, 0x29, 0x00, 0x00, 0x3c, 0x29, 0x00, 0x00, 0x2c, 0x1a, 0x00, 0x00,
  0x1c, 0x11, 0x00, 0x00, 0x7c, 0x10, 0x00, 0x00, 0xec, 0x03, 0x00, 0x00,
  0x8c, 0x03, 0x00, 0x00, 0x2c, 0x03, 0x00, 0x00, 0xec, 0x02, 0x00, 0x00,
  0xac, 0x02, 0x00, 0x00, 0x5c, 0x02, 0x00, 0x00, 0x0c, 0x02, 0x00, 0x00,
  0xac, 0x01, 0x00, 0x00, 0x98, 0x01, 0x00, 0x00, 0x80, 0x01, 0x00, 0x00,
  0x6c, 0x01, 0x00, 0x00, 0x64, 0x01, 0x00, 0x00, 0x5c, 0x01, 0x00, 0x00,
  0x54, 0x01, 0x00, 0x00, 0x4c, 0x01, 0x00, 0x00, 0x44, 0x01, 0x00, 0x00,
  0x3c, 0x01, 0x00, 0x00, 0x34, 0x01, 0x00, 0x00, 0x2c, 0x01, 0x00, 0x00,
  0x24, 0x01, 0x00, 0x00, 0x1c, 0x01, 0x00, 0x00, 0x14, 0x01, 0x00, 0x00,
  0x0c, 0x01, 0x00, 0x00, 0x04, 0x01, 0x00, 0x00, 0xfc, 0x00, 0x00, 0x00,
  0xf4, 0x00, 0x00, 0x00, 0xec, 0x00, 0x00, 0x00, 0xe4, 0x00, 0x00, 0x00,
  0xdc, 0x00, 0x00, 0x00, 0xd4, 0x00, 0x00, 0x00, 0xcc, 0x00, 0x00, 0x00,
  0xc4, 0x00, 0x00, 0x00, 0xbc, 0x00, 0x00, 0x00, 0xb4, 0x00, 0x00, 0x00,
  0xac, 0x00, 0x00, 0x00, 0xa4, 0x00, 0x00, 0x00, 0x9c, 0x00, 0x00, 0x00,
  0x94, 0x00, 0x00, 0x00, 0x74, 0x00, 0x00, 0x00, 0x04, 0x00, 0x00, 0x00,
  0x22, 0xd4, 0xff, 0xff, 0x04, 0x00, 0x00, 0x00, 0x60, 0x00, 0x00, 0x00,
  0x0c, 0x00, 0x00, 0x00, 0x08, 0x00, 0x0e, 0x00, 0x08, 0x00, 0x04, 0x00,
  0x08, 0x00, 0x00, 0x00, 0x10, 0x00, 0x00, 0x00, 0x28, 0x00, 0x00, 0x00,
  0x00, 0x00, 0x06, 0x00, 0x08, 0x00, 0x04, 0x00, 0x06, 0x00, 0x00, 0x00,
  0x04, 0x00, 0x00, 0x00, 0x01, 0x00, 0x00, 0x00, 0xea, 0x03, 0x00, 0x00,
  0x0c, 0x00, 0x18, 0x00, 0x14, 0x00, 0x10, 0x00, 0x0c, 0x00, 0x04, 0x00,
  0x0c, 0x00, 0x00, 0x00, 0xed, 0x6c, 0xa8, 0x33, 0x52, 0xdb, 0x26, 0x98,
  0x02, 0x00, 0x00, 0x00, 0x02, 0x00, 0x00, 0x00, 0x04, 0x00, 0x00, 0x00,
  0x06, 0x00, 0x00, 0x00, 0x32, 0x2e, 0x31, 0x39, 0x2e, 0x30, 0x00, 0x00,
  0x8e, 0xd4, 0xff, 0xff, 0x04, 0x00, 0x00, 0x00, 0x10, 0x00, 0x00, 0x00,
  0x31, 0x2e, 0x31, 0x30, 0x2e, 0x30, 0x00, 0x00, 0x00, 0x00, 0x00, 0x00,
  0x00, 0x00, 0x00, 0x00, 0x60, 0xb4, 0xff, 0xff, 0x64, 0xb4, 0xff, 0xff,
  0x68, 0xb4, 0xff, 0xff, 0x6c, 0xb4, 0xff, 0xff, 0x70, 0xb4, 0xff, 0xff,
  0x74, 0xb4, 0xff, 0xff, 0x78, 0xb4, 0xff, 0xff, 0x7c, 0xb4, 0xff, 0xff,
  0x80, 0xb4, 0xff, 0xff, 0x84, 0xb4, 0xff, 0xff, 0x88, 0xb4, 0xff, 0xff,
  0x8c, 0xb4, 0xff, 0xff, 0x90, 0xb4, 0xff, 0xff, 0x94, 0xb4, 0xff, 0xff,
  0x98, 0xb4, 0xff, 0xff, 0x9c, 0xb4, 0xff, 0xff, 0xa0, 0xb4, 0xff, 0xff,
  0xa4, 0xb4, 0xff, 0xff, 0xa8, 0xb4, 0xff, 0xff, 0xac, 0xb4, 0xff, 0xff,
  0xb0, 0xb4, 0xff, 0xff, 0xb4, 0xb4, 0xff, 0xff, 0xb8, 0xb4, 0xff, 0xff,
  0xbc, 0xb4, 0xff, 0xff, 0xc0, 0xb4, 0xff, 0xff, 0xc4, 0xb4, 0xff, 0xff,
  0xc8, 0xb4, 0xff, 0xff, 0x16, 0xd5, 0xff, 0xff, 0x04, 0x00, 0x00, 0x00,
  0x04, 0x00, 0x00, 0x00, 0xfd, 0xff, 0xff, 0xff, 0x26, 0xd5, 0xff, 0xff,
  0x04, 0x00, 0x00, 0x00, 0x08, 0x00, 0x00, 0x00, 0xff, 0xff, 0xff, 0xff,
  0x28, 0x00, 0x00, 0x00, 0x3a, 0xd5, 0xff, 0xff, 0x04, 0x00, 0x00, 0x00,
  0x04, 0x00, 0x00, 0x00, 0x01, 0x00, 0x00, 0x00, 0x4a, 0xd5, 0xff, 0xff,
  0x04, 0x00, 0x00, 0x00, 0x50, 0x00, 0x00, 0x00, 0xa3, 0xc9, 0xcb, 0x3c,
  0x6d, 0xf5, 0x10, 0x3c, 0x31, 0x28, 0x44, 0xbb, 0xc5, 0xe2, 0x51, 0x3d,
  0xb3, 0x75, 0xbb, 0x3c, 0xa3, 0x2a, 0x2c, 0xbd, 0x55, 0x9c, 0x2c, 0xbc,
  0xdc, 0x37, 0x85, 0xbc, 0x31, 0x3d, 0x78, 0x3d, 0xbb, 0x07, 0xd2, 0xbd,
  0x49, 0x06, 0x8f, 0x3c, 0xb0, 0x51, 0x35, 0x3d, 0xc5, 0x09, 0x32, 0x3d,
  0xe8, 0xc4, 0xe9, 0x3d, 0x5b, 0xdc, 0x12, 0xbd, 0x27, 0x03, 0x92, 0xbc,
  0xfe, 0x74, 0x8e, 0x3d, 0x60, 0x5c, 0x2a, 0x3e, 0xed, 0x45, 0x95, 0x3d,
  0x4e, 0x86, 0xd9, 0x3c, 0xa6, 0xd5, 0xff, 0xff, 0x04, 0x00, 0x00, 0x00,
  0x40, 0x00, 0x00, 0x00, 0x3e, 0x23, 0x92, 0x3f, 0x21, 0x9a, 0xdc, 0x3f,
  0xf4, 0x3b, 0xb7, 0x3f, 0xe1, 0xb4, 0xa9, 0x3f, 0x55, 0xc0, 0xc1, 0x3f,
  0x23, 0x3e, 0xaa, 0x40, 0xac, 0xf2, 0xd9, 0x3f, 0x5f, 0x21, 0x71, 0x3f,
  0x73, 0x7f, 0x53, 0x40, 0x7c, 0xc1, 0x31, 0x40, 0x42, 0x24, 0xf9, 0x3f,
  0x6b, 0x3e, 0x4a, 0x40, 0x8a, 0xa6, 0x45, 0x40, 0xfb, 0x6b, 0x04, 0x40,
  0xe6, 0xf0, 0x92, 0x3f, 0x31, 0x78, 0xc1, 0x3f, 0xf2, 0xd5, 0xff, 0xff,
  0x04, 0x00, 0x00, 0x00, 0x40, 0x00, 0x00, 0x00, 0x4d, 0xe3, 0x18, 0xbf,
  0x44, 0xff, 0x05, 0xbf, 0x83, 0x4d, 0x3d, 0xbf, 0x2d, 0x16, 0x54, 0xbf,
  0xf1, 0xab, 0x44, 0xbf, 0xb4, 0x29, 0x1d, 0xbf, 0x13, 0xde, 0x40, 0xbf,
  0x40, 0x0d, 0x2f, 0xbf, 0x86, 0x64, 0x4f, 0xbf, 0x7b, 0xc1, 0x29, 0xbf,
  0x8b, 0xac, 0x2c, 0xbf, 0x2d, 0x94, 0x26, 0xbf, 0xa8, 0x38, 0x4a, 0xbf,
  0xfc, 0x87, 0x46, 0xbf, 0x32, 0x90, 0x02, 0xbf, 0xa9, 0x5a, 0xde, 0xbe,
  0x3e, 0xd6, 0xff, 0xff, 0x04, 0x00, 0x00, 0x00, 0x30, 0x00, 0x00, 0x00,
  0x73, 0x21, 0x97, 0x3a, 0x4a, 0xa4, 0xb8, 0x3a, 0xac, 0xaa, 0x42, 0x3b,
  0x8f, 0x03, 0x03, 0x3c, 0x61, 0xa8, 0xfa, 0x3e, 0xc6, 0xc1, 0x56, 0x3e,
  0x59, 0xf1, 0xcb, 0x3d, 0x12, 0xfa, 0x17, 0x3b, 0xe7, 0x15, 0xe7, 0x3a,
  0xdc, 0xc7, 0x90, 0x3a, 0x21, 0xa1, 0xc0, 0x3b, 0x08, 0x96, 0x2c, 0x3d,
  0x7a, 0xd6, 0xff, 0xff, 0x04, 0x00, 0x00, 0x00, 0x30, 0x00, 0x00, 0x00,
  0x2e, 0x14, 0x99, 0xbe, 0x64, 0xf1, 0x8c, 0xbe, 0xe5, 0xb4, 0xb1, 0xbe,
  0x8c, 0x34, 0x8a, 0xbe, 0xa9, 0xcb, 0x17, 0xbf, 0x0e, 0x38, 0xa8, 0xbe,
  0x8d, 0x1a, 0xe4, 0xbe, 0x40, 0x85, 0xb5, 0xbe, 0x14, 0x6f, 0x81, 0xbe,
  0xeb, 0x9c, 0x92, 0xbe, 0x97, 0xe4, 0x95, 0xbe, 0x4e, 0xdf, 0xc7, 0xbe,
  0xb6, 0xd6, 0xff, 0xff, 0x04, 0x00, 0x00, 0x00, 0x50, 0x00, 0x00, 0x00,
  0x21, 0x26, 0xad, 0x3f, 0xc5, 0xfe, 0x36, 0x40, 0xc5, 0xcc, 0x13, 0x40,
  0xe3, 0x56, 0x78, 0x40, 0x6d, 0x35, 0x61, 0x40, 0x6e, 0x04, 0xd8, 0x3f,
  0xdf, 0xbd, 0xa9, 0x3f, 0x68, 0xa6, 0x04, 0x40, 0x52, 0x21, 0x26, 0x40,
  0xa6, 0x55, 0xd8, 0x3f, 0x4c, 0x34, 0xfa, 0x3f, 0xe7, 0xa5, 0x00, 0x40,
  0x40, 0x3f, 0x5e, 0x40, 0x3e, 0xe2, 0xb0, 0x40, 0x97, 0x20, 0xec, 0x3f,
  0x53, 0x7d, 0xa1, 0x3f, 0xd6, 0xe1, 0x05, 0x40, 0x66, 0xba, 0x30, 0x40,
  0x25, 0x26, 0x37, 0x40, 0x87, 0xee, 0x70, 0x3f, 0x12, 0xd7, 0xff, 0xff,
  0x04, 0x00, 0x00, 0x00, 0x50, 0x00, 0x00, 0x00, 0xe3, 0x51, 0xde, 0xbe,
  0xbf, 0xd4, 0x0f, 0xbf, 0xe4, 0x70, 0x29, 0xbf, 0xe8, 0x96, 0x0f, 0xbf,
  0x43, 0x63, 0xf0, 0xbe, 0x14, 0xd1, 0x55, 0xbf, 0xfd, 0x74, 0x75, 0xbf,
  0x4c, 0x17, 0x1e, 0xbf, 0xd6, 0xbd, 0xea, 0xbe, 0xf0, 0x69, 0x54, 0xbf,
  0x17, 0x9b, 0x39, 0xbf, 0x00, 0x78, 0x49, 0xbf, 0x7d, 0x81, 0xeb, 0xbe,
  0xc0, 0xcd, 0xbe, 0xbe, 0x45, 0xe3, 0x19, 0xbf, 0x22, 0x78, 0x25, 0xbf,
  0xae, 0x16, 0x64, 0xbf, 0xaa, 0x81, 0x1d, 0xbf, 0xa1, 0x85, 0x15, 0xbf,
  0x31, 0xa0, 0x28, 0xbf, 0x6e, 0xd7, 0xff, 0xff, 0x04, 0x00, 0x00, 0x00,
  0x80, 0x0c, 0x00, 0x00, 0xb8, 0xfb, 0x74, 0xbd, 0x1c, 0x86, 0xc4, 0x3d,
  0x99, 0xa8, 0x00, 0x3e, 0xef, 0x21, 0x2e, 0x3d, 0x45, 0xff, 0x38, 0xbc,
  0x25, 0x47, 0xf1, 0xbd, 0x73, 0x25, 0x53, 0x3e, 0x36, 0x16, 0x16, 0x3e,
  0xe3, 0xfa, 0x58, 0xbd, 0x06, 0xfc, 0x23, 0x3d, 0xf8, 0xe5, 0x22, 0x3e,
  0x3a, 0x1c, 0x1d, 0xbd, 0x7b, 0x20, 0x16, 0xbd, 0x6d, 0x4e, 0xdc, 0xbd,
  0x4f, 0x36, 0x29, 0x3e, 0x2d, 0xc1, 0x21, 0xbd, 0x6e, 0x30, 0xab, 0xbd,
  0x89, 0xc6, 0x1a, 0xbd, 0x7a, 0xc6, 0x13, 0x3d, 0xd9, 0x5f, 0x14, 0xbd,
  0x11, 0x5e, 0x1e, 0xbe, 0xf6, 0x3f, 0xcc, 0xbc, 0x2f, 0xf0, 0x98, 0x3d,
  0xc2, 0xab, 0x33, 0x3c, 0x73, 0x00, 0xfe, 0x3d, 0x58, 0xe4, 0x1e, 0xbc,
  0xe7, 0x36, 0x2e, 0xbe, 0xee, 0xfc, 0x97, 0xbd, 0x47, 0x73, 0xb5, 0xbd,
  0xb0, 0x6d, 0xd0, 0xbd, 0x14, 0x02, 0x1d, 0xbe, 0x4b, 0xba, 0x48, 0xbd,
  0x09, 0x00, 0x08, 0x3e, 0x7c, 0x96, 0x08, 0x3e, 0x91, 0x64, 0xaa, 0xbd,
  0x1e, 0x1e, 0xef, 0xbc, 0x17, 0xa4, 0x48, 0x3e, 0xa8, 0x43, 0x6d, 0x3b,
  0x2e, 0xea, 0x95, 0x3d, 0x96, 0x5e, 0xb2, 0x3d, 0x59, 0xcb, 0x8d, 0xbd,
  0x51, 0xf6, 0x91, 0xbd, 0x18, 0xe8, 0x56, 0xbe, 0x17, 0xa8, 0x49, 0x3e,
  0xa9, 0x5f, 0x7b, 0x3d, 0x2e, 0xc3, 0x18, 0x3c, 0x2b, 0x38, 0x05, 0x3e,
  0xd8, 0x76, 0x6c, 0xbd, 0xb8, 0x51, 0x10, 0x3d, 0x05, 0x07, 0x1d, 0xbb,
  0x0f, 0xab, 0xc0, 0xbd, 0x71, 0x8f, 0xf3, 0xbd, 0x0a, 0x99, 0x51, 0x3d,
  0x09, 0xc7, 0xe6, 0xbd, 0x81, 0x32, 0x47, 0xbe, 0x8b, 0x2c, 0x18, 0xbe,
  0x6e, 0x3b, 0x11, 0x3e, 0xec, 0xe6, 0x52, 0xbb, 0x46, 0x44, 0xb9, 0x3d,
  0x7b, 0xb9, 0xa0, 0x3d, 0x53, 0x11, 0xfb, 0xbd, 0x06, 0x5b, 0x2c, 0xbd,
  0x20, 0xe3, 0x31, 0x3e, 0x6a, 0x69, 0x1b, 0xbd, 0xc3, 0x98, 0xf0, 0x3b,
  0x98, 0x2f, 0xfd, 0xbd, 0xa6, 0x66, 0x47, 0x3e, 0x87, 0x98, 0x7a, 0x3d,
  0x94, 0x38, 0x9c, 0xbd, 0x23, 0x1a, 0x27, 0x3d, 0xb4, 0xb1, 0xe2, 0x3d,
  0xe6, 0xeb, 0x0b, 0x3e, 0xf1, 0xf9, 0x03, 0xbe, 0x8b, 0xf0, 0xea, 0x3d,
  0x49, 0xe6, 0x1d, 0x3e, 0xc5, 0x90, 0xf7, 0xbd, 0xe0, 0x1b, 0x4e, 0xbd,
  0x23, 0xcf, 0x9a, 0xbd, 0x1c, 0x70, 0xe0, 0xbd, 0xef, 0x3f, 0x35, 0xbe,
  0x8e, 0xe9, 0x34, 0x3c, 0x6a, 0x06, 0x44, 0xbe, 0x7a, 0x64, 0x0b, 0xbe,
  0x3f, 0xa6, 0x86, 0x3e, 0xc8, 0xa0, 0xc3, 0x3d, 0x42, 0x63, 0x90, 0xbd,
  0x87, 0xd3, 0x17, 0x3d, 0xc7, 0xee, 0xcf, 0xbd, 0xcf, 0xeb, 0xdb, 0x3d,
  0x09, 0x52, 0x06, 0x3e, 0x42, 0xd7, 0xd2, 0xbd, 0xeb, 0xcf, 0x1d, 0xbd,
  0x53, 0xfc, 0x12, 0xbb, 0x67, 0xb1, 0x38, 0xbe, 0x61, 0x89, 0x0c, 0x3d,
  0x8f, 0x7b, 0x38, 0x3e, 0x33, 0x17, 0xc0, 0x3d, 0xbb, 0x7a, 0x03, 0x3e,
  0x65, 0x52, 0x87, 0xbc, 0xe3, 0xe6, 0x94, 0xbb, 0xcd, 0x9d, 0x54, 0xbe,
  0x64, 0x2d, 0xc6, 0xbd, 0xa7, 0x0d, 0x32, 0xbe, 0x34, 0xb8, 0xdd, 0x3d,
  0x31, 0x03, 0x6e, 0xbe, 0xee, 0x0c, 0x95, 0x3e, 0xa1, 0xf3, 0x96, 0xbd,
  0x70, 0x97, 0xb6, 0xbd, 0x8c, 0x29, 0xb9, 0xbd, 0xcc, 0x9d, 0x2f, 0xbc,
  0xef, 0xac, 0x55, 0x3e, 0x7e, 0x63, 0x6c, 0x3e, 0xa4, 0xa7, 0xc2, 0x3d,
  0xac, 0x2e, 0xdb, 0xbd, 0xc7, 0xab, 0xfb, 0xbd, 0xcb, 0xaa, 0x8c, 0x3d,
  0x33, 0x90, 0x50, 0xbe, 0x0e, 0x75, 0x12, 0x3e, 0x20, 0xfd, 0xa4, 0xbd,
  0x75, 0x3f, 0xd4, 0xbd, 0xc3, 0x53, 0x80, 0xbd, 0xa9, 0xba, 0xc4, 0x3d,
  0x57, 0x57, 0x0f, 0xbd, 0xf2, 0xdd, 0x99, 0x3d, 0x41, 0x9b, 0x14, 0xbe,
  0x51, 0x94, 0xaf, 0xbd, 0x0e, 0xad, 0x4d, 0xbe, 0x4e, 0x0c, 0x09, 0xbd,
  0x91, 0xdc, 0xc8, 0x3c, 0x60, 0xc0, 0x5d, 0xbd, 0xfe, 0x81, 0x8b, 0xbe,
  0x19, 0xab, 0x30, 0x3d, 0x79, 0x84, 0xe8, 0x3d, 0x24, 0xdd, 0x89, 0x3e,
  0x43, 0xdc, 0x2c, 0x3d, 0x29, 0x29, 0x2e, 0xbe, 0xe5, 0x03, 0xc8, 0xba,
  0x85, 0x94, 0x37, 0x3e, 0x3e, 0x76, 0x2b, 0x3e, 0x61, 0x14, 0xfc, 0xbd,
  0xce, 0x90, 0x66, 0x3d, 0x88, 0x3a, 0xf6, 0xbd, 0x3b, 0x6c, 0x92, 0x3d,
  0xd1, 0x1d, 0xf6, 0xbd, 0xcd, 0xad, 0x34, 0xbe, 0xb6, 0xd1, 0x73, 0xbe,
  0x3e, 0x84, 0xcd, 0x3b, 0x17, 0x9c, 0x0f, 0x3e, 0x0b, 0x46, 0x84, 0xbd,
  0x2d, 0x51, 0x0e, 0xbe, 0xf6, 0x68, 0x16, 0x3d, 0x74, 0xb2, 0x30, 0xbd,
  0xcb, 0x66, 0x16, 0x3e, 0xdb, 0x02, 0xe4, 0xbd, 0xba, 0x1d, 0x3d, 0x3e,
  0x64, 0x13, 0xc3, 0x3d, 0x02, 0x57, 0x1b, 0x3e, 0x53, 0xfe, 0x08, 0xbe,
  0xe9, 0xe5, 0x6d, 0xbe, 0xda, 0x5c, 0x11, 0xbe, 0x95, 0x07, 0x47, 0xbe,
  0xc2, 0x45, 0x1f, 0x3e, 0x8f, 0x62, 0xaa, 0xbe, 0x4a, 0xce, 0x58, 0x3e,
  0xc7, 0x23, 0xfd, 0xbc, 0x1e, 0xf0, 0x3f, 0xbb, 0xb8, 0x25, 0x17, 0xbe,
  0xe8, 0x0c, 0x09, 0xbd, 0x95, 0xea, 0x51, 0xbd, 0xf8, 0x02, 0x33, 0xbd,
  0x5f, 0x9e, 0x28, 0xbe, 0x39, 0xd2, 0x8d, 0xbd, 0x98, 0x5a, 0x1a, 0xbe,
  0xf5, 0x36, 0x8c, 0xbd, 0x7d, 0x2d, 0x69, 0xbe, 0x01, 0x31, 0x25, 0xbe,
  0xc5, 0x9f, 0x9e, 0x3e, 0x66, 0x07, 0x84, 0x3d, 0xc8, 0x1f, 0x73, 0x3d,
  0x5c, 0x7a, 0xdb, 0xbd, 0xed, 0xbc, 0x7e, 0xbe, 0xdd, 0x73, 0xb0, 0x3d,
  0xd8, 0xd0, 0x03, 0x3e, 0x46, 0x65, 0xdc, 0xbc, 0xdc, 0x58, 0xc7, 0x3d,
  0x02, 0x6a, 0x4f, 0x3b, 0x48, 0x1d, 0x72, 0x3e, 0x2e, 0x89, 0x40, 0x3e,
  0xcf, 0x0e, 0x00, 0xbe, 0xf8, 0x17, 0x65, 0x3e, 0xd0, 0xb7, 0x15, 0xbe,
  0x11, 0xde, 0x49, 0x3d, 0x21, 0x46, 0x6b, 0xbe, 0x72, 0xe2, 0x27, 0x3b,
  0xd9, 0x6b, 0x1c, 0xbe, 0x7e, 0x17, 0xdc, 0x3d, 0x36, 0x93, 0xa0, 0x3d,
  0x75, 0x38, 0x01, 0x3d, 0x7a, 0x71, 0x6f, 0xbd, 0x31, 0xe5, 0x2f, 0x3c,
  0x7b, 0x65, 0x66, 0xbd, 0x69, 0xdb, 0x1a, 0x3e, 0x60, 0xf6, 0x5e, 0x3d,
  0x29, 0x1c, 0x60, 0xbd, 0x4b, 0x56, 0x1e, 0xbd, 0x23, 0xed, 0x9f, 0x3c,
  0x56, 0x2a, 0xd8, 0x3a, 0x4b, 0x8a, 0x44, 0xbe, 0xf8, 0x8d, 0xc3, 0x3c,
  0xb1, 0xcd, 0xd9, 0x3d, 0xc8, 0xa3, 0xfd, 0xbd, 0x63, 0xf7, 0xb9, 0xbd,
  0x10, 0x3f, 0x97, 0x3b, 0x08, 0xfe, 0x0a, 0xbc, 0x96, 0x94, 0x0b, 0xbe,
  0xf1, 0x81, 0xbd, 0xbd, 0xd1, 0x2c, 0x57, 0x3d, 0x1a, 0x84, 0x06, 0xbe,
  0x1a, 0xdf, 0x23, 0xbe, 0xb3, 0x3a, 0x1b, 0x3e, 0x8d, 0x64, 0xcf, 0xbd,
  0x78, 0x32, 0x89, 0xbd, 0x7c, 0xe2, 0xb4, 0xbd, 0x79, 0xbf, 0x9b, 0x3d,
  0x07, 0xc0, 0x2b, 0x3e, 0x63, 0xa5, 0xe9, 0x3d, 0x20, 0xae, 0xd8, 0x3c,
  0xa8, 0x4b, 0x87, 0xbd, 0x91, 0x2c, 0xf4, 0xbd, 0xe0, 0xa5, 0x8e, 0xbd,
  0xe9, 0xbd, 0x30, 0xbe, 0x0d, 0x9c, 0x89, 0xbd, 0xe4, 0xeb, 0x02, 0xbe,
  0xd1, 0x9f, 0x1a, 0xbe, 0xf3, 0x04, 0x9f, 0xbb, 0xfe, 0x56, 0x0e, 0xbd,
  0xae, 0x70, 0x0c, 0xbe, 0x13, 0x9b, 0xc6, 0xbd, 0xf3, 0xc8, 0xa0, 0xbd,
  0xd6, 0x0e, 0x93, 0xbd, 0x00, 0x8c, 0xa4, 0x3d, 0x48, 0x1d, 0xa2, 0xbd,
  0x37, 0xb8, 0x37, 0x3e, 0xfe, 0x17, 0x0f, 0x3d, 0x07, 0xb9, 0xd3, 0xbd,
  0xc9, 0x2d, 0xe6, 0x3c, 0x20, 0x7c, 0x0c, 0xbe, 0xc9, 0x9d, 0x3f, 0x3b,
  0x37, 0xb8, 0x01, 0xbd, 0x75, 0x78, 0x27, 0xbe, 0x6e, 0x70, 0x6d, 0xbe,
  0xa6, 0x98, 0x44, 0xbd, 0xef, 0x97, 0xf1, 0xbd, 0x0f, 0x17, 0x8e, 0x3e,
  0xa9, 0xcc, 0x8f, 0x3d, 0x89, 0x2a, 0x53, 0x3d, 0x79, 0xe8, 0xea, 0x3d,
  0x80, 0x7f, 0x09, 0x3e, 0x11, 0x91, 0x35, 0x3e, 0xb0, 0xc7, 0x53, 0x3d,
  0x64, 0xc5, 0x2c, 0x3e, 0x4e, 0x45, 0xd5, 0xbc, 0x7b, 0x61, 0x2c, 0xbe,
  0x05, 0xa1, 0xf4, 0x3d, 0xff, 0xfc, 0xda, 0x3d, 0xef, 0x8b, 0x9e, 0xbc,
  0x83, 0xd3, 0x3f, 0x3e, 0x49, 0x48, 0x14, 0x3d, 0x42, 0xbd, 0xe3, 0xbd,
  0xb4, 0xe8, 0x23, 0xbe, 0x26, 0x45, 0x83, 0x3c, 0x3a, 0x7a, 0xef, 0xbd,
  0x8d, 0x3c, 0x0e, 0xbe, 0x58, 0xa7, 0x42, 0x3d, 0x9b, 0xb0, 0xf3, 0x3c,
  0xdf, 0xc4, 0x03, 0x3d, 0xc1, 0x1e, 0x1f, 0xbe, 0xe2, 0xdd, 0xd8, 0x3d,
  0x2c, 0x06, 0x96, 0xbe, 0x7e, 0xda, 0x15, 0xbe, 0x7c, 0xf5, 0xe8, 0xbd,
  0x22, 0xd5, 0x12, 0x3e, 0x32, 0x3c, 0x65, 0x3d, 0xd5, 0x8b, 0x84, 0x3e,
  0x82, 0x4d, 0x83, 0xbd, 0x95, 0x10, 0x51, 0xbe, 0x37, 0xc1, 0x22, 0xbe,
  0x38, 0x32, 0x07, 0xbe, 0x77, 0xb7, 0x47, 0x3d, 0x80, 0xe7, 0xbe, 0xbd,
  0x21, 0x86, 0xfb, 0xbc, 0x8d, 0xd6, 0xb1, 0xbd, 0xea, 0x14, 0x60, 0x3c,
  0xe1, 0xb1, 0x11, 0xbe, 0x5b, 0xc1, 0x3a, 0xbe, 0xff, 0x12, 0x18, 0x3d,
  0x3c, 0x2b, 0xf1, 0xbc, 0x3d, 0x18, 0xcf, 0x3d, 0x7b, 0xfc, 0x35, 0x3c,
  0x3a, 0x35, 0x32, 0x3d, 0x3c, 0xf7, 0x81, 0xbe, 0x07, 0x15, 0xd7, 0xbd,
  0xc2, 0xea, 0xc2, 0xbd, 0x1b, 0x9c, 0x02, 0x3d, 0x48, 0xe5, 0x01, 0xbe,
  0xc9, 0xa1, 0xee, 0xbc, 0x9a, 0x2e, 0xce, 0x3d, 0xd4, 0x2c, 0xbc, 0xbb,
  0x56, 0x35, 0xd4, 0xbc, 0x11, 0xcd, 0x23, 0xbe, 0x43, 0xad, 0x5a, 0x3d,
  0xc8, 0xd9, 0x59, 0xbe, 0x52, 0x3c, 0x7a, 0xbe, 0xb4, 0x3d, 0xc5, 0x3d,
  0x0c, 0x52, 0x25, 0xbe, 0x85, 0x40, 0x32, 0x3e, 0x7d, 0x9c, 0x2a, 0xbe,
  0x12, 0x01, 0xd1, 0x3a, 0xdb, 0x5d, 0x95, 0x3d, 0x08, 0x96, 0x2c, 0x3e,
  0xcf, 0x72, 0xc0, 0xbc, 0x6b, 0xbf, 0x18, 0x3d, 0x46, 0xba, 0x14, 0xbe,
  0x99, 0x59, 0x03, 0xbc, 0xb0, 0x56, 0x71, 0xbb, 0x2b, 0xb5, 0x6f, 0x3d,
  0x1f, 0x89, 0xec, 0xbb, 0xe4, 0xc3, 0x2a, 0xbd, 0x77, 0x05, 0xe6, 0x3d,
  0x3b, 0x2c, 0x7e, 0xbc, 0x0b, 0x65, 0x79, 0xbd, 0x94, 0xda, 0x57, 0xbd,
  0x21, 0x67, 0x25, 0xbd, 0x55, 0x3c, 0xb7, 0xbd, 0x62, 0x04, 0x9d, 0xbd,
  0x55, 0x7a, 0xdd, 0x3a, 0xd5, 0x56, 0xc9, 0x3d, 0x1d, 0x40, 0x5f, 0x3d,
  0xa0, 0xf1, 0x45, 0xbe, 0x61, 0x6d, 0x8b, 0xbd, 0x55, 0xa2, 0xb0, 0x3c,
  0x14, 0xad, 0xbb, 0xbc, 0xfe, 0xd2, 0x0a, 0x3e, 0xde, 0x09, 0x24, 0xbd,
  0x27, 0xa0, 0x14, 0xbe, 0xff, 0xcb, 0xde, 0x3c, 0x0b, 0x5c, 0xd4, 0x3c,
  0xd2, 0x72, 0x2c, 0xba, 0x6a, 0xfc, 0x21, 0xbe, 0x89, 0xe3, 0xad, 0xbd,
  0x24, 0xcd, 0x98, 0x3d, 0x0e, 0xa7, 0xbf, 0x3d, 0xf0, 0xc3, 0x4e, 0xbd,
  0x47, 0x4b, 0xaf, 0x3d, 0x92, 0x0b, 0x91, 0x3d, 0x22, 0x86, 0x4e, 0x3d,
  0xfa, 0x1c, 0xd9, 0x3d, 0x5a, 0xa0, 0x2f, 0xbd, 0xf8, 0x74, 0x9a, 0x3d,
  0xf8, 0xe6, 0xbb, 0x3d, 0x44, 0xf1, 0xf2, 0xba, 0x05, 0xde, 0x25, 0x3e,
  0x39, 0x03, 0x42, 0x3e, 0xb1, 0x6c, 0x71, 0xbe, 0xad, 0x4e, 0xee, 0x3a,
  0xf7, 0x16, 0x6e, 0x3d, 0x77, 0xb6, 0xfc, 0xbd, 0x58, 0x23, 0x00, 0x3e,
  0x0c, 0x57, 0x5a, 0xbd, 0x32, 0x96, 0x15, 0x3e, 0xc5, 0x7f, 0x98, 0x3d,
  0xc4, 0xec, 0x8d, 0xbd, 0x48, 0x24, 0x49, 0x3d, 0x58, 0x8e, 0x93, 0xbd,
  0x09, 0xa4, 0xfa, 0x3d, 0x5d, 0xe0, 0x07, 0xbc, 0xac, 0x04, 0xf5, 0x3d,
  0x47, 0xa2, 0x86, 0xbe, 0x40, 0xf3, 0xec, 0x3d, 0x18, 0xf6, 0x6d, 0x3d,
  0x29, 0x45, 0xd4, 0xbd, 0x93, 0x2f, 0x65, 0xbc, 0xb1, 0x6f, 0x91, 0xbd,
  0x1a, 0xe7, 0x0b, 0x3d, 0xf7, 0x41, 0x0a, 0x3e, 0xa1, 0x9d, 0xf2, 0x3b,
  0x15, 0x5d, 0xe2, 0xbb, 0xcf, 0x53, 0x90, 0x3b, 0xb3, 0x39, 0xda, 0x3d,
  0x8f, 0xf3, 0xf3, 0xbd, 0x04, 0xa3, 0x2e, 0xbe, 0x31, 0x11, 0xc3, 0x3d,
  0xe4, 0x8a, 0x11, 0x3d, 0xf1, 0x6b, 0x9d, 0xbd, 0xa0, 0x8e, 0xfb, 0xbd,
  0x3b, 0xb1, 0x81, 0xbe, 0x77, 0xad, 0x78, 0x3e, 0x1c, 0xb6, 0x72, 0xbc,
  0x7c, 0xc6, 0x38, 0x3d, 0x0b, 0x14, 0x8d, 0x3d, 0x1c, 0x7d, 0x15, 0x3e,
  0xd8, 0x1e, 0xac, 0x3d, 0xf8, 0xe2, 0x14, 0x3c, 0x2c, 0xfc, 0xcf, 0xbc,
  0xf3, 0x45, 0x14, 0xbd, 0x9e, 0x2d, 0x03, 0x3e, 0x0a, 0x43, 0x07, 0xbe,
  0x1b, 0xc9, 0x02, 0xbe, 0x54, 0x16, 0x20, 0x3e, 0x4c, 0x80, 0x1b, 0x3d,
  0x62, 0x95, 0x91, 0x3d, 0x60, 0x2d, 0x68, 0x3e, 0xf9, 0xbf, 0x93, 0x3d,
  0xc8, 0xfd, 0x98, 0x3e, 0x2f, 0xdd, 0xcd, 0x3d, 0x3a, 0x71, 0xe5, 0xbc,
  0x89, 0x82, 0xc5, 0xbd, 0x73, 0x87, 0x9f, 0x3e, 0x11, 0x8b, 0x00, 0x3e,
  0x99, 0x1f, 0xf5, 0x3c, 0x0f, 0xa4, 0x29, 0x3e, 0x89, 0xaa, 0x13, 0x3c,
  0x5d, 0xb9, 0x79, 0xbe, 0x81, 0x24, 0x9b, 0xbb, 0x27, 0xd6, 0xe0, 0x3d,
  0xb7, 0xe6, 0x26, 0x3d, 0xe3, 0x94, 0xb5, 0xbe, 0xdf, 0xc6, 0xe9, 0x3c,
  0xb0, 0x67, 0xa9, 0x3c, 0xba, 0x01, 0x5e, 0xbd, 0xae, 0x94, 0x0b, 0x3e,
  0x72, 0xb4, 0xd0, 0xbd, 0x46, 0xb7, 0xe2, 0x3d, 0x15, 0x74, 0x0f, 0x3c,
  0x49, 0xe0, 0xde, 0x3d, 0xc2, 0xc6, 0xb1, 0xbc, 0xfb, 0x70, 0x10, 0x3d,
  0xae, 0xa2, 0xad, 0xbd, 0x38, 0x27, 0x37, 0xbe, 0x24, 0xa3, 0xd9, 0x3d,
  0x13, 0x13, 0x24, 0x3d, 0xf0, 0xcd, 0x2e, 0x3e, 0x92, 0x15, 0xd4, 0x3d,
  0x54, 0x21, 0x19, 0xbe, 0x14, 0xb1, 0x73, 0xbd, 0x2e, 0xb9, 0xbf, 0x3d,
  0xd7, 0xaa, 0x22, 0xbe, 0x89, 0x1e, 0x4e, 0x3e, 0x00, 0xbc, 0x6f, 0x3e,
  0x8b, 0xac, 0x44, 0xbd, 0x4f, 0x46, 0x0a, 0xbe, 0xa5, 0x3e, 0x77, 0x3e,
  0x08, 0xa3, 0x18, 0xbd, 0x39, 0xb4, 0x4c, 0x3e, 0xa7, 0xfc, 0x1e, 0x3e,
  0x62, 0xb4, 0xa1, 0x3c, 0xa3, 0x11, 0x6b, 0xbe, 0xdc, 0x0a, 0x80, 0x3e,
  0x26, 0x48, 0x31, 0x3e, 0xd7, 0xdb, 0xb1, 0xbd, 0x7b, 0xfc, 0x4e, 0x3d,
  0xce, 0x1d, 0x16, 0x3c, 0x14, 0xe9, 0x71, 0xbe, 0x0c, 0x80, 0xcc, 0x3a,
  0x76, 0xb4, 0x4c, 0x3e, 0x39, 0xf4, 0xd1, 0xbc, 0xde, 0x16, 0x8e, 0xbe,
  0x50, 0x05, 0xf5, 0xbd, 0x88, 0x6f, 0x3f, 0xbe, 0x2a, 0x55, 0x56, 0xbe,
  0x04, 0x19, 0x3b, 0x3e, 0xc8, 0xa4, 0x2c, 0x3e, 0x61, 0x4d, 0x14, 0x3d,
  0xd6, 0xd3, 0x77, 0x3d, 0xfb, 0xf5, 0xc9, 0x3d, 0x26, 0x56, 0x85, 0xbd,
  0x6a, 0x6b, 0x91, 0xbd, 0x57, 0x06, 0xae, 0xba, 0xaa, 0xbc, 0x91, 0x3d,
  0x01, 0x7b, 0x08, 0xbd, 0xe8, 0x34, 0xda, 0xbd, 0xbf, 0x6f, 0x20, 0xbe,
  0x39, 0x49, 0x0d, 0xbd, 0x09, 0x20, 0x5e, 0x3e, 0xb8, 0x27, 0x9b, 0x3d,
  0x5c, 0x50, 0x28, 0xbe, 0x91, 0xa1, 0x07, 0xbe, 0x47, 0x2f, 0x3d, 0xbe,
  0x4c, 0xb5, 0x22, 0x3e, 0x8c, 0x4f, 0xac, 0xbb, 0x15, 0xc2, 0x20, 0xbe,
  0x52, 0xf4, 0x95, 0xbd, 0x38, 0x4b, 0x02, 0xbd, 0x02, 0xfe, 0xcc, 0xbd,
  0xbf, 0xaf, 0x04, 0xbe, 0xea, 0xfd, 0xf8, 0x3d, 0x2a, 0x35, 0xa2, 0x3d,
  0x43, 0xc2, 0xdc, 0x3d, 0x4a, 0x0b, 0xbf, 0x3c, 0x9e, 0x6f, 0x9c, 0xbd,
  0x53, 0xc1, 0x18, 0x3e, 0x59, 0xfb, 0x0e, 0x3d, 0x80, 0x64, 0xb6, 0x3d,
  0xb0, 0xfc, 0x07, 0x3d, 0xaa, 0x6a, 0xac, 0xbc, 0x3a, 0x2b, 0xd0, 0xbd,
  0xca, 0x53, 0x4e, 0xbe, 0x25, 0xd3, 0xec, 0xbd, 0xfe, 0x70, 0x70, 0x3d,
  0xa2, 0x4d, 0xed, 0x3c, 0x25, 0x18, 0x3f, 0x3e, 0x6e, 0x52, 0x1a, 0xbd,
  0xab, 0x2b, 0xe7, 0x3d, 0xe1, 0xda, 0x35, 0x3e, 0xf1, 0xda, 0x15, 0xbe,
  0x1b, 0xc7, 0x04, 0x3e, 0x6d, 0x8b, 0xe3, 0x3b, 0x41, 0x00, 0xd7, 0xb9,
  0xe8, 0x23, 0x49, 0xbe, 0xc4, 0xfe, 0xd2, 0xbd, 0xfa, 0xa7, 0xb5, 0xbc,
  0x99, 0x79, 0x86, 0xbd, 0x2c, 0xf1, 0x13, 0xbd, 0x43, 0x5a, 0xe4, 0x3c,
  0x01, 0x70, 0x86, 0xbb, 0xd9, 0xe4, 0x59, 0x3d, 0x20, 0x74, 0x91, 0xbc,
  0xcf, 0xc3, 0x18, 0x3e, 0x47, 0x96, 0x13, 0x3e, 0xd1, 0x87, 0xa2, 0xbd,
  0x98, 0xb8, 0xf8, 0xbd, 0xf1, 0xee, 0xc3, 0x3b, 0x1e, 0x2f, 0x6a, 0x3d,
  0xb0, 0x6d, 0x2b, 0x3e, 0x4c, 0x3f, 0x94, 0x3c, 0x0a, 0x7e, 0x45, 0xbe,
  0x80, 0x2a, 0xb0, 0x3d, 0xe7, 0x7c, 0x37, 0xbd, 0xc7, 0xc5, 0xfd, 0x3d,
  0x3d, 0x06, 0x89, 0xbd, 0xd4, 0x07, 0xf8, 0x3d, 0x4e, 0xf1, 0xe7, 0xbc,
  0x7a, 0x36, 0x53, 0x3d, 0x90, 0xf9, 0xd0, 0x3c, 0xc8, 0x10, 0x36, 0xbe,
  0x71, 0x9e, 0xb5, 0x3d, 0xa1, 0x54, 0x69, 0xbd, 0xef, 0xd7, 0x2b, 0x3d,
  0xbd, 0xc9, 0x4d, 0x3c, 0xe9, 0x7f, 0xb4, 0x3d, 0x3a, 0x3b, 0x48, 0x3d,
  0x24, 0xda, 0x14, 0xbe, 0x46, 0x34, 0x46, 0x3e, 0x11, 0x3b, 0x11, 0x3e,
  0x2f, 0xa7, 0xe3, 0x3d, 0xd1, 0x56, 0xae, 0xbd, 0x4d, 0x49, 0x40, 0xbe,
  0x20, 0x54, 0x61, 0xbd, 0x04, 0x6c, 0x98, 0xbe, 0xd7, 0xe3, 0x2d, 0x3e,
  0xb2, 0xeb, 0xd2, 0xbc, 0xb6, 0x68, 0x8c, 0xbc, 0x8e, 0xed, 0x37, 0x3e,
  0xe3, 0xb7, 0x55, 0x3d, 0x96, 0x8c, 0x20, 0x3c, 0x15, 0xd1, 0x6c, 0x3c,
  0xeb, 0x5c, 0x93, 0xbc, 0x31, 0x03, 0x02, 0x3e, 0x9c, 0x51, 0x50, 0x3e,
  0xa4, 0x0e, 0x6f, 0xbd, 0x0e, 0xab, 0xfc, 0xbc, 0xa6, 0x68, 0x5d, 0xbd,
  0x8c, 0xe6, 0xb0, 0xbd, 0xee, 0xbf, 0xd4, 0x3c, 0x7d, 0x8d, 0x49, 0x3e,
  0xfa, 0xc0, 0x12, 0xbe, 0xeb, 0x63, 0xdd, 0xbd, 0xc6, 0x80, 0xeb, 0x3d,
  0x11, 0xdb, 0x37, 0xbe, 0xd8, 0x90, 0xef, 0x3d, 0xbc, 0x47, 0x74, 0xbe,
  0x29, 0xb3, 0x1a, 0xbc, 0x42, 0x73, 0x95, 0x3c, 0x59, 0x78, 0x0b, 0xbd,
  0x01, 0x92, 0xfb, 0x3d, 0xc3, 0x0d, 0xd0, 0x3d, 0xa4, 0xc2, 0x65, 0xbc,
  0x9d, 0x0f, 0x82, 0xbb, 0x4c, 0x34, 0xa6, 0xbd, 0x4e, 0x47, 0x16, 0xbe,
  0x7f, 0xb9, 0x1f, 0x3e, 0x0a, 0xfc, 0x81, 0xbd, 0x22, 0x4d, 0x77, 0x3d,
  0xb3, 0x12, 0x80, 0xbd, 0xc6, 0xfc, 0xfc, 0xbd, 0x6f, 0xb2, 0x9b, 0xbc,
  0xf0, 0x39, 0xed, 0x3d, 0x23, 0x3c, 0x83, 0x3d, 0xb0, 0xc9, 0x0a, 0xbe,
  0x83, 0x17, 0xb9, 0xbd, 0x24, 0xb5, 0xdc, 0xbc, 0x8e, 0xe0, 0x6b, 0x3e,
  0x7e, 0xf6, 0x3c, 0x3e, 0xc3, 0x9e, 0xa1, 0x3d, 0xe1, 0x6f, 0x44, 0x3c,
  0x73, 0x32, 0xd5, 0x3c, 0x23, 0x59, 0x2c, 0xbe, 0x95, 0xf6, 0xf2, 0x3c,
  0x0e, 0xfd, 0x5d, 0xbe, 0xfc, 0x3e, 0xdc, 0x3d, 0xe8, 0x01, 0x71, 0x3e,
  0x68, 0xe4, 0x63, 0xbd, 0x18, 0xce, 0x0a, 0xbc, 0x87, 0xcc, 0x07, 0xbe,
  0x34, 0x11, 0xb3, 0x3d, 0xa2, 0xe8, 0x0c, 0xbe, 0x4d, 0xcb, 0x31, 0xbe,
  0xae, 0x34, 0x3a, 0xbb, 0xbb, 0x07, 0xf2, 0xbd, 0xc0, 0x37, 0xf2, 0x3b,
  0x7e, 0x17, 0x4f, 0xbd, 0x39, 0x70, 0xca, 0xbc, 0xca, 0x27, 0x52, 0xbc,
  0xee, 0x87, 0x2e, 0x3c, 0xeb, 0x3d, 0xda, 0x3d, 0x1a, 0x28, 0x2f, 0xbd,
  0x78, 0xad, 0x90, 0x3d, 0x70, 0xbc, 0x01, 0xbe, 0x2d, 0x61, 0x9a, 0x3d,
  0xd6, 0x8a, 0x76, 0xbd, 0xfd, 0x6b, 0x3b, 0x3d, 0x02, 0x41, 0x61, 0xbd,
  0x68, 0x08, 0xfe, 0xbd, 0x9f, 0x80, 0x4c, 0x3c, 0x8b, 0xf6, 0x86, 0xbd,
  0xb4, 0x71, 0xd3, 0xbd, 0x73, 0x0e, 0x00, 0x3d, 0x1e, 0x62, 0x78, 0x3d,
  0x98, 0xfc, 0x2c, 0x3c, 0x22, 0xb0, 0xe2, 0x3d, 0xe9, 0x75, 0x1f, 0x3d,
  0x21, 0x6a, 0x26, 0xbe, 0x5e, 0x80, 0x2d, 0x3d, 0xd7, 0xfa, 0x59, 0x3e,
  0xbc, 0xf1, 0x33, 0xbd, 0x5e, 0x53, 0xbf, 0x3d, 0x4d, 0x43, 0x3b, 0xbe,
  0x58, 0x44, 0x1c, 0xbe, 0x3b, 0x2b, 0xe0, 0x3d, 0x52, 0x39, 0x7c, 0x3d,
  0x6d, 0x31, 0x0e, 0xbe, 0x47, 0x28, 0xfa, 0x3c, 0x2c, 0x08, 0x3a, 0x3d,
  0xc1, 0xf3, 0x3b, 0x3d, 0x24, 0x2a, 0x04, 0x3d, 0x71, 0x91, 0x3c, 0x3e,
  0x78, 0x21, 0xc5, 0xbd, 0xfc, 0xec, 0xeb, 0x3c, 0x8c, 0xdf, 0x20, 0x3e,
  0x3f, 0x83, 0xd0, 0x3b, 0x17, 0xd0, 0x15, 0xbd, 0x5b, 0xd3, 0x55, 0xbd,
  0xab, 0xbe, 0x00, 0xbe, 0xf7, 0x84, 0xaa, 0xbd, 0x43, 0xb5, 0x31, 0xbe,
  0xe7, 0xfe, 0x0c, 0xbe, 0xcf, 0x56, 0x2f, 0x3e, 0xf1, 0xe6, 0x0a, 0xbd,
  0xc1, 0xf7, 0x95, 0x3d, 0x84, 0x4c, 0xb4, 0xbd, 0x1a, 0x3e, 0x86, 0x3d,
  0x4a, 0x1c, 0xc7, 0xbc, 0x04, 0x85, 0xd0, 0xbd, 0xee, 0xc6, 0xe3, 0x3c,
  0x79, 0xd0, 0x27, 0x3e, 0x32, 0xf5, 0x7f, 0x3c, 0x51, 0x30, 0x38, 0xbe,
  0x2e, 0xad, 0xae, 0xbc, 0xb1, 0x36, 0x2a, 0xbc, 0xe8, 0x0c, 0xf0, 0x3d,
  0x88, 0x9c, 0x50, 0xbe, 0x54, 0x07, 0x4e, 0x3d, 0x1b, 0x11, 0x66, 0xbe,
  0x88, 0xc5, 0x9b, 0x3b, 0x57, 0xca, 0xa3, 0x3d, 0x12, 0x44, 0x34, 0x3d,
  0x22, 0xc7, 0x41, 0xbe, 0x84, 0xc4, 0x4a, 0xbc, 0x37, 0x26, 0x6b, 0xbe,
  0x7a, 0xc9, 0x6c, 0x3e, 0xb9, 0x07, 0x1b, 0x3e, 0xf8, 0x4e, 0x80, 0x3d,
  0xaf, 0xed, 0x1a, 0x3c, 0x64, 0xb5, 0x62, 0xbe, 0x21, 0x91, 0x5a, 0x3d,
  0xb0, 0xad, 0x07, 0xbe, 0x3a, 0x7f, 0x8c, 0x3e, 0xfc, 0x76, 0x8e, 0x3c,
  0x6b, 0xf6, 0x48, 0xbe, 0xfc, 0x0e, 0x45, 0xbe, 0xa7, 0x0f, 0x52, 0xbe,
  0x4a, 0x27, 0x0f, 0xbe, 0x2a, 0x14, 0x17, 0xbd, 0x79, 0x18, 0xe1, 0xbd,
  0xfa, 0x15, 0x1b, 0x3e, 0xa0, 0x34, 0x50, 0x3e, 0x40, 0xef, 0x0c, 0x3e,
  0x43, 0xe9, 0x1d, 0x3e, 0xe6, 0x6c, 0x1e, 0x3e, 0x49, 0xa3, 0x70, 0xbd,
  0xf6, 0x31, 0x78, 0x3e, 0xa7, 0x8e, 0xd9, 0x3d, 0xe2, 0x1c, 0x28, 0xbe,
  0x7a, 0x1b, 0x1c, 0xbe, 0xc2, 0x0f, 0x15, 0x3e, 0x26, 0x9f, 0x8c, 0xbe,
  0xaf, 0x2e, 0xdc, 0x3b, 0xe8, 0x74, 0x77, 0x3d, 0xf7, 0x6d, 0xa4, 0xbd,
  0xa2, 0xb5, 0x76, 0x3e, 0x6f, 0x6c, 0xc1, 0x3d, 0x5a, 0xb2, 0x91, 0x3d,
  0x3b, 0xa9, 0x25, 0x3e, 0x33, 0x00, 0x22, 0xbe, 0x71, 0xd2, 0x55, 0xbd,
  0xae, 0x66, 0x8b, 0xbc, 0x8b, 0xaa, 0x63, 0xbd, 0xf1, 0xeb, 0x82, 0x3e,
  0x07, 0x17, 0x97, 0x3d, 0x5d, 0xdd, 0x32, 0xbe, 0x2d, 0xe3, 0x9a, 0x3d,
  0x19, 0xa1, 0x42, 0x3e, 0xae, 0x6a, 0x12, 0x3d, 0xfc, 0x20, 0xc6, 0x3a,
  0xab, 0xbb, 0x71, 0x3e, 0xd9, 0x90, 0x06, 0x3e, 0x1b, 0x9d, 0x4f, 0xbe,
  0x08, 0x16, 0x83, 0x3e, 0x3a, 0x3c, 0x81, 0xbd, 0x4e, 0x6d, 0x50, 0x3b,
  0xc5, 0x53, 0x8d, 0x3e, 0xee, 0x6d, 0x86, 0x3d, 0xc0, 0x1f, 0x7b, 0xbd,
  0xda, 0x63, 0xd2, 0x3d, 0xe3, 0x2b, 0x48, 0x3d, 0x89, 0x53, 0x7a, 0xbe,
  0xeb, 0x1a, 0xfb, 0xbd, 0xd4, 0x1a, 0xd3, 0x3c, 0xfc, 0xc8, 0x44, 0x3e,
  0xa6, 0xc7, 0x0e, 0x3e, 0xb3, 0xec, 0x20, 0x3e, 0x9a, 0x87, 0x82, 0xbe,
  0xbb, 0x9d, 0x3e, 0x3e, 0x4d, 0x33, 0x66, 0x3d, 0xf7, 0x8b, 0x4e, 0x3b,
  0x5c, 0xef, 0x19, 0xbe, 0xc6, 0x5d, 0x40, 0xbe, 0xf4, 0xd3, 0x2f, 0x3d,
  0x19, 0x87, 0xef, 0x3d, 0xf9, 0x1e, 0x75, 0x3b, 0x02, 0xf6, 0x0c, 0x3d,
  0x2d, 0x7d, 0x13, 0xbe, 0x6e, 0x22, 0x6f, 0x3d, 0x9f, 0x33, 0x3b, 0xbe,
  0x25, 0x86, 0xd6, 0xbd, 0x04, 0x14, 0x73, 0xbd, 0xe4, 0x21, 0xde, 0x3c,
  0xe1, 0xac, 0xe8, 0xbd, 0xb9, 0x31, 0xaa, 0x3d, 0x9d, 0x4e, 0x11, 0xbe,
  0x31, 0xea, 0x4d, 0x3d, 0xb8, 0x51, 0x99, 0x3c, 0x30, 0x7b, 0x3a, 0xbc,
  0xf9, 0xb4, 0x06, 0x3e, 0xe7, 0xac, 0x8f, 0x3d, 0x98, 0x59, 0x17, 0x3e,
  0xd4, 0x66, 0x37, 0xbd, 0x8d, 0x8a, 0x70, 0x3e, 0x92, 0xaf, 0xce, 0xbd,
  0x69, 0x46, 0x30, 0x3e, 0x1c, 0x30, 0x5d, 0x3e, 0x53, 0x66, 0x48, 0x3e,
  0xb9, 0x82, 0x0d, 0xbe, 0x89, 0xbb, 0x2a, 0xbe, 0xfe, 0xaa, 0x33, 0xbd,
  0x83, 0xe0, 0x81, 0xbe, 0x05, 0xc0, 0xa0, 0x3d, 0x68, 0x3d, 0x79, 0x3d,
  0x82, 0xa3, 0x63, 0xbd, 0xe0, 0xf6, 0x61, 0x3e, 0xdd, 0x3d, 0xc5, 0xbd,
  0x32, 0xd6, 0x99, 0xbe, 0x26, 0xcc, 0x0f, 0xbe, 0x89, 0xff, 0x1e, 0xbe,
  0x50, 0xed, 0xfa, 0xbc, 0xd0, 0x37, 0x94, 0xbe, 0x5c, 0x0b, 0x92, 0xbe,
  0x8d, 0x78, 0x52, 0xbe, 0x28, 0xc9, 0x32, 0xbe, 0x5b, 0xb3, 0x45, 0x3c,
  0xfa, 0xe3, 0xff, 0xff, 0x04, 0x00, 0x00, 0x00, 0x90, 0x00, 0x00, 0x00,
  0x63, 0x0e, 0x45, 0x3e, 0x20, 0x5d, 0x60, 0xbe, 0x78, 0x32, 0xa7, 0x3e,
  0xa1, 0x09, 0xb1, 0x3e, 0x8e, 0x25, 0x35, 0xbe, 0xc4, 0x12, 0x52, 0xbd,
  0x2e, 0x61, 0x1c, 0x3e, 0x72, 0xe8, 0x8d, 0xbe, 0xc2, 0x09, 0x45, 0x3d,
  0x78, 0xd6, 0x84, 0x3d, 0xe5, 0xcf, 0x0b, 0xbe, 0xe1, 0x76, 0x3d, 0xbd,
  0x90, 0x80, 0x5c, 0xbd, 0xcd, 0x65, 0x04, 0xbe, 0x1e, 0x54, 0xac, 0xbe,
  0x0a, 0xc2, 0x93, 0xb9, 0xb6, 0x89, 0x3a, 0xbe, 0xcb, 0x94, 0x8d, 0xbe,
  0xe3, 0x69, 0x6d, 0xbe, 0x84, 0x07, 0x67, 0xbe, 0xb2, 0xaf, 0xb4, 0xbe,
  0xd5, 0x33, 0x03, 0x3e, 0xf9, 0x35, 0x33, 0x3e, 0x89, 0x46, 0x47, 0xbc,
  0x63, 0x23, 0x9b, 0x3e, 0x6d, 0xa2, 0x87, 0x3b, 0x72, 0x8c, 0x88, 0xbe,
  0xf4, 0x79, 0x92, 0x3e, 0x41, 0xfd, 0x63, 0xbd, 0x09, 0x52, 0x84, 0x3e,
  0x4d, 0x40, 0x94, 0xbe, 0x3d, 0x9b, 0x8d, 0xbe, 0x0f, 0x89, 0x07, 0x3e,
  0x54, 0xda, 0x11, 0xbe, 0xce, 0x7f, 0xae, 0xbe, 0x33, 0xd1, 0x2b, 0x3c,
  0x96, 0xe4, 0xff, 0xff, 0x04, 0x00, 0x00, 0x00, 0x00, 0x09, 0x00, 0x00,
  0x3e, 0xd6, 0xd0, 0x3d, 0x39, 0x31, 0x53, 0x3e, 0x47, 0x2a, 0xa2, 0xbd,
  0x8a, 0x7d, 0xce, 0x3d, 0xd7, 0x0d, 0x96, 0xbc, 0xd7, 0x38, 0xe2, 0x3d,
  0x42, 0xb8, 0xe5, 0x3d, 0xf6, 0x3f, 0x44, 0x3d, 0x10, 0x9a, 0x0c, 0xbe,
  0xd0, 0x1c, 0xbe, 0xbd, 0x4c, 0x35, 0x69, 0xbd, 0xc7, 0x0e, 0x98, 0x3d,
  0x1b, 0xb2, 0x07, 0xbe, 0x5c, 0x8e, 0xb5, 0xbd, 0x0a, 0xcc, 0x33, 0x3e,
  0xd8, 0x35, 0xd0, 0xbd, 0x42, 0xec, 0x12, 0xbe, 0x21, 0x7a, 0x82, 0xbd,
  0x14, 0xe3, 0xbf, 0x3d, 0x2c, 0xa2, 0x31, 0xbd, 0xb8, 0xee, 0x94, 0xbc,
  0xe1, 0xbb, 0x27, 0x3d, 0x97, 0x45, 0x51, 0x3e, 0x2e, 0x68, 0xc9, 0xbd,
  0x9a, 0x92, 0x7e, 0x3e, 0x6b, 0x83, 0x33, 0x3d, 0x36, 0x71, 0xf1, 0xbc,
  0x90, 0x39, 0x89, 0x3d, 0x0b, 0x83, 0x2a, 0xbe, 0x99, 0x9d, 0xc2, 0x3b,
  0xf5, 0xee, 0xa4, 0xbd, 0xc7, 0x75, 0x21, 0xbe, 0x5b, 0x26, 0x4f, 0x3e,
  0x68, 0x90, 0x61, 0x3e, 0x1d, 0xe6, 0x2c, 0x3e, 0xd2, 0xc4, 0x9f, 0x3d,
  0xf4, 0x84, 0xc4, 0x3c, 0xde, 0x7f, 0xf2, 0x3b, 0x32, 0x1f, 0xe4, 0xbd,
  0xaf, 0x33, 0x5b, 0xbc, 0x64, 0x3e, 0xde, 0xbd, 0xc9, 0x3f, 0xce, 0xbb,
  0x40, 0x5a, 0xd0, 0x3d, 0x35, 0xef, 0x98, 0x3d, 0xda, 0x67, 0xb5, 0x3d,
  0x80, 0x59, 0x6a, 0xbe, 0x6e, 0x8f, 0xeb, 0x3d, 0xc7, 0x98, 0xd9, 0x3d,
  0x98, 0x9b, 0x4a, 0xbe, 0x2e, 0xd7, 0xf5, 0x3c, 0xb5, 0x95, 0x70, 0x3e,
  0x05, 0xf8, 0x17, 0x3e, 0x74, 0xb7, 0x77, 0x3e, 0xca, 0xbc, 0xcb, 0xbd,
  0xdf, 0x0b, 0x5e, 0x3d, 0x15, 0x25, 0x2c, 0xbd, 0xe2, 0x9d, 0x38, 0x3e,
  0x4b, 0x06, 0xd4, 0x3d, 0x87, 0x8f, 0x14, 0x3e, 0x97, 0x7e, 0x4b, 0x3e,
  0x1d, 0x2e, 0xc7, 0x3d, 0xf6, 0x70, 0xed, 0xbd, 0xb6, 0x51, 0xa0, 0x3c,
  0xc1, 0xa3, 0x80, 0x3e, 0x6b, 0x1e, 0x33, 0xbe, 0xf2, 0x18, 0x9f, 0x3d,
  0xf0, 0x63, 0xc2, 0x3d, 0xf4, 0xaf, 0x50, 0xbd, 0xa8, 0x04, 0x00, 0x3d,
  0x22, 0xa7, 0x0e, 0xbe, 0x12, 0x0f, 0x4f, 0xbd, 0x56, 0x7d, 0x94, 0xbd,
  0x57, 0x6e, 0x46, 0x3e, 0x13, 0xa4, 0xe5, 0xbc, 0xa0, 0xa5, 0xb1, 0xbd,
  0xda, 0xaf, 0xc0, 0xbd, 0xf8, 0x57, 0x48, 0xbe, 0x4c, 0x25, 0x71, 0x3e,
  0x86, 0xe3, 0x05, 0xbe, 0xe5, 0x8a, 0xff, 0xbd, 0x88, 0x23, 0x14, 0xbe,
  0x00, 0x21, 0x2c, 0xbe, 0xad, 0x4a, 0x2c, 0x3e, 0xda, 0x12, 0x43, 0x3e,
  0x66, 0xfb, 0x64, 0xbd, 0x17, 0xa9, 0x55, 0xbe, 0xdf, 0xeb, 0x5a, 0xbe,
  0xf2, 0xee, 0x74, 0xbd, 0x3b, 0xf3, 0x73, 0xbe, 0x12, 0x6f, 0x34, 0xbd,
  0xee, 0x60, 0x08, 0xbe, 0xc0, 0xc3, 0x33, 0xbd, 0xfd, 0xe8, 0x47, 0x3e,
  0x6b, 0x35, 0x13, 0x3e, 0x04, 0x48, 0x5b, 0x3e, 0x46, 0xd7, 0xda, 0xbd,
  0x1b, 0x3d, 0x1d, 0x3d, 0x34, 0xf6, 0x7e, 0x3e, 0xa1, 0x77, 0x30, 0xbd,
  0xad, 0x69, 0x7c, 0x3d, 0x75, 0x5f, 0xe4, 0xbd, 0xa9, 0xf5, 0x38, 0xbe,
  0x8b, 0xf9, 0x72, 0x3c, 0x05, 0x35, 0x01, 0x3e, 0x7e, 0xed, 0x00, 0xbe,
  0x44, 0x35, 0x89, 0xbd, 0x14, 0x0f, 0xfd, 0xbd, 0x1a, 0x22, 0xbc, 0xbd,
  0x55, 0xaa, 0x72, 0xbc, 0xc9, 0x4e, 0x34, 0x3e, 0xe6, 0x91, 0x52, 0x3e,
  0xfe, 0x36, 0xf1, 0xbd, 0x4e, 0xd3, 0x1b, 0xbe, 0xfa, 0x38, 0x03, 0x3e,
  0x81, 0x17, 0x56, 0x3e, 0xae, 0x03, 0xf1, 0x3d, 0xaa, 0x26, 0x43, 0x3e,
  0x7c, 0x60, 0x3d, 0x3d, 0x34, 0x09, 0xca, 0x3c, 0x29, 0xba, 0x8c, 0x3e,
  0xa4, 0xac, 0x5f, 0xbe, 0xbb, 0xc7, 0x31, 0x3e, 0xea, 0x0b, 0x08, 0x3e,
  0x75, 0x2e, 0xa1, 0x3d, 0x83, 0xfb, 0x0f, 0x3d, 0x65, 0x49, 0x75, 0x3e,
  0xed, 0xac, 0x68, 0x3e, 0xc9, 0x3a, 0x7b, 0xbc, 0xbd, 0x5e, 0x30, 0xbe,
  0x3a, 0xa9, 0x85, 0x3d, 0xf6, 0xe5, 0x1e, 0xbe, 0x91, 0x37, 0x66, 0xbd,
  0x01, 0x81, 0x51, 0x3d, 0x1a, 0xa0, 0x37, 0xbe, 0x5b, 0xc1, 0x2c, 0x3e,
  0xaf, 0xb5, 0xd7, 0xbc, 0x8b, 0x01, 0xd3, 0x3d, 0x1d, 0x36, 0x88, 0xbd,
  0x88, 0x30, 0x4a, 0x3e, 0x43, 0x8e, 0xec, 0xbd, 0x5f, 0x55, 0x70, 0x3c,
  0x8c, 0xdd, 0x44, 0x3e, 0x39, 0x3f, 0x4f, 0x3e, 0x8b, 0x48, 0xeb, 0xbd,
  0xad, 0x2f, 0xf9, 0xbc, 0x86, 0x66, 0x4f, 0xbd, 0x7e, 0x3e, 0xc4, 0xbc,
  0x48, 0x93, 0xad, 0x3d, 0xda, 0xcf, 0xfb, 0x3d, 0xfe, 0x99, 0x83, 0xbd,
  0x10, 0xdb, 0x04, 0xbe, 0x7a, 0x60, 0x3f, 0xbe, 0x47, 0x6a, 0x08, 0xbe,
  0x7d, 0x14, 0x42, 0xbe, 0x8b, 0xcf, 0x60, 0x3e, 0x05, 0x66, 0x2b, 0x3e,
  0x74, 0xed, 0x2f, 0xbb, 0x1d, 0x3d, 0xa0, 0xbc, 0x3e, 0x0d, 0xb0, 0xbd,
  0xe5, 0x7e, 0x51, 0xbd, 0x41, 0x96, 0x5d, 0xbd, 0xce, 0x05, 0x51, 0x3e,
  0x19, 0x0c, 0xd5, 0xbc, 0xba, 0xdc, 0x8c, 0x3d, 0x23, 0xee, 0xc5, 0xbd,
  0x9b, 0x6f, 0x6a, 0xbe, 0x30, 0x10, 0x61, 0x3e, 0xcf, 0x4a, 0x95, 0xbd,
  0x1d, 0x46, 0x89, 0xbd, 0x0a, 0x5c, 0x18, 0x3e, 0x5e, 0x9f, 0xf3, 0x3b,
  0x98, 0x7d, 0x6f, 0x3d, 0xcb, 0x8a, 0x27, 0xbe, 0x58, 0x9a, 0x36, 0xbd,
  0x34, 0xa0, 0x23, 0xbe, 0x49, 0x69, 0x80, 0x3c, 0x22, 0x2a, 0x1a, 0x3e,
  0xe4, 0xb9, 0x60, 0x3d, 0x06, 0x97, 0x38, 0xbe, 0xdf, 0xea, 0xfa, 0xbd,
  0x85, 0xaf, 0x8c, 0xbd, 0xc3, 0x9d, 0x1b, 0x3e, 0x74, 0xba, 0x27, 0xbe,
  0x4f, 0xf7, 0x2f, 0xbe, 0x9e, 0xfb, 0x63, 0xbe, 0x79, 0x80, 0xa4, 0x3c,
  0x76, 0xbd, 0x68, 0xbe, 0xce, 0xf4, 0xd6, 0x3d, 0xa6, 0x5f, 0x9c, 0x3d,
  0xcc, 0x75, 0x03, 0xbe, 0xcf, 0x9a, 0x0f, 0xbe, 0x5a, 0x72, 0x48, 0x3e,
  0x96, 0x7c, 0x90, 0x3d, 0x9a, 0x2a, 0x9f, 0x3d, 0x15, 0x7b, 0xef, 0x3c,
  0xfb, 0xb5, 0x2e, 0xbe, 0xa9, 0x24, 0xdc, 0xbc, 0x47, 0xc7, 0xed, 0x3c,
  0x9f, 0x84, 0x02, 0xbe, 0xa2, 0x59, 0x20, 0xbe, 0xce, 0x38, 0x17, 0x3e,
  0xfd, 0xc3, 0xc9, 0x3c, 0xa2, 0x8e, 0xea, 0x3c, 0xae, 0xb3, 0xfc, 0xbc,
  0xba, 0xc5, 0x3f, 0xbe, 0x35, 0x29, 0x40, 0x3e, 0xa5, 0x8e, 0xdf, 0xbd,
  0xd0, 0x56, 0x33, 0xbe, 0x74, 0x69, 0x45, 0x3d, 0x3a, 0xc8, 0x5f, 0xbd,
  0xb4, 0xed, 0x43, 0x3e, 0x7b, 0xb6, 0x12, 0xbe, 0xb7, 0x84, 0x05, 0x3e,
  0xbb, 0xc7, 0x38, 0xbe, 0x0d, 0x99, 0xff, 0x3c, 0x8e, 0x64, 0x13, 0xbe,
  0x13, 0x08, 0x57, 0xbe, 0x38, 0x75, 0x71, 0xbd, 0xd7, 0x23, 0x1d, 0x3d,
  0x0d, 0x45, 0x21, 0xbe, 0xf3, 0xe2, 0x2e, 0xbe, 0x78, 0x7d, 0xac, 0xbd,
  0x92, 0x50, 0x26, 0x3d, 0x4b, 0x7f, 0x89, 0x3c, 0x14, 0xfd, 0xcc, 0x3d,
  0x5f, 0xbb, 0xa8, 0xbd, 0x61, 0x6a, 0x25, 0xbe, 0x50, 0x71, 0x55, 0x3c,
  0x78, 0xdc, 0x27, 0x3e, 0x59, 0xc0, 0xac, 0xbd, 0xb8, 0x6a, 0x23, 0xbe,
  0xb6, 0xb5, 0xda, 0xbc, 0x0a, 0xa0, 0x55, 0x3e, 0x5b, 0x3d, 0x82, 0x3e,
  0x1b, 0xe6, 0x35, 0x3e, 0xe6, 0x5b, 0x1f, 0xbe, 0x22, 0x12, 0x8a, 0x3d,
  0x4b, 0x51, 0x10, 0x3d, 0x12, 0x23, 0xe3, 0x3d, 0xb8, 0x0a, 0x06, 0xbe,
  0x82, 0x7a, 0x00, 0x3e, 0x20, 0x68, 0x24, 0x3e, 0xeb, 0x12, 0x84, 0xbe,
  0x59, 0xc1, 0x47, 0xbe, 0x62, 0xbc, 0xd1, 0x3c, 0x00, 0x8d, 0x59, 0x3d,
  0x78, 0x53, 0x5c, 0x3e, 0x1d, 0xab, 0x01, 0xbd, 0x33, 0x5e, 0xda, 0x3d,
  0x50, 0x4f, 0xf2, 0x3d, 0x7b, 0x2e, 0x86, 0x3d, 0x5e, 0xd4, 0x1c, 0x3b,
  0xb3, 0x5f, 0x60, 0x3e, 0x87, 0xe7, 0x35, 0xbd, 0xa4, 0xbb, 0x96, 0xbc,
  0xc1, 0xb0, 0xe8, 0x3d, 0xa7, 0x0b, 0x83, 0x3d, 0xb4, 0xe6, 0x28, 0x3e,
  0x04, 0x81, 0x7d, 0x3e, 0xbf, 0xdd, 0x38, 0x3d, 0x53, 0xc9, 0xf8, 0xbc,
  0x67, 0x6f, 0x19, 0xbe, 0xe8, 0x88, 0x15, 0x3e, 0x23, 0x35, 0xcc, 0x3d,
  0xe6, 0x03, 0x24, 0x3d, 0x6a, 0xc6, 0x57, 0x3c, 0xdb, 0xa0, 0x1b, 0x3e,
  0x9a, 0x3f, 0x0e, 0x3e, 0xe8, 0x6f, 0x37, 0xbe, 0x8f, 0x61, 0x5a, 0x3e,
  0xad, 0x58, 0xb2, 0x3b, 0x1d, 0xfa, 0x20, 0x3e, 0xbc, 0x68, 0xa6, 0x3b,
  0xe7, 0x9a, 0xfa, 0xbd, 0x6f, 0xb4, 0x29, 0x3d, 0x23, 0xb3, 0xa4, 0x3d,
  0x54, 0x54, 0x22, 0xbe, 0x4d, 0x0e, 0xa8, 0x3d, 0xad, 0x65, 0x22, 0xbd,
  0x52, 0xd1, 0xc4, 0x3d, 0x97, 0x3e, 0x8d, 0xbc, 0x2a, 0x3d, 0xd6, 0xbd,
  0x2b, 0x9f, 0xb1, 0xbd, 0x12, 0xf3, 0x5a, 0x3e, 0xe7, 0xba, 0x1f, 0x3d,
  0x3e, 0xac, 0x25, 0x3e, 0xfc, 0xbd, 0xbb, 0xbd, 0x9e, 0x29, 0x24, 0xbc,
  0x26, 0x1e, 0x81, 0xbe, 0xd3, 0xe8, 0x84, 0xbe, 0x4b, 0x96, 0x24, 0xbe,
  0x95, 0xbc, 0xe3, 0x3d, 0x5c, 0xf3, 0xf4, 0x3d, 0x3e, 0x5d, 0x0c, 0xbd,
  0x2d, 0xd4, 0x3a, 0x3e, 0xdf, 0x4b, 0x2f, 0xbe, 0x95, 0x3a, 0x42, 0xbe,
  0x4f, 0xf6, 0x1c, 0x3e, 0x4e, 0x09, 0x09, 0xbe, 0xd4, 0xfd, 0xdf, 0xbd,
  0x84, 0xba, 0xa7, 0xbd, 0x37, 0x27, 0xdc, 0xbd, 0xc0, 0x13, 0x30, 0x3e,
  0x76, 0xd1, 0x95, 0xbc, 0x4a, 0xc5, 0xa4, 0x3c, 0x8d, 0xe5, 0x84, 0x3e,
  0x3a, 0x15, 0x5e, 0xbe, 0x13, 0xf3, 0xc6, 0x3d, 0x13, 0xf9, 0x09, 0xbe,
  0xd8, 0x6e, 0xe6, 0x3b, 0x70, 0x9d, 0x1c, 0xbe, 0x91, 0x88, 0x44, 0x3c,
  0x98, 0x04, 0xef, 0xbd, 0x53, 0xa0, 0x8b, 0xbc, 0xb3, 0x24, 0xcb, 0x3d,
  0xe4, 0x53, 0x19, 0x3d, 0x62, 0x02, 0x97, 0xbe, 0x38, 0x63, 0x06, 0xbc,
  0xb7, 0x0f, 0x1d, 0xbc, 0xbb, 0xd0, 0x76, 0x3e, 0x5f, 0x6d, 0xea, 0xbd,
  0xb0, 0x23, 0x03, 0x3e, 0x56, 0x35, 0x81, 0xbe, 0x52, 0x4c, 0xc6, 0x3d,
  0x91, 0xf4, 0x3b, 0x3e, 0xb0, 0x17, 0x5d, 0x3e, 0xef, 0x1b, 0x14, 0x3e,
  0x38, 0x67, 0x14, 0xbe, 0xa7, 0xe8, 0xa8, 0xbd, 0x2e, 0x7e, 0x1d, 0xbe,
  0x0e, 0x46, 0xc5, 0x3d, 0xa9, 0xe2, 0xfc, 0xbd, 0x78, 0xfa, 0x48, 0x3e,
  0x82, 0x0e, 0xb4, 0x3c, 0xef, 0xec, 0x24, 0x3e, 0x5c, 0x07, 0x3b, 0xbe,
  0x3a, 0x82, 0x28, 0x3e, 0x05, 0x05, 0x16, 0xbe, 0x94, 0x5a, 0x36, 0xbe,
  0xdc, 0xba, 0x68, 0xbe, 0xce, 0x45, 0xc0, 0xbd, 0x31, 0x46, 0x0c, 0x3c,
  0x01, 0x55, 0xb9, 0xbb, 0x9b, 0x44, 0x27, 0x3e, 0xb9, 0x8e, 0x58, 0xbe,
  0x42, 0xec, 0xed, 0xbc, 0x42, 0x35, 0x45, 0xbe, 0x1c, 0xe7, 0x60, 0x3e,
  0x6f, 0x47, 0x53, 0xbe, 0x9b, 0xb1, 0x0f, 0x3e, 0x41, 0xf0, 0x28, 0xbe,
  0x75, 0x4d, 0x32, 0xbe, 0x2b, 0x3a, 0x83, 0xbd, 0xb6, 0x55, 0x0f, 0x3e,
  0xe9, 0x37, 0x28, 0xbe, 0xf5, 0xfc, 0x3b, 0xbe, 0xcc, 0xbe, 0x5b, 0x3e,
  0x16, 0xc4, 0x16, 0xbe, 0x27, 0xba, 0x3a, 0xbe, 0x7c, 0x49, 0xfd, 0xbd,
  0xe2, 0x6e, 0x63, 0x3e, 0xc6, 0x17, 0xdb, 0x3d, 0x61, 0xda, 0x45, 0xbd,
  0x4b, 0xb7, 0xf3, 0x3d, 0x6b, 0x61, 0x11, 0xbe, 0x46, 0xa3, 0xf3, 0xbd,
  0xd7, 0x6c, 0xd0, 0xbd, 0x98, 0x43, 0xe1, 0x3c, 0xe5, 0xd5, 0x1c, 0xbd,
  0x20, 0xbb, 0x22, 0xbe, 0xd6, 0x2f, 0x19, 0x3d, 0x3f, 0xeb, 0x30, 0xbd,
  0x81, 0x9b, 0xc9, 0x3d, 0x51, 0x52, 0xea, 0xbc, 0xa6, 0x5e, 0x25, 0xbe,
  0x10, 0x03, 0x81, 0x3e, 0xc0, 0xe4, 0xec, 0xbd, 0x01, 0x01, 0x27, 0xbe,
  0x88, 0xc2, 0x2e, 0xbe, 0x40, 0xb5, 0x5e, 0xbe, 0xb3, 0xbc, 0x14, 0x3e,
  0xb8, 0xea, 0x14, 0x3e, 0xe7, 0x7e, 0x32, 0x3e, 0xfa, 0xc6, 0x12, 0xbd,
  0x72, 0x7e, 0x9c, 0xbc, 0x1d, 0x79, 0x8d, 0x3d, 0xd4, 0x76, 0x00, 0x3c,
  0x2d, 0xa5, 0x0d, 0x3d, 0xf1, 0xf8, 0x32, 0x3e, 0xc3, 0x5a, 0xe5, 0x3d,
  0xf3, 0x23, 0x89, 0x3d, 0x02, 0x3a, 0x1d, 0x3e, 0xb2, 0xf6, 0x94, 0xbe,
  0x88, 0x76, 0xcc, 0x3d, 0x36, 0xe7, 0x07, 0x3e, 0xfb, 0x8b, 0x93, 0xbc,
  0x09, 0x5f, 0x14, 0xbe, 0x16, 0x16, 0x0a, 0xbe, 0xf5, 0x1a, 0x9d, 0xbd,
  0x30, 0xe3, 0xbc, 0xbc, 0x53, 0xb9, 0x42, 0xbe, 0x42, 0x70, 0x72, 0xbe,
  0xd2, 0xf4, 0xe0, 0x3d, 0x97, 0x04, 0xdb, 0xbd, 0x6a, 0xa7, 0x6c, 0x3d,
  0x9a, 0x03, 0x18, 0xbe, 0x96, 0x2e, 0xb0, 0xbd, 0x29, 0xed, 0x6d, 0x3e,
  0xc8, 0x1c, 0xa1, 0x3d, 0xde, 0x9b, 0xe2, 0xbd, 0xe8, 0x22, 0x47, 0xbe,
  0x85, 0xc6, 0x02, 0xbd, 0x0f, 0xfb, 0x6e, 0xbe, 0x29, 0xb1, 0xac, 0xbd,
  0x8a, 0x3e, 0xbf, 0xbd, 0xbb, 0x66, 0x4e, 0xbd, 0x51, 0x19, 0x6f, 0xbd,
  0xb4, 0x35, 0x94, 0xbe, 0x45, 0x78, 0x55, 0x3d, 0xc4, 0xb2, 0x57, 0xbe,
  0x58, 0xdf, 0x99, 0xbd, 0x43, 0x23, 0xf2, 0x3d, 0x12, 0x6d, 0x9a, 0xbd,
  0xa2, 0x1f, 0x2b, 0x3e, 0x73, 0x8a, 0xa2, 0xbd, 0x69, 0xcd, 0x92, 0x3c,
  0x76, 0x99, 0x2f, 0x3e, 0xe9, 0x04, 0x58, 0x3d, 0x53, 0xbb, 0x0b, 0x3e,
  0x5f, 0x01, 0x55, 0x3d, 0x8b, 0x65, 0x09, 0x3d, 0x48, 0x00, 0xcf, 0x3c,
  0xb2, 0x50, 0x2a, 0xbe, 0x73, 0x49, 0x15, 0xbc, 0xc7, 0xe5, 0x45, 0xbe,
  0xb0, 0x63, 0xf0, 0xbd, 0xda, 0x32, 0x01, 0xbe, 0x1a, 0x40, 0x4d, 0xbd,
  0x0f, 0xe7, 0xd4, 0xbd, 0xcb, 0x63, 0xde, 0x3d, 0x3b, 0xe3, 0x34, 0xbe,
  0x66, 0x3c, 0x40, 0xbe, 0xca, 0x79, 0x2d, 0xbd, 0xc0, 0x55, 0xe8, 0x3d,
  0xfe, 0x8d, 0x75, 0x3e, 0x3f, 0x23, 0x00, 0xbe, 0x4f, 0x7f, 0x80, 0x3e,
  0x24, 0xfa, 0xe6, 0x3d, 0x03, 0xce, 0x14, 0x3d, 0x03, 0xf7, 0x72, 0xbe,
  0x66, 0x20, 0x94, 0x3e, 0xef, 0x2a, 0xf3, 0xbd, 0x4c, 0xe6, 0xf9, 0x3b,
  0x13, 0x21, 0x6b, 0xbe, 0xd0, 0x37, 0xb6, 0xbc, 0x33, 0x09, 0x02, 0x3e,
  0x04, 0x6f, 0x89, 0xbd, 0x90, 0x14, 0x59, 0xbe, 0xcf, 0xc4, 0xa5, 0x3d,
  0xcb, 0xbb, 0x87, 0xbd, 0xd5, 0xdf, 0x08, 0x3e, 0xd9, 0x57, 0x91, 0x3e,
  0xd5, 0xc4, 0x9b, 0x3d, 0x5f, 0x25, 0x62, 0x3e, 0x47, 0xc3, 0x26, 0x3d,
  0x25, 0x13, 0x4a, 0x3e, 0xf2, 0x3c, 0x1d, 0xbe, 0xe7, 0x33, 0x06, 0xbc,
  0x9b, 0xf0, 0xab, 0xbd, 0xfb, 0x10, 0x3a, 0xbd, 0xb9, 0xde, 0x75, 0xbd,
  0x37, 0xeb, 0x5b, 0x3d, 0x4f, 0x51, 0x42, 0x3e, 0xdc, 0xdb, 0xff, 0xbc,
  0xb8, 0x89, 0xd7, 0x3d, 0x31, 0x34, 0xb0, 0x3c, 0x06, 0x11, 0xc7, 0xbd,
  0x59, 0x0d, 0xe4, 0x3c, 0x17, 0x07, 0x81, 0x3d, 0x7e, 0x5c, 0xd4, 0x3d,
  0xed, 0x0a, 0x0f, 0x3d, 0x63, 0x0f, 0x6c, 0x3e, 0xfe, 0x62, 0x66, 0xbe,
  0x26, 0x0d, 0x17, 0x3e, 0x2f, 0x5d, 0x90, 0xbe, 0x3a, 0x86, 0x86, 0x3e,
  0xbe, 0x8b, 0xfe, 0xbd, 0x6d, 0xad, 0xbc, 0xbd, 0x23, 0xfc, 0xe5, 0x3c,
  0x51, 0xed, 0x14, 0xbe, 0x29, 0x46, 0x88, 0xbd, 0x4d, 0xe6, 0x3d, 0x3e,
  0x0c, 0xb8, 0x7e, 0x3e, 0xec, 0xd2, 0x5c, 0x3e, 0x67, 0x9e, 0x30, 0x3e,
  0xea, 0x91, 0x4c, 0x3e, 0x2a, 0x04, 0x15, 0xbe, 0x32, 0x63, 0x2e, 0x3c,
  0x85, 0xd4, 0x0b, 0x3e, 0xcc, 0x3b, 0x48, 0xbe, 0x1d, 0x14, 0x24, 0xbe,
  0x82, 0x1a, 0x76, 0xbd, 0x46, 0xd0, 0x29, 0x3c, 0x6a, 0xbe, 0xcc, 0xbd,
  0x38, 0x99, 0xe9, 0xbd, 0xd2, 0x13, 0xcc, 0xbd, 0x94, 0x11, 0xdd, 0xbd,
  0xc6, 0x7a, 0x93, 0xbc, 0x34, 0x8c, 0xf8, 0x3d, 0xa5, 0xca, 0xdd, 0xbc,
  0xce, 0x15, 0x9a, 0xbd, 0x85, 0x58, 0xd5, 0xbd, 0xd0, 0x8d, 0x66, 0x3c,
  0x5a, 0x18, 0x12, 0x3e, 0x2c, 0x0a, 0x08, 0x3c, 0x93, 0x92, 0x35, 0x3e,
  0x79, 0xde, 0x45, 0x3c, 0x95, 0x3e, 0xe0, 0xbd, 0xc7, 0x6f, 0xba, 0xbd,
  0x17, 0x56, 0x9d, 0xbd, 0x62, 0xeb, 0xfc, 0xbd, 0x82, 0x26, 0x37, 0x3e,
  0xf0, 0x0a, 0xd9, 0x3c, 0x23, 0x50, 0x12, 0xbe, 0x6f, 0xbf, 0xb9, 0xbd,
  0x36, 0x7d, 0x0c, 0xbc, 0x1a, 0xf6, 0xed, 0x3d, 0x1a, 0x4e, 0xa0, 0x3d,
  0xf5, 0x26, 0x8e, 0xbd, 0xed, 0xa6, 0x55, 0x3e, 0x6b, 0x26, 0x0a, 0x3d,
  0x72, 0x1e, 0x4d, 0x3e, 0x03, 0xb0, 0x67, 0xbd, 0x85, 0xe6, 0x82, 0xbd,
  0x1e, 0x70, 0x16, 0xbe, 0xc9, 0x68, 0x49, 0x3c, 0x49, 0xe8, 0x5c, 0x3e,
  0x52, 0xbf, 0x4d, 0xbd, 0x6a, 0xb6, 0x1d, 0xbd, 0xb3, 0xee, 0xa0, 0x3d,
  0x3c, 0x23, 0x1b, 0x3e, 0xe6, 0x22, 0xe3, 0x3b, 0xea, 0xca, 0x2f, 0xbd,
  0xe1, 0x4d, 0x03, 0xbc, 0x05, 0x9c, 0xd0, 0xbd, 0x56, 0xf9, 0x1f, 0xbe,
  0x04, 0x3c, 0x0e, 0xbe, 0x29, 0x8f, 0xb8, 0xbd, 0xe2, 0x30, 0x01, 0xbd,
  0x98, 0x42, 0x4f, 0x3d, 0x27, 0x4e, 0xa9, 0xbd, 0xe3, 0xe8, 0x63, 0x3e,
  0x5b, 0x6c, 0xad, 0x3d, 0xfa, 0xd1, 0x41, 0xbd, 0xe5, 0x73, 0xb9, 0xbd,
  0x13, 0xea, 0xa3, 0xbd, 0x76, 0xb7, 0xfd, 0x3d, 0xc2, 0x70, 0xe6, 0xbb,
  0x53, 0x5c, 0xb9, 0x3d, 0xae, 0x8a, 0xe2, 0x3b, 0x6c, 0xcb, 0x74, 0xbc,
  0x78, 0x85, 0x0a, 0x3d, 0xde, 0xd6, 0xfa, 0x3d, 0x8a, 0x6e, 0x68, 0xbe,
  0x30, 0x24, 0x45, 0x3e, 0xef, 0xce, 0x17, 0xbe, 0xee, 0x64, 0xf4, 0xbc,
  0x05, 0x2f, 0x31, 0x3e, 0x1b, 0x73, 0x17, 0xbd, 0xf3, 0x18, 0x8c, 0x3e,
  0x30, 0xb8, 0xec, 0x3c, 0x6b, 0xd9, 0xc1, 0x3d, 0xd2, 0x06, 0x55, 0x3d,
  0xc5, 0xfe, 0x4f, 0x3e, 0xe2, 0xbd, 0x30, 0xbe, 0xfa, 0x0c, 0x46, 0xbb,
  0xa2, 0xed, 0xff, 0xff, 0x04, 0x00, 0x00, 0x00, 0x00, 0x0f, 0x00, 0x00,
  0xce, 0x82, 0x91, 0x3d, 0x12, 0x63, 0x0d, 0xbd, 0x6a, 0x15, 0x61, 0xbe,
  0xd2, 0x94, 0x8c, 0x3c, 0xa8, 0xf0, 0xf5, 0xbd, 0x8b, 0x18, 0xa7, 0xbd,
  0xb4, 0xa3, 0x3d, 0xbe, 0x75, 0xfd, 0x0c, 0xbe, 0x47, 0x88, 0x2e, 0x3e,
  0x23, 0x3f, 0x1c, 0xbe, 0xb8, 0x90, 0x55, 0x3e, 0xa3, 0xfe, 0x62, 0x3c,
  0x68, 0xe8, 0x20, 0xbe, 0x06, 0xdc, 0x0f, 0xbd, 0x92, 0xf0, 0x87, 0xbd,
  0xd0, 0x83, 0xb1, 0xbc, 0xb7, 0xd8, 0xd9, 0x3d, 0xbd, 0xaf, 0xcd, 0x3a,
  0x75, 0xd8, 0x35, 0x3e, 0x1f, 0xc0, 0xf3, 0xbd, 0xf9, 0x91, 0x23, 0x3e,
  0xaa, 0xf0, 0x5c, 0x3e, 0x47, 0x19, 0x0d, 0xbe, 0x99, 0xff, 0xef, 0x3d,
  0x0c, 0xda, 0x32, 0xbe, 0xd3, 0xc4, 0x06, 0x3d, 0x06, 0x87, 0x95, 0xbc,
  0xab, 0x42, 0x21, 0xbd, 0x0a, 0xbe, 0xb5, 0x3c, 0x99, 0xc2, 0xda, 0xbd,
  0x5a, 0xcf, 0xb0, 0x3d, 0xe2, 0x4c, 0x55, 0x3e, 0xaa, 0xb3, 0xfe, 0xbd,
  0x68, 0x33, 0x05, 0x3e, 0xa0, 0x29, 0xc9, 0xbd, 0x48, 0xfa, 0xd4, 0x3d,
  0xbb, 0xf7, 0x40, 0x3d, 0xf2, 0x79, 0xf2, 0xbd, 0xb5, 0xab, 0xb8, 0xbd,
  0xac, 0x24, 0xd1, 0x3d, 0x5e, 0x3a, 0x84, 0x3d, 0x12, 0x40, 0x81, 0xbb,
  0x25, 0xfd, 0x47, 0xbd, 0xce, 0x33, 0x00, 0xbd, 0xf1, 0x81, 0x81, 0x3d,
  0x15, 0xf7, 0xa3, 0xbd, 0x4a, 0xbe, 0x1a, 0xbe, 0x21, 0xd8, 0x5a, 0x3d,
  0xb0, 0x14, 0x2d, 0xbd, 0xc9, 0x15, 0xbd, 0x3d, 0xf0, 0x58, 0x21, 0xbe,
  0x63, 0xbe, 0x9b, 0xbc, 0xb6, 0x0e, 0x53, 0x3d, 0x74, 0xe8, 0x34, 0xbe,
  0x6c, 0xfa, 0xc0, 0xbd, 0x40, 0x94, 0xec, 0x3d, 0xed, 0x7a, 0x33, 0x3e,
  0xd2, 0xd6, 0x10, 0x3e, 0x81, 0xf9, 0x7c, 0x3d, 0x53, 0x54, 0x00, 0xbe,
  0x79, 0x6b, 0x65, 0xbe, 0x22, 0x7c, 0xad, 0xbb, 0xed, 0xf2, 0x12, 0xbe,
  0x0f, 0xca, 0x4b, 0xbd, 0x0f, 0xa7, 0x47, 0xbd, 0xfe, 0x93, 0x92, 0xbd,
  0x8e, 0x16, 0x82, 0xbd, 0x20, 0x26, 0xf7, 0xbd, 0x0e, 0xa0, 0x0b, 0xbe,
  0x4a, 0xe0, 0x65, 0x3d, 0xc5, 0xae, 0x0e, 0x3e, 0xbf, 0xdb, 0x2b, 0xbd,
  0x4c, 0x8f, 0x15, 0x3e, 0x73, 0xc3, 0x08, 0x3e, 0x14, 0x89, 0x7c, 0xbd,
  0xcb, 0x5c, 0x9f, 0x3b, 0xc7, 0x99, 0x36, 0xbc, 0x59, 0xbf, 0xdd, 0xbc,
  0xe7, 0xf5, 0xc7, 0x3d, 0x7b, 0xbf, 0x04, 0xbe, 0xba, 0xb1, 0x63, 0xbd,
  0xd2, 0xef, 0x5d, 0x3d, 0xf5, 0xd8, 0x66, 0xbd, 0x39, 0x81, 0xd1, 0xbd,
  0x7a, 0x33, 0x7e, 0x3d, 0x5e, 0x5e, 0x18, 0xbd, 0x09, 0x80, 0xe4, 0xbd,
  0x74, 0xcd, 0x62, 0xbd, 0xca, 0x76, 0xd5, 0x3c, 0x5e, 0x7a, 0x38, 0x3e,
  0x2b, 0x38, 0x42, 0xbe, 0x5b, 0xaa, 0x9c, 0x3d, 0x0d, 0xa2, 0x98, 0xbe,
  0xb6, 0x1c, 0xde, 0x3d, 0x45, 0x5b, 0x51, 0x3e, 0x91, 0x12, 0x26, 0x3e,
  0x7a, 0xbb, 0xd5, 0x3d, 0x2d, 0xbb, 0xa1, 0xbd, 0xf6, 0x84, 0x14, 0xbe,
  0xb0, 0x30, 0x3c, 0xbd, 0x89, 0x9b, 0x4d, 0xbe, 0x65, 0xb1, 0x4f, 0x3d,
  0x30, 0x21, 0xe1, 0x3d, 0xcd, 0x52, 0x21, 0x3e, 0x5f, 0xef, 0x5f, 0xbe,
  0xcc, 0xcb, 0xfa, 0x3d, 0x71, 0x4e, 0xfc, 0x3d, 0x4f, 0x85, 0xa5, 0xbc,
  0x81, 0x93, 0x08, 0x3e, 0x16, 0x26, 0x22, 0x3d, 0xc5, 0xd2, 0xc8, 0x3d,
  0x61, 0xe5, 0x94, 0xbc, 0x47, 0x2e, 0xca, 0x3b, 0x3e, 0xc7, 0x31, 0xbe,
  0xfe, 0x63, 0x38, 0xbe, 0x3d, 0x3d, 0x20, 0x3e, 0xd0, 0x0e, 0x14, 0x3e,
  0x30, 0x91, 0x4d, 0x3e, 0x4a, 0xe5, 0x4a, 0x3e, 0x91, 0x28, 0x0c, 0xbe,
  0x12, 0x66, 0x19, 0xbe, 0x6b, 0xe7, 0x7c, 0x3d, 0xff, 0xf7, 0x76, 0xbd,
  0x9f, 0xd1, 0xaa, 0x3d, 0x92, 0x37, 0x01, 0xbe, 0x69, 0x4e, 0x9f, 0xbd,
  0x37, 0xbc, 0x33, 0xbe, 0xe5, 0x08, 0x34, 0x3b, 0xef, 0xea, 0x35, 0x3e,
  0x79, 0x01, 0x21, 0x3e, 0xc0, 0xbe, 0xb1, 0xbd, 0x50, 0x90, 0x8f, 0x3d,
  0xbe, 0xbf, 0x13, 0x3e, 0x9f, 0x0f, 0x30, 0x3c, 0x75, 0x9f, 0xc0, 0xbd,
  0x97, 0xe2, 0xd8, 0xbd, 0x49, 0x8e, 0x5a, 0x3e, 0x72, 0xd4, 0x00, 0x3e,
  0xe2, 0x34, 0x72, 0xbe, 0x84, 0x85, 0x27, 0x3e, 0x12, 0x3a, 0x4a, 0xbe,
  0xa4, 0xce, 0xef, 0xbd, 0xca, 0xb3, 0x70, 0xbd, 0x12, 0x78, 0xf0, 0x3a,
  0x93, 0xa7, 0x0e, 0xbe, 0x1f, 0x90, 0xe6, 0xbd, 0xc6, 0x76, 0x43, 0x3c,
  0xfb, 0xa0, 0xfb, 0x3d, 0x39, 0x7e, 0x88, 0xba, 0xd9, 0xf5, 0xb4, 0xbd,
  0xb8, 0xb0, 0x1d, 0x3d, 0x84, 0x95, 0x02, 0xbe, 0x2b, 0xa9, 0x8a, 0x3d,
  0x2f, 0x02, 0x72, 0x3c, 0x88, 0xcc, 0x29, 0x3e, 0xc5, 0x70, 0xc4, 0x3d,
  0x36, 0x06, 0x5f, 0xbe, 0xd5, 0x7b, 0xc5, 0x3d, 0xf0, 0x90, 0x0b, 0xbe,
  0x37, 0x0c, 0x02, 0xbc, 0xcb, 0xd9, 0x27, 0xbe, 0xec, 0xe3, 0xf9, 0xbd,
  0x55, 0x30, 0x16, 0x3d, 0xca, 0x1d, 0x38, 0x3e, 0xe6, 0xa7, 0xcc, 0x3b,
  0x8d, 0x35, 0xae, 0xbd, 0xa7, 0xa3, 0x87, 0xbd, 0x3b, 0xc9, 0x25, 0x3c,
  0x7f, 0xcd, 0xcf, 0xbd, 0x86, 0x59, 0xd0, 0x3d, 0xa0, 0x07, 0x3b, 0xbe,
  0x0e, 0xec, 0x52, 0x3e, 0x2b, 0xd2, 0x1c, 0x3d, 0xef, 0xd8, 0xe6, 0x3c,
  0xc3, 0xd1, 0xda, 0xbd, 0xef, 0x3c, 0x3f, 0xbe, 0xa8, 0xb8, 0x63, 0x3c,
  0x2c, 0xb8, 0x45, 0xbe, 0xf0, 0x78, 0x1c, 0xbd, 0x0e, 0xe1, 0x80, 0xbc,
  0xa8, 0x9d, 0xd0, 0x3c, 0x7a, 0x9a, 0x3b, 0xbd, 0xee, 0x13, 0xdc, 0xbd,
  0xaf, 0x0f, 0x00, 0x3e, 0xe1, 0x0d, 0x83, 0x3d, 0x48, 0x06, 0xe3, 0x3d,
  0x77, 0x66, 0xc1, 0xbd, 0xa7, 0x77, 0x77, 0xbe, 0xf1, 0x4b, 0x4f, 0x3e,
  0xf7, 0x2c, 0x0b, 0x3e, 0x6b, 0x2c, 0xa2, 0x3d, 0xe9, 0xcf, 0xcf, 0xbc,
  0xb1, 0x2e, 0xbd, 0xbd, 0xfe, 0xa5, 0xd6, 0x3c, 0x2d, 0x93, 0xfb, 0xbd,
  0x4a, 0x2b, 0xc6, 0xbd, 0xa1, 0x94, 0x34, 0xbe, 0xae, 0xeb, 0x3c, 0xbe,
  0x40, 0x66, 0xea, 0xbd, 0x06, 0x2e, 0x64, 0xbc, 0xbc, 0xf2, 0x5c, 0xbd,
  0xf7, 0x6d, 0x84, 0x3d, 0x32, 0x1f, 0xdc, 0xbd, 0x41, 0x00, 0x59, 0x3d,
  0x51, 0x11, 0x48, 0xbc, 0x3d, 0x38, 0xa8, 0xbd, 0x8d, 0xba, 0x76, 0xbd,
  0x78, 0x79, 0xde, 0x3c, 0xc6, 0xa1, 0x64, 0xbd, 0x31, 0x11, 0x90, 0x3c,
  0xa7, 0xcf, 0xa4, 0x3c, 0x05, 0x6e, 0x5b, 0xbd, 0x25, 0x9b, 0xd1, 0xba,
  0x98, 0xdd, 0x27, 0xbe, 0xf1, 0x72, 0xe9, 0xbd, 0x4e, 0x6e, 0x71, 0xbd,
  0x82, 0xf7, 0x07, 0x3e, 0x72, 0x4f, 0xc8, 0xbc, 0xdc, 0xde, 0x49, 0x3d,
  0x99, 0x6b, 0x85, 0xbd, 0xf2, 0x19, 0x9f, 0x3d, 0x98, 0xbd, 0x3f, 0xbe,
  0xf1, 0xbe, 0x7f, 0xbd, 0x30, 0xaf, 0xe9, 0xbc, 0x79, 0x1f, 0x85, 0x3d,
  0x6a, 0xc3, 0xb5, 0x3d, 0xd0, 0x50, 0x31, 0xbe, 0x19, 0x55, 0x39, 0xbd,
  0xd9, 0xdf, 0x0c, 0xbe, 0xec, 0xa5, 0xb4, 0xbd, 0x33, 0xe9, 0xe7, 0xbc,
  0x48, 0x61, 0x43, 0x3e, 0xb3, 0xba, 0xf5, 0xbb, 0x33, 0x7f, 0x41, 0x3e,
  0x5d, 0x40, 0xb7, 0xbd, 0x22, 0x8e, 0x39, 0xbe, 0x2b, 0x04, 0xa2, 0xbd,
  0xfe, 0xb3, 0x03, 0xbe, 0xda, 0xf7, 0xbf, 0x3d, 0x9c, 0x71, 0x04, 0x3e,
  0x8d, 0x86, 0x09, 0x3e, 0x7a, 0xe5, 0x1c, 0xbe, 0x6d, 0x87, 0xc1, 0xbd,
  0xcb, 0x1c, 0x35, 0x3e, 0x96, 0x8d, 0x91, 0x3d, 0xe3, 0x90, 0x82, 0xbd,
  0x97, 0x62, 0x51, 0x3e, 0x34, 0x3c, 0x99, 0x3d, 0x09, 0x9f, 0x50, 0xbd,
  0xda, 0x20, 0x98, 0xbc, 0xad, 0xbc, 0x34, 0xbe, 0x97, 0xd1, 0xf5, 0xbd,
  0xa0, 0x3b, 0x02, 0xbe, 0xb8, 0x6b, 0x06, 0xbd, 0x0c, 0x6f, 0xea, 0xbc,
  0x0a, 0xee, 0xc5, 0xbc, 0x68, 0x24, 0x9f, 0x3d, 0xd5, 0x1b, 0x06, 0x3e,
  0xba, 0x15, 0xee, 0x3d, 0x67, 0x6f, 0x0a, 0x3c, 0x9e, 0x43, 0x0c, 0xbe,
  0x38, 0x4c, 0xb3, 0x3d, 0x74, 0x1a, 0x61, 0xbd, 0x1d, 0x02, 0x82, 0xbd,
  0x2e, 0x30, 0xfd, 0xbc, 0x56, 0xb0, 0x6c, 0x3d, 0x04, 0x31, 0x40, 0x3d,
  0x56, 0xac, 0x71, 0x3d, 0x12, 0xdc, 0x8d, 0x3b, 0x0e, 0x15, 0x2e, 0x3e,
  0x32, 0x48, 0x85, 0x3d, 0x90, 0x36, 0xb6, 0xbd, 0xce, 0x51, 0x2e, 0xbe,
  0xad, 0x20, 0xf7, 0xbd, 0xc6, 0xaa, 0xad, 0xbd, 0x84, 0x28, 0x05, 0xbe,
  0x88, 0x78, 0x86, 0xbb, 0x22, 0xbb, 0x26, 0x3e, 0xde, 0x9b, 0x90, 0xbd,
  0x63, 0x77, 0xed, 0xbd, 0xa7, 0x79, 0x32, 0x3d, 0x23, 0xca, 0x7b, 0x3d,
  0x4b, 0x87, 0xd7, 0x3d, 0x0b, 0x6e, 0xbe, 0x3c, 0x7e, 0xa9, 0x18, 0xbd,
  0xab, 0x53, 0x9f, 0x3d, 0x65, 0x8f, 0x39, 0xbc, 0x12, 0xec, 0x23, 0x3d,
  0x66, 0xc8, 0x01, 0xbe, 0x55, 0x19, 0x0a, 0xbe, 0x06, 0x22, 0x53, 0x3d,
  0x97, 0xbc, 0x40, 0xbe, 0xcf, 0x41, 0xb5, 0xbd, 0x34, 0x7e, 0x11, 0xbe,
  0x43, 0x5c, 0x46, 0xbe, 0xfb, 0x89, 0x10, 0xbd, 0xa0, 0xc6, 0x0f, 0x3d,
  0xdb, 0x0c, 0x8e, 0xbd, 0xa5, 0x62, 0xee, 0x3a, 0xf8, 0xb6, 0x1a, 0xbd,
  0x02, 0x2e, 0xfc, 0x3c, 0x0b, 0x11, 0x58, 0xbd, 0xd1, 0x6c, 0x80, 0xbd,
  0x82, 0xc0, 0xde, 0xbc, 0x17, 0x9f, 0x01, 0x3e, 0xc3, 0xb0, 0xca, 0x3b,
  0x3a, 0x81, 0xd1, 0x3d, 0xf3, 0x71, 0x80, 0x3d, 0x98, 0xc9, 0x32, 0x3d,
  0xfb, 0x05, 0xf4, 0xbd, 0x7f, 0x2e, 0x88, 0x3d, 0xaa, 0xb3, 0x58, 0xbd,
  0x42, 0xde, 0x0a, 0x3e, 0x4b, 0x9a, 0xe9, 0x3d, 0xb6, 0x1f, 0x0b, 0x3c,
  0x9e, 0x93, 0xdc, 0xbd, 0xd0, 0xa2, 0xc9, 0xbb, 0x87, 0x45, 0x02, 0x3e,
  0xc4, 0xa3, 0x45, 0x3e, 0x81, 0xff, 0xa8, 0x3d, 0x64, 0x7f, 0x55, 0x3b,
  0x2b, 0x89, 0xc1, 0x3d, 0x2c, 0xc3, 0x88, 0x3b, 0xc2, 0xcd, 0x41, 0x3d,
  0x33, 0xc8, 0x0c, 0x3d, 0x60, 0xb9, 0x07, 0xbe, 0x27, 0x86, 0xbe, 0xbc,
  0x65, 0x6c, 0x63, 0xbd, 0xfd, 0xf9, 0x05, 0x3e, 0x65, 0x86, 0x14, 0x3e,
  0x7a, 0xc1, 0x94, 0xbc, 0x6f, 0x34, 0x24, 0x3e, 0x37, 0x9c, 0xf6, 0xbc,
  0x75, 0x33, 0x10, 0x3d, 0xf7, 0x72, 0xc5, 0x3d, 0x22, 0x5d, 0x58, 0x3d,
  0x39, 0x37, 0x99, 0xbc, 0x08, 0x18, 0x40, 0x3d, 0x6f, 0x79, 0xd2, 0x3c,
  0x71, 0x2a, 0x1f, 0x3e, 0x38, 0xc8, 0x4c, 0xbd, 0x33, 0xfc, 0x09, 0xbe,
  0x1d, 0x60, 0x85, 0xbd, 0x3c, 0x9b, 0xb9, 0xbc, 0x12, 0x56, 0xbd, 0xbc,
  0x24, 0x7f, 0xee, 0x3d, 0x22, 0xe0, 0xd8, 0xbd, 0x8b, 0x02, 0x3e, 0x3e,
  0xf3, 0x19, 0x2c, 0xbd, 0x2b, 0xc7, 0x92, 0x3c, 0x1b, 0xf6, 0x10, 0x3e,
  0xb6, 0x4b, 0xc2, 0x3d, 0x37, 0xa4, 0x04, 0xbe, 0xed, 0x72, 0xfb, 0xbc,
  0x87, 0x23, 0xd4, 0xbd, 0x74, 0x02, 0x05, 0x3e, 0x02, 0xba, 0xb6, 0xbb,
  0xe0, 0x9f, 0x18, 0x3e, 0xcf, 0x2c, 0xe3, 0x3c, 0x32, 0x4f, 0x27, 0x3c,
  0xf5, 0xaa, 0x92, 0xbd, 0x91, 0xc8, 0x64, 0xbd, 0x6c, 0x4e, 0x04, 0x3e,
  0xd6, 0xc7, 0x02, 0x3e, 0x70, 0x1a, 0x5f, 0xbd, 0xc0, 0x25, 0x7e, 0xbd,
  0xe2, 0x64, 0xf7, 0xbd, 0xd5, 0x42, 0xf0, 0xbc, 0x28, 0xa4, 0xcd, 0x3d,
  0x57, 0xc1, 0x12, 0x3e, 0x01, 0xc3, 0x8a, 0x3d, 0x36, 0x79, 0xd6, 0xbd,
  0x60, 0xf4, 0x28, 0xbe, 0x2c, 0xe8, 0x25, 0x3e, 0xfa, 0xa3, 0xee, 0x3d,
  0x99, 0xb2, 0xa3, 0xbd, 0x1f, 0xd2, 0x8c, 0xbd, 0x9b, 0xb2, 0x84, 0xbb,
  0xbe, 0x1a, 0xf6, 0x3b, 0x51, 0xfe, 0x02, 0xbe, 0xb9, 0x3d, 0xe0, 0x3d,
  0xc4, 0x07, 0x11, 0xbd, 0x19, 0x03, 0xa0, 0xbd, 0x39, 0x0d, 0xdd, 0x3c,
  0xd9, 0xb9, 0xe9, 0xbd, 0x20, 0xdf, 0x89, 0x3d, 0xf0, 0x7c, 0xef, 0xbd,
  0xe1, 0x56, 0x01, 0xbc, 0x5b, 0x0e, 0xb1, 0xbd, 0x76, 0x78, 0x95, 0x3d,
  0x0c, 0x66, 0x8c, 0xbd, 0x29, 0xd5, 0xa0, 0xbd, 0xdb, 0xda, 0x07, 0x3d,
  0xb5, 0x3a, 0xc0, 0x3c, 0xe8, 0x32, 0x21, 0x3d, 0xc0, 0xeb, 0x81, 0x3c,
  0xb8, 0x77, 0x41, 0x3d, 0x34, 0x7f, 0xfb, 0xbd, 0xb0, 0xc9, 0xc4, 0xbd,
  0x04, 0xff, 0x73, 0xbd, 0xc1, 0x1b, 0xbc, 0x3b, 0x39, 0xb9, 0x22, 0x3e,
  0x93, 0x21, 0xf1, 0xbd, 0xce, 0xf9, 0x76, 0xbd, 0x6a, 0x93, 0x2a, 0x3e,
  0x77, 0xdd, 0x67, 0x3d, 0xfc, 0x85, 0xaa, 0xbd, 0x92, 0x3b, 0x3c, 0xbe,
  0x11, 0x89, 0x7a, 0x3d, 0x1b, 0xe4, 0x2b, 0x3e, 0x27, 0xc6, 0x16, 0xbe,
  0x56, 0x18, 0xc0, 0x3d, 0x4e, 0x14, 0x45, 0x3e, 0xab, 0x8f, 0x3c, 0xbe,
  0x56, 0x07, 0xeb, 0xbd, 0x04, 0xac, 0x7e, 0x3d, 0x7d, 0x34, 0x0f, 0xbe,
  0x56, 0x91, 0xd4, 0x3d, 0xfb, 0x39, 0x8e, 0x3d, 0xeb, 0x54, 0xb1, 0xbb,
  0x8f, 0x1d, 0xfe, 0xbd, 0x43, 0xbc, 0x51, 0x3d, 0xdf, 0x53, 0x85, 0x3c,
  0x85, 0x6a, 0x23, 0xbe, 0x5e, 0xf8, 0xba, 0xbd, 0x19, 0x71, 0xb0, 0xbb,
  0xc8, 0x2a, 0x4e, 0x3d, 0xc9, 0x85, 0xf9, 0xbd, 0xcc, 0x82, 0x46, 0xbb,
  0x74, 0xbf, 0xc9, 0xbc, 0x23, 0x61, 0x39, 0xbd, 0x9d, 0x3d, 0x68, 0xbe,
  0x90, 0x74, 0x2b, 0x3d, 0xc8, 0x02, 0x2a, 0x3e, 0x88, 0x43, 0xa5, 0x3d,
  0x06, 0xeb, 0xc8, 0x3d, 0x27, 0xdb, 0x11, 0xbd, 0x48, 0xf9, 0xfb, 0xbb,
  0xda, 0x3a, 0xdf, 0x3d, 0x95, 0x18, 0xd4, 0x3c, 0x90, 0x6d, 0x15, 0xbe,
  0xa1, 0x9c, 0x6c, 0x3c, 0x06, 0xb2, 0x87, 0x3c, 0x4f, 0x2b, 0x64, 0xbd,
  0x94, 0xda, 0x3d, 0x3e, 0xc4, 0xf9, 0xb2, 0xbc, 0x43, 0x66, 0x93, 0x3d,
  0x2e, 0x79, 0x22, 0xbd, 0xae, 0x70, 0x1b, 0x3e, 0xa1, 0x4b, 0x26, 0xbe,
  0xba, 0x31, 0xde, 0x3d, 0x3e, 0x70, 0x1a, 0x3e, 0x5d, 0xe2, 0x3c, 0x3e,
  0x3d, 0x53, 0xa4, 0x3d, 0xcc, 0x89, 0x23, 0xbe, 0xf3, 0xa3, 0x14, 0x3e,
  0x7d, 0x85, 0x8f, 0x3b, 0x5c, 0x84, 0x57, 0xbd, 0xaf, 0xb9, 0xa8, 0xbd,
  0x89, 0x34, 0x81, 0xbc, 0x54, 0xb7, 0xce, 0xbd, 0x51, 0x4e, 0x20, 0x3d,
  0x6c, 0xba, 0xea, 0x3d, 0xef, 0x16, 0xbc, 0xbd, 0xaa, 0x20, 0x20, 0xbe,
  0x95, 0xe6, 0x14, 0x3e, 0x3c, 0x10, 0x9a, 0x3d, 0x40, 0x6a, 0x19, 0x3e,
  0x6e, 0x60, 0x05, 0x3e, 0x28, 0xa2, 0x1c, 0x3e, 0xc1, 0xe4, 0x15, 0xbd,
  0x8a, 0xb0, 0x2d, 0xba, 0x89, 0x1b, 0x5f, 0xbe, 0x29, 0xd4, 0xaa, 0x3d,
  0xdd, 0xe4, 0x61, 0xbd, 0xa7, 0xc3, 0xb8, 0x3d, 0x85, 0x52, 0xf9, 0x3d,
  0x71, 0xb7, 0x30, 0xbe, 0x7d, 0xee, 0x72, 0xbd, 0xa8, 0x3e, 0x90, 0x3b,
  0x7b, 0x8b, 0xf2, 0xbb, 0x50, 0x8f, 0xd6, 0x3d, 0xa2, 0x39, 0x41, 0xbe,
  0xaa, 0x35, 0x08, 0xbd, 0xfc, 0xbf, 0x81, 0xbd, 0x26, 0x7a, 0x04, 0x3d,
  0xdd, 0x4d, 0x6b, 0xbd, 0x18, 0xff, 0xa3, 0xbd, 0x9d, 0xa2, 0x4f, 0xbd,
  0x20, 0x9b, 0x30, 0xbc, 0x2b, 0xa8, 0xec, 0xbd, 0x87, 0x2b, 0xe4, 0xbc,
  0xa5, 0x7b, 0x08, 0xbe, 0xa3, 0x4a, 0x5a, 0x3d, 0x5b, 0xff, 0xb5, 0x3c,
  0x7a, 0x9b, 0x20, 0xbe, 0x42, 0x94, 0x78, 0xbd, 0xdb, 0xae, 0x9f, 0xbd,
  0xd4, 0xcf, 0xa8, 0x3d, 0x1b, 0x8d, 0x84, 0xbd, 0xfd, 0x4c, 0xb5, 0x3d,
  0x2b, 0x06, 0x38, 0x3e, 0x18, 0x7e, 0x3c, 0xbc, 0xb9, 0xed, 0x32, 0x3e,
  0xcf, 0x61, 0xd7, 0xbd, 0xe3, 0xc2, 0x8d, 0xbd, 0x31, 0xc8, 0xa8, 0x3d,
  0x8d, 0x63, 0x23, 0xbe, 0xbe, 0x27, 0xe6, 0x3c, 0xef, 0x8e, 0x6a, 0x3e,
  0xd8, 0x3c, 0x01, 0x3e, 0xdf, 0x7d, 0x8d, 0xbd, 0x43, 0x2f, 0x62, 0x3d,
  0x37, 0x98, 0x24, 0x3d, 0x68, 0xef, 0x42, 0xbd, 0x9b, 0xcd, 0x05, 0x3e,
  0x12, 0xc6, 0x64, 0x3e, 0x1a, 0xb8, 0xf1, 0xbd, 0x45, 0x65, 0x57, 0xbe,
  0xbc, 0x3d, 0xa6, 0xbc, 0x2e, 0x81, 0x75, 0x3e, 0x5b, 0x47, 0xfe, 0x3d,
  0xce, 0x4e, 0x4d, 0x3d, 0x23, 0x0a, 0x02, 0x3b, 0xab, 0x8b, 0xf9, 0xbd,
  0xe0, 0x38, 0x9c, 0xb9, 0x1f, 0x88, 0x16, 0x3e, 0x4b, 0xe5, 0x31, 0xbe,
  0x70, 0x04, 0xc1, 0x3d, 0xcc, 0xba, 0x16, 0x3e, 0x40, 0x97, 0x58, 0x3d,
  0xa6, 0xec, 0xcd, 0xbd, 0x96, 0xb8, 0x20, 0x3e, 0x9c, 0x47, 0x75, 0x3c,
  0xf1, 0x10, 0xb7, 0xbc, 0x6b, 0xa8, 0x1a, 0x3d, 0x6a, 0x8e, 0x7c, 0xbd,
  0x9c, 0x23, 0x00, 0xbe, 0x12, 0xd9, 0x0b, 0x3d, 0xd5, 0xba, 0x04, 0x3e,
  0xe9, 0x48, 0x5a, 0x3e, 0xa0, 0xcf, 0x88, 0xbd, 0xce, 0x35, 0xe2, 0x3c,
  0xb4, 0x52, 0x6b, 0x3e, 0x7a, 0xc4, 0x5c, 0xbe, 0xdb, 0xe4, 0x1c, 0xbd,
  0x3c, 0x98, 0x69, 0xbe, 0x89, 0x15, 0x5a, 0x3e, 0x38, 0x9e, 0xfe, 0x3d,
  0x82, 0xbf, 0x70, 0x3d, 0x87, 0x1d, 0xd0, 0xbd, 0xc5, 0x3e, 0xb3, 0xbd,
  0x36, 0x02, 0x41, 0xbd, 0x59, 0xeb, 0x08, 0xba, 0x96, 0x5e, 0x82, 0x3d,
  0xe2, 0x55, 0x50, 0x3d, 0x17, 0xd6, 0xca, 0x3c, 0x21, 0x52, 0x91, 0xbd,
  0x27, 0x03, 0xd7, 0xbc, 0xca, 0x9b, 0xc1, 0x3c, 0x2e, 0x82, 0xc4, 0x3d,
  0x24, 0x4e, 0x39, 0x3d, 0x95, 0xb3, 0xbc, 0xbd, 0x78, 0xf3, 0xda, 0xbc,
  0xb4, 0x7f, 0xec, 0x3d, 0xfd, 0x5e, 0x3f, 0xbd, 0xbb, 0x34, 0xac, 0xbd,
  0x3e, 0x04, 0x12, 0x3d, 0x6e, 0x9c, 0x28, 0xbc, 0xa3, 0x09, 0xc0, 0xbd,
  0x59, 0x07, 0x9b, 0x3d, 0xbd, 0xe2, 0xec, 0xbd, 0x1e, 0x6e, 0x68, 0x3c,
  0xe3, 0x1b, 0xb2, 0x3d, 0x56, 0x03, 0x68, 0x3d, 0x52, 0x6f, 0x3b, 0x3e,
  0xb0, 0x28, 0xb7, 0xbd, 0x7d, 0xc0, 0xc9, 0x3d, 0xad, 0xfc, 0x07, 0x3e,
  0x7d, 0xda, 0x34, 0xbe, 0xe8, 0x07, 0xa2, 0x3d, 0x6c, 0x43, 0x30, 0xbd,
  0x5c, 0xef, 0xfd, 0xbd, 0xdb, 0x80, 0x91, 0xbd, 0xf7, 0x1b, 0xe3, 0x3d,
  0x06, 0xed, 0x7b, 0x3b, 0x2f, 0xa2, 0x92, 0x3d, 0x40, 0x62, 0x2e, 0xbe,
  0xb7, 0xca, 0xae, 0x3d, 0x3c, 0x20, 0x1e, 0x3d, 0xf8, 0xc8, 0x23, 0x3e,
  0xf6, 0xb6, 0x52, 0x3d, 0xdf, 0xd7, 0x33, 0x3e, 0xf6, 0xaf, 0x17, 0xbe,
  0x5d, 0x89, 0xe0, 0x3d, 0x23, 0x92, 0xfc, 0x3d, 0x38, 0xa2, 0xca, 0xbd,
  0x2b, 0x45, 0xfe, 0xbd, 0x56, 0x3f, 0x03, 0xbe, 0xd6, 0x1e, 0x37, 0x3d,
  0xf6, 0xe6, 0x1f, 0xbd, 0xdf, 0x10, 0xef, 0xbd, 0xc7, 0x46, 0xda, 0xbd,
  0xe0, 0xf2, 0xec, 0xbb, 0xba, 0x54, 0x5f, 0xbe, 0x01, 0x45, 0x38, 0xbe,
  0xef, 0xa0, 0x1a, 0x3d, 0xb1, 0x6b, 0xc5, 0xbd, 0xfe, 0x4c, 0x99, 0x3d,
  0xb9, 0x51, 0x2d, 0xbd, 0xaf, 0x12, 0x46, 0xbd, 0xc6, 0xdf, 0xff, 0xbd,
  0xfd, 0xb6, 0xa8, 0xbd, 0x14, 0xc5, 0x23, 0x3e, 0x78, 0xc8, 0xa0, 0xbc,
  0x84, 0xa2, 0x8f, 0xbd, 0x8d, 0x80, 0x8f, 0x3d, 0x07, 0x35, 0x82, 0x3c,
  0x78, 0xea, 0xbd, 0xbd, 0x1f, 0x38, 0x9d, 0xbd, 0x64, 0x31, 0xa0, 0xbd,
  0x72, 0x5c, 0x97, 0x3d, 0xc6, 0x3c, 0xdc, 0xbc, 0xbf, 0x02, 0x9c, 0xbc,
  0xd7, 0x12, 0x16, 0xbe, 0x6c, 0xca, 0x39, 0x3d, 0x1d, 0xdc, 0xba, 0x3c,
  0xd7, 0xcc, 0x94, 0x3d, 0x61, 0x80, 0x1b, 0xbe, 0x11, 0x02, 0x26, 0x3e,
  0x1a, 0xd1, 0x87, 0xbe, 0xd7, 0xfa, 0x59, 0xbe, 0xfc, 0xac, 0x50, 0xbd,
  0x63, 0x00, 0x88, 0xbd, 0x74, 0xb8, 0x35, 0x3e, 0xc7, 0x32, 0x8a, 0x3d,
  0xfe, 0x61, 0x33, 0xbc, 0x70, 0x0d, 0xe6, 0xbd, 0xf9, 0x71, 0xff, 0x3d,
  0x63, 0x04, 0xe2, 0xbd, 0xb2, 0xc0, 0x2a, 0x3e, 0xdc, 0x9c, 0x03, 0xbe,
  0x8d, 0x59, 0x3f, 0xbe, 0x32, 0x81, 0x3a, 0xbe, 0x42, 0xdf, 0x2d, 0x3e,
  0x19, 0x95, 0x61, 0x3e, 0x47, 0xfc, 0x0d, 0x3d, 0xf8, 0xdf, 0xc5, 0xbc,
  0xd6, 0xd6, 0xd1, 0xbd, 0x24, 0x56, 0x43, 0xbe, 0xd1, 0x9d, 0x48, 0x3d,
  0x60, 0x63, 0xe3, 0xbd, 0xb1, 0x69, 0x0a, 0xbe, 0x19, 0xe8, 0xf2, 0xbd,
  0xd3, 0x93, 0xb4, 0xbd, 0xb4, 0x32, 0x0d, 0xbd, 0x78, 0xc5, 0x86, 0xbe,
  0xd5, 0xbe, 0x35, 0x3d, 0x4b, 0x7b, 0x29, 0x3e, 0x72, 0xb0, 0xce, 0x3c,
  0xf0, 0x9a, 0x41, 0x3e, 0x11, 0x7a, 0xf0, 0xbd, 0x57, 0xca, 0x8c, 0x3c,
  0xc7, 0x97, 0x14, 0xbe, 0xf7, 0xb7, 0x84, 0x3d, 0xe6, 0x5a, 0x3b, 0x3e,
  0x3d, 0x45, 0x35, 0xbe, 0x8c, 0xa0, 0x26, 0xbd, 0x87, 0x3d, 0x0c, 0x3e,
  0x5a, 0xd0, 0x2d, 0xbe, 0xe1, 0x99, 0xa6, 0x3d, 0xdd, 0x96, 0xca, 0xbd,
  0x1b, 0xb7, 0xe5, 0xbc, 0x75, 0x4b, 0xf2, 0xbb, 0xbf, 0xb1, 0x6f, 0xbd,
  0x0b, 0x18, 0xdf, 0x3d, 0xfb, 0xb9, 0x28, 0x3d, 0xdd, 0x0c, 0x71, 0xbe,
  0xa4, 0x14, 0x15, 0xbe, 0x5e, 0xbe, 0x8b, 0x3b, 0x90, 0x25, 0xe6, 0xbd,
  0xec, 0xd4, 0xc7, 0x3d, 0xb3, 0xee, 0x6f, 0xbd, 0xa1, 0xe0, 0xc7, 0x3c,
  0xb8, 0xe9, 0xf3, 0x3d, 0x26, 0x59, 0xf0, 0x3d, 0x23, 0x3c, 0x86, 0x3d,
  0xac, 0x20, 0xf7, 0x3c, 0xc4, 0x4e, 0xc1, 0x3d, 0x02, 0x84, 0x2a, 0x3e,
  0x3b, 0x31, 0xcd, 0xbd, 0xa7, 0x75, 0xef, 0x3d, 0x2a, 0x41, 0x59, 0xbc,
  0x40, 0xa9, 0xe6, 0x3d, 0xf2, 0xd0, 0xc8, 0xbd, 0xe6, 0x8a, 0xb6, 0xbd,
  0x6d, 0x3e, 0xf7, 0x3d, 0x74, 0x94, 0x35, 0x3e, 0xde, 0x58, 0xb2, 0xbd,
  0xec, 0xc1, 0x33, 0x3e, 0x26, 0x61, 0x37, 0x3e, 0x93, 0xde, 0x73, 0xbc,
  0xdf, 0x17, 0xf2, 0x3d, 0x8d, 0x80, 0xc7, 0xbd, 0x88, 0xe4, 0x12, 0x3e,
  0xe2, 0x13, 0xa4, 0xbd, 0x75, 0x86, 0x65, 0x3d, 0x74, 0x28, 0x36, 0xbd,
  0x10, 0x8f, 0xcc, 0x3c, 0xcc, 0xd5, 0x59, 0xbc, 0xa1, 0x85, 0xad, 0x3d,
  0x05, 0xcd, 0xc1, 0x3c, 0x2e, 0x97, 0x25, 0x3e, 0xba, 0xc3, 0x27, 0x3d,
  0x77, 0x41, 0x79, 0xba, 0xc7, 0x16, 0x10, 0xbd, 0xcf, 0x46, 0x76, 0xbe,
  0x07, 0x4c, 0xa8, 0xbc, 0xa9, 0x57, 0xf2, 0xbc, 0x15, 0x2c, 0x07, 0xbe,
  0xba, 0x96, 0x74, 0x3d, 0x98, 0x45, 0xef, 0xbd, 0xe6, 0x3a, 0x24, 0xbd,
  0x53, 0xd6, 0x9a, 0xbd, 0xb2, 0x72, 0xc8, 0xbd, 0x45, 0x69, 0x75, 0x3e,
  0x5d, 0x71, 0x0c, 0xbe, 0x23, 0xc1, 0x92, 0xbd, 0xcc, 0xb7, 0x94, 0xbd,
  0xed, 0x9d, 0x4c, 0x3e, 0x79, 0x21, 0x50, 0xba, 0x69, 0x6d, 0x30, 0x3c,
  0x8a, 0x40, 0x0e, 0xbd, 0x99, 0x9b, 0xc7, 0x3d, 0x67, 0xaa, 0x8c, 0x3d,
  0x4b, 0x57, 0x0d, 0xbd, 0x87, 0x3a, 0xe4, 0x3d, 0x56, 0x49, 0xe6, 0x3d,
  0x6b, 0x26, 0xba, 0xbc, 0xb8, 0xf2, 0x06, 0xbe, 0xc5, 0x72, 0x14, 0xbe,
  0xc0, 0x5f, 0xa8, 0x3d, 0xfb, 0xde, 0x30, 0xbd, 0x27, 0x47, 0x29, 0x3d,
  0xf5, 0x8f, 0x13, 0xbe, 0x12, 0xa2, 0x01, 0xbd, 0x60, 0x80, 0xf1, 0xbd,
  0x76, 0x7a, 0x05, 0x3e, 0xa6, 0x31, 0x9b, 0xbd, 0x0f, 0xec, 0x50, 0x3d,
  0x54, 0xe9, 0x2c, 0x3e, 0xbb, 0x83, 0x21, 0xbe, 0xe2, 0xb0, 0xdb, 0x3d,
  0x6c, 0x09, 0x67, 0x3e, 0x74, 0x76, 0x73, 0x3d, 0x47, 0xac, 0xc4, 0x3c,
  0x26, 0xab, 0x02, 0xbe, 0x7a, 0x84, 0x23, 0xbd, 0x75, 0x9c, 0xda, 0x3c,
  0x4a, 0xc4, 0x29, 0xbe, 0xaf, 0x0c, 0x17, 0x3e, 0x88, 0x70, 0x81, 0x3c,
  0x95, 0x70, 0x32, 0x3e, 0x59, 0x92, 0x22, 0xbe, 0x48, 0x8e, 0x44, 0x3e,
  0x6b, 0x26, 0x28, 0xbe, 0x7f, 0x8c, 0x7b, 0x3e, 0x85, 0xa4, 0x4f, 0x3d,
  0x27, 0x4a, 0x93, 0xbd, 0xb6, 0x5a, 0x3a, 0x3d, 0x05, 0x2e, 0x78, 0x3d,
  0xc9, 0x65, 0x23, 0xbe, 0xbb, 0x4e, 0xee, 0x3d, 0xec, 0x9e, 0xaf, 0x3d,
  0x30, 0x83, 0xb6, 0x3b, 0x81, 0x66, 0x2b, 0x3e, 0xbb, 0xed, 0x1a, 0x3e,
  0xaa, 0xb2, 0xd6, 0x3d, 0x6c, 0x4e, 0x71, 0xbc, 0x95, 0x8f, 0x78, 0xbe,
  0xc5, 0x09, 0x3b, 0xbe, 0xe2, 0xb0, 0xa6, 0xbc, 0xdf, 0x10, 0x33, 0x3e,
  0xa5, 0x80, 0x53, 0x3d, 0xdd, 0x7c, 0xa1, 0x3d, 0x17, 0xf6, 0x7b, 0xbd,
  0xc2, 0x72, 0x45, 0x3e, 0xbe, 0x70, 0x97, 0x3d, 0xfd, 0x3c, 0x0f, 0x3d,
  0xe6, 0x1b, 0x8a, 0x3d, 0xa5, 0x4e, 0xb5, 0x3d, 0x8c, 0x2c, 0x0d, 0xbd,
  0xe8, 0x97, 0x7c, 0xbe, 0x29, 0xa7, 0x71, 0xbd, 0x98, 0x0d, 0x84, 0xbd,
  0xa8, 0xb9, 0x4e, 0x3e, 0x9e, 0xaf, 0x79, 0x3e, 0x3b, 0x7a, 0x8a, 0x3d,
  0xf3, 0xc6, 0xb5, 0xbd, 0xfa, 0x32, 0x15, 0xbe, 0xfa, 0x94, 0x11, 0x3e,
  0x2d, 0x50, 0x02, 0x3d, 0xb2, 0xed, 0x07, 0xbe, 0xb8, 0x04, 0x99, 0x3d,
  0xc3, 0x14, 0xef, 0x3d, 0x87, 0x07, 0xa1, 0xbd, 0x47, 0x19, 0x51, 0xbe,
  0x2d, 0x86, 0xc3, 0xbd, 0xda, 0x76, 0xa8, 0xbd, 0x18, 0xdb, 0x72, 0xbd,
  0xe1, 0xb8, 0x13, 0xbe, 0x7a, 0xf8, 0x5d, 0xbd, 0x6c, 0x1c, 0x9a, 0x3d,
  0xf9, 0xd2, 0x04, 0xbd, 0xa9, 0xbc, 0x52, 0x3e, 0x2a, 0xd0, 0x34, 0x3d,
  0x11, 0x62, 0x00, 0xbe, 0x5a, 0x58, 0xca, 0xbd, 0x5e, 0x44, 0xe4, 0xbd,
  0xed, 0x76, 0x29, 0xbe, 0x0c, 0x49, 0xea, 0x3c, 0x96, 0x0a, 0x12, 0x3d,
  0x3c, 0xc7, 0x69, 0xbe, 0xce, 0xb1, 0x7d, 0xbe, 0x7c, 0x1e, 0xa0, 0xbd,
  0xcd, 0x1c, 0xc7, 0x3d, 0x2a, 0xb4, 0xd8, 0x3c, 0x84, 0xd3, 0x2f, 0xbd,
  0xe2, 0x33, 0x50, 0xbc, 0xd9, 0xff, 0xac, 0xbd, 0xa6, 0x28, 0x0e, 0x3d,
  0x08, 0xb2, 0xcb, 0x3c, 0x42, 0x3b, 0x0b, 0xbc, 0x4e, 0x9c, 0x8c, 0x3d,
  0xd6, 0x4c, 0x51, 0xbe, 0xb6, 0xb8, 0x71, 0x3e, 0x60, 0x7c, 0x36, 0xbd,
  0x64, 0xed, 0x14, 0x3d, 0x02, 0xdd, 0x11, 0x3e, 0x6a, 0x92, 0x57, 0x3e,
  0x15, 0x0a, 0x93, 0xbd, 0x21, 0x5d, 0x5e, 0x3e, 0x64, 0x10, 0x99, 0x3d,
  0x94, 0x9b, 0x5a, 0x3d, 0x00, 0x46, 0x13, 0xbe, 0x96, 0xfc, 0x89, 0xbd,
  0x3b, 0x5a, 0x94, 0x3d, 0x9c, 0x0f, 0x09, 0xbe, 0x26, 0x62, 0xd0, 0x3d,
  0x21, 0x8e, 0xf4, 0x3c, 0x11, 0x6c, 0x0a, 0x3c, 0xe1, 0xd4, 0x3e, 0xbd,
  0xce, 0x48, 0xab, 0x3d, 0x8d, 0xeb, 0x23, 0x3d, 0xbd, 0x57, 0x48, 0x3d,
  0xf2, 0xfe, 0x5d, 0x3d, 0x47, 0x63, 0x16, 0xbe, 0x97, 0xde, 0x27, 0xbe,
  0x2f, 0x5d, 0x5b, 0xbd, 0xcc, 0x68, 0x20, 0xbe, 0x16, 0x7c, 0x4a, 0x3e,
  0xad, 0xdc, 0x9d, 0x3d, 0xba, 0x0e, 0x95, 0xbd, 0x8e, 0x27, 0x36, 0xbb,
  0x4b, 0x95, 0xcc, 0x3c, 0x53, 0x5c, 0x37, 0x3e, 0xff, 0xe5, 0x36, 0xbd,
  0xa6, 0xa9, 0x33, 0x3e, 0x39, 0xba, 0x71, 0x3e, 0x6b, 0xb4, 0x36, 0x3c,
  0x9a, 0xa1, 0x19, 0xbe, 0x20, 0x96, 0x28, 0x3c, 0xc9, 0x54, 0xe5, 0xbd,
  0x50, 0x88, 0x0a, 0xbe, 0x1d, 0x93, 0x58, 0xbe, 0xd8, 0xa6, 0xa6, 0xbd,
  0xd3, 0xce, 0x25, 0xbe, 0xdc, 0x76, 0x23, 0xbe, 0x51, 0xcf, 0x65, 0x3e,
  0xbe, 0xc1, 0xc4, 0xbd, 0x6a, 0xed, 0x95, 0xbd, 0x0f, 0x2d, 0x7c, 0xbd,
  0x17, 0x4b, 0x29, 0x3e, 0x28, 0x22, 0x1f, 0xbd, 0xdc, 0xec, 0x89, 0x3c,
  0xe4, 0x6e, 0x4c, 0xbe, 0x34, 0xb5, 0x30, 0x3e, 0x1a, 0x2a, 0xd0, 0x3d,
  0x7c, 0x88, 0x00, 0x3d, 0xed, 0x8d, 0x91, 0x3c, 0xfc, 0xd3, 0xc5, 0xbd,
  0xc1, 0x26, 0xbc, 0x3d, 0xf3, 0x68, 0x75, 0xbe, 0x73, 0xb3, 0x38, 0x3e,
  0x1a, 0x05, 0xbe, 0xbd, 0x57, 0xb6, 0x5c, 0xbe, 0x1b, 0x04, 0x39, 0x3d,
  0xd5, 0x0a, 0x51, 0x3d, 0x8d, 0x6b, 0xde, 0xbc, 0xbe, 0xa7, 0x83, 0x3d,
  0xb7, 0x2a, 0xff, 0xbd, 0xff, 0xb3, 0xa9, 0xba, 0x04, 0x64, 0x38, 0x3e,
  0x59, 0x75, 0xcb, 0x3d, 0x69, 0x5f, 0x2d, 0x3d, 0x04, 0xc0, 0x06, 0xbe,
  0xf8, 0x00, 0x14, 0x3e, 0xea, 0x00, 0xbb, 0xbd, 0xc2, 0xb7, 0x3e, 0xbd,
  0x11, 0x30, 0x8f, 0x3d, 0xad, 0x5f, 0xed, 0xbd, 0xb4, 0xb8, 0xc9, 0x3c,
  0x85, 0x38, 0x21, 0x3d, 0x79, 0xb1, 0x58, 0xbd, 0x13, 0xdd, 0x70, 0xbd,
  0x23, 0xff, 0xed, 0x3c, 0x56, 0x97, 0x11, 0xbd, 0xed, 0x63, 0xd4, 0x3d,
  0xd5, 0xdd, 0x96, 0xbd, 0x82, 0xe1, 0xac, 0xbd, 0xd0, 0xef, 0x67, 0xbd,
  0xb7, 0x1a, 0x0b, 0xbe, 0xa5, 0x3f, 0x2c, 0xbd, 0xfd, 0x39, 0xb1, 0x3d,
  0x7e, 0xb1, 0xc5, 0x3d, 0x24, 0x74, 0xb6, 0xbc, 0x55, 0x12, 0x18, 0x3d,
  0x89, 0x9c, 0x8a, 0x3d, 0x82, 0x42, 0xf2, 0x3d, 0xf2, 0xa5, 0xba, 0x3d,
  0xf0, 0x69, 0xbb, 0xba, 0xec, 0xe6, 0x91, 0xbc, 0x7f, 0x82, 0x89, 0xbd,
  0x80, 0x20, 0xb5, 0x3d, 0xe2, 0xa2, 0xef, 0x3d, 0x42, 0x3e, 0xc1, 0xbd,
  0x58, 0x82, 0x29, 0x3d, 0x3f, 0xc3, 0x50, 0xbd, 0xef, 0xe7, 0x3c, 0x3e,
  0x21, 0xd2, 0x10, 0x3e, 0x17, 0x6b, 0x0c, 0x3e, 0x6a, 0xf2, 0xc3, 0xbd,
  0x8d, 0x15, 0xfc, 0x3b, 0xc9, 0xa1, 0xe1, 0xbc, 0xbd, 0x17, 0x36, 0x3d,
  0x55, 0x35, 0x01, 0x3e, 0x0a, 0xd2, 0x40, 0x3e, 0x77, 0xa5, 0xea, 0x3d,
  0x36, 0xcd, 0x25, 0x3c, 0xc0, 0x23, 0x75, 0x3d, 0xec, 0x6f, 0x33, 0xbe,
  0x7c, 0x2a, 0x49, 0x3e, 0x1c, 0x32, 0x89, 0xbd, 0xb2, 0xc3, 0xd0, 0xbd,
  0xbf, 0xbc, 0x1a, 0x3e, 0x3e, 0x4d, 0x07, 0xbc, 0x70, 0xc9, 0x3a, 0xbe,
  0x8b, 0x24, 0x9f, 0xbc, 0xfc, 0x96, 0x39, 0x3b, 0xcd, 0x06, 0xc4, 0x3d,
  0xae, 0xfc, 0xff, 0xff, 0x04, 0x00, 0x00, 0x00, 0x0c, 0x00, 0x00, 0x00,
  0xff, 0xff, 0xff, 0xff, 0x10, 0x00, 0x00, 0x00, 0x0c, 0x00, 0x00, 0x00,
  0xc6, 0xfc, 0xff, 0xff, 0x04, 0x00, 0x00, 0x00, 0x0c, 0x00, 0x00, 0x00,
  0xff, 0xff, 0xff, 0xff, 0x08, 0x00, 0x00, 0x00, 0x0c, 0x00, 0x00, 0x00,
  0xde, 0xfc, 0xff, 0xff, 0x04, 0x00, 0x00, 0x00, 0x0c, 0x00, 0x00, 0x00,
  0xff, 0xff, 0xff, 0xff, 0x08, 0x00, 0x00, 0x00, 0x10, 0x00, 0x00, 0x00,
  0xf6, 0xfc, 0xff, 0xff, 0x04, 0x00, 0x00, 0x00, 0x0c, 0x00, 0x00, 0x00,
  0xff, 0xff, 0xff, 0xff, 0x04, 0x00, 0x00, 0x00, 0x10, 0x00, 0x00, 0x00,
  0x0e, 0xfd, 0xff, 0xff, 0x04, 0x00, 0x00, 0x00, 0x0c, 0x00, 0x00, 0x00,
  0xff, 0xff, 0xff, 0xff, 0x04, 0x00, 0x00, 0x00, 0x14, 0x00, 0x00, 0x00,
  0x26, 0xfd, 0xff, 0xff, 0x04, 0x00, 0x00, 0x00, 0x0c, 0x00, 0x00, 0x00,
  0x36, 0x58, 0x1c, 0xc0, 0xd8, 0xb3, 0x04, 0x40, 0x53, 0x6b, 0xd6, 0x3e,
  0x3e, 0xfd, 0xff, 0xff, 0x04, 0x00, 0x00, 0x00, 0xf0, 0x00, 0x00, 0x00,
  0x81, 0xb1, 0xe7, 0x3b, 0x43, 0x64, 0xb5, 0x3e, 0xd1, 0x46, 0xcf, 0xbe,
  0x81, 0xc9, 0x9b, 0x3f, 0x71, 0x47, 0xf5, 0xbe, 0xbe, 0xba, 0x38, 0xc1,
  0x88, 0x09, 0x91, 0x3f, 0x61, 0xdd, 0xd1, 0xbf, 0xb8, 0xda, 0x9c, 0xbe,
  0xed, 0xb2, 0x6f, 0xbf, 0x7f, 0x5b, 0x06, 0x3f, 0x96, 0x5b, 0xac, 0x3f,
  0x13, 0x68, 0x8d, 0xbe, 0xad, 0xd0, 0xce, 0x3e, 0x91, 0x91, 0x24, 0x3f,
  0xb4, 0x14, 0x14, 0xbf, 0x58, 0x26, 0xc2, 0xbe, 0x95, 0xbb, 0x85, 0xbf,
  0x0a, 0xa1, 0xd5, 0x3e, 0xd1, 0x3f, 0x8b, 0x3f, 0x94, 0x1e, 0xaf, 0x3f,
  0x28, 0xdb, 0x9e, 0xbf, 0xfc, 0xc0, 0xbf, 0xbf, 0x01, 0x54, 0x89, 0xbf,
  0x55, 0x07, 0x9a, 0xbf, 0xbb, 0xf6, 0xee, 0x40, 0x34, 0xe0, 0x12, 0xbf,
  0x66, 0xa8, 0x6d, 0x3f, 0xf0, 0x58, 0x7f, 0xbf, 0xc2, 0x9e, 0xaf, 0x3f,
  0xb4, 0xb6, 0x33, 0xbf, 0xc3, 0x6d, 0x78, 0x3f, 0x9a, 0x11, 0x0f, 0xc0,
  0xd2, 0xa1, 0xab, 0xbf, 0x23, 0x20, 0x4a, 0x3e, 0x6e, 0x7a, 0xdc, 0x3f,
  0x45, 0x88, 0xf5, 0xbf, 0x14, 0x27, 0xaa, 0x3d, 0x85, 0xf5, 0x1f, 0x3f,
  0x5b, 0x76, 0xe7, 0xbf, 0xf4, 0x3e, 0x49, 0xbd, 0x92, 0xbe, 0x17, 0x40,
  0xf8, 0xff, 0xe3, 0xbd, 0xcb, 0xc9, 0x61, 0x3f, 0x56, 0xc2, 0x98, 0x3f,
  0xf9, 0x34, 0xc3, 0x40, 0xaa, 0xe8, 0x22, 0x3f, 0x34, 0x9e, 0x05, 0xbf,
  0x6c, 0xfd, 0x32, 0xbd, 0x2f, 0xea, 0x71, 0xbf, 0xd8, 0x73, 0x11, 0xbf,
  0x21, 0x20, 0xab, 0xbd, 0x30, 0x53, 0xd7, 0x3b, 0x26, 0xdd, 0xd8, 0x3e,
  0x6b, 0x65, 0xbe, 0xbd, 0xc8, 0x71, 0x1a, 0xbf, 0x21, 0x5a, 0xd2, 0xbe,
  0x61, 0x81, 0x81, 0x3f, 0xfd, 0x4b, 0x71, 0xbf, 0x79, 0x33, 0x87, 0xbe,
  0x3a, 0xfe, 0xff, 0xff, 0x04, 0x00, 0x00, 0x00, 0x30, 0x00, 0x00, 0x00,
  0x6f, 0xfa, 0xa6, 0x3d, 0x6d, 0x0b, 0x73, 0x3e, 0xf9, 0x98, 0x27, 0x3d,
  0x45, 0x9b, 0x31, 0xbe, 0xde, 0x87, 0xe5, 0x3e, 0xc8, 0xf9, 0x10, 0x3c,
  0x33, 0x86, 0xbf, 0x3e, 0x82, 0xaa, 0x84, 0x3d, 0xc5, 0x1b, 0xf0, 0xbc,
  0xd6, 0x61, 0xc8, 0xbd, 0x49, 0x79, 0x96, 0x3e, 0xaf, 0xb3, 0xd6, 0xbd,
  0x76, 0xfe, 0xff, 0xff, 0x04, 0x00, 0x00, 0x00, 0x40, 0x00, 0x00, 0x00,
  0x45, 0xbb, 0x2d, 0x3d, 0xf0, 0x7c, 0xc4, 0xbd, 0xd6, 0x87, 0xab, 0x3d,
  0x73, 0xd3, 0x4e, 0x3d, 0xee, 0x67, 0x88, 0x3d, 0x73, 0x87, 0x80, 0xbd,
  0xeb, 0xc7, 0x7a, 0x3d, 0xad, 0x3f, 0x4a, 0xbc, 0x96, 0xe2, 0x2b, 0xbb,
  0x03, 0x86, 0xf6, 0x3c, 0x63, 0x07, 0xab, 0x3c, 0xde, 0xfb, 0x4e, 0xbd,
  0xee, 0x10, 0x80, 0x3d, 0xaa, 0x92, 0x1b, 0xbd, 0x6c, 0x45, 0x18, 0xbb,
  0x4f, 0xcb, 0x5c, 0xbc, 0xc2, 0xfe, 0xff, 0xff, 0x04, 0x00, 0x00, 0x00,
  0x50, 0x00, 0x00, 0x00, 0x39, 0x85, 0xc6, 0xbc, 0xf3, 0xa1, 0x49, 0xbd,
  0xbd, 0xb0, 0x1c, 0xbc, 0x74, 0xff, 0x2d, 0xbd, 0x9f, 0xb7, 0x19, 0x3d,
  0xf3, 0xc3, 0x99, 0x3d, 0x27, 0xcf, 0x83, 0x3c, 0xd2, 0xa5, 0x43, 0xbb,
  0x40, 0x44, 0x65, 0xbd, 0x9f, 0x46, 0xa0, 0x3c, 0x7a, 0x59, 0x61, 0x3d,
  0x63, 0x5b, 0x05, 0xbd, 0xf0, 0x41, 0x58, 0xbc, 0xcc, 0x8c, 0xb8, 0xbc,
  0xf1, 0xb1, 0xdf, 0x3c, 0x95, 0xed, 0x10, 0x3d, 0x56, 0x34, 0x8b, 0x3c,
  0x1f, 0x71, 0x30, 0xbd, 0x39, 0x5d, 0xfc, 0x3a, 0x05, 0x06, 0x12, 0x3d,
  0xd4, 0xde, 0xff, 0xff, 0xd8, 0xde, 0xff, 0xff, 0x0f, 0x00, 0x00, 0x00,
  0x4d, 0x4c, 0x49, 0x52, 0x20, 0x43, 0x6f, 0x6e, 0x76, 0x65, 0x72, 0x74,
  0x65, 0x64, 0x2e, 0x00, 0x01, 0x00, 0x00, 0x00, 0x14, 0x00, 0x00, 0x00,
  0x00, 0x00, 0x0e, 0x00, 0x18, 0x00, 0x14, 0x00, 0x10, 0x00, 0x0c, 0x00,
  0x08, 0x00, 0x04, 0x00, 0x0e, 0x00, 0x00, 0x00, 0x14, 0x00, 0x00, 0x00,
  0x1c, 0x00, 0x00, 0x00, 0xfc, 0x05, 0x00, 0x00, 0x00, 0x06, 0x00, 0x00,
  0x04, 0x06, 0x00, 0x00, 0x04, 0x00, 0x00, 0x00, 0x6d, 0x61, 0x69, 0x6e,
  0x00, 0x00, 0x00, 0x00, 0x1b, 0x00, 0x00, 0x00, 0xb4, 0x05, 0x00, 0x00,
  0x54, 0x05, 0x00, 0x00, 0x10, 0x05, 0x00, 0x00, 0xdc, 0x04, 0x00, 0x00,
  0xb4, 0x04, 0x00, 0x00, 0x78, 0x04, 0x00, 0x00, 0x24, 0x04, 0x00, 0x00,
  0xfc, 0x03, 0x00, 0x00, 0xcc, 0x03, 0x00, 0x00, 0x88, 0x03, 0x00, 0x00,
  0x54, 0x03, 0x00, 0x00, 0x20, 0x03, 0x00, 0x00, 0xf8, 0x02, 0x00, 0x00,
  0xc8, 0x02, 0x00, 0x00, 0x84, 0x02, 0x00, 0x00, 0x5c, 0x02, 0x00, 0x00,
  0x2c, 0x02, 0x00, 0x00, 0xe8, 0x01, 0x00, 0x00, 0xb4, 0x01, 0x00, 0x00,
  0x80, 0x01, 0x00, 0x00, 0x58, 0x01, 0x00, 0x00, 0x28, 0x01, 0x00, 0x00,
  0xe4, 0x00, 0x00, 0x00, 0xbc, 0x00, 0x00, 0x00, 0x78, 0x00, 0x00, 0x00,
  0x40, 0x00, 0x00, 0x00, 0x04, 0x00, 0x00, 0x00, 0x22, 0xfb, 0xff, 0xff,
  0x1c, 0x00, 0x00, 0x00, 0x00, 0x00, 0x00, 0x09, 0x1c, 0x00, 0x00, 0x00,
  0x20, 0x00, 0x00, 0x00, 0x07, 0x00, 0x00, 0x00, 0x00, 0x00, 0x06, 0x00,
  0x08, 0x00, 0x04, 0x00, 0x06, 0x00, 0x00, 0x00, 0x00, 0x00, 0x80, 0x3f,
  0x01, 0x00, 0x00, 0x00, 0x33, 0x00, 0x00, 0x00, 0x01, 0x00, 0x00, 0x00,
  0x32, 0x00, 0x00, 0x00, 0x5a, 0xfb, 0xff, 0xff, 0x14, 0x00, 0x00, 0x00,
  0x00, 0x00, 0x00, 0x08, 0x10, 0x00, 0x00, 0x00, 0x14, 0x00, 0x00, 0x00,
  0x06, 0x00, 0x00, 0x00, 0xec, 0xdf, 0xff, 0xff, 0x01, 0x00, 0x00, 0x00,
  0x32, 0x00, 0x00, 0x00, 0x03, 0x00, 0x00, 0x00, 0x31, 0x00, 0x00, 0x00,
  0x04, 0x00, 0x00, 0x00, 0x05, 0x00, 0x00, 0x00, 0x8e, 0xfb, 0xff, 0xff,
  0x1c, 0x00, 0x00, 0x00, 0x00, 0x00, 0x00, 0x08, 0x1c, 0x00, 0x00, 0x00,
  0x20, 0x00, 0x00, 0x00, 0x06, 0x00, 0x00, 0x00, 0x00, 0x00, 0x06, 0x00,
  0x08, 0x00, 0x07, 0x00, 0x06, 0x00, 0x00, 0x00, 0x00, 0x00, 0x00, 0x01,
  0x01, 0x00, 0x00, 0x00, 0x31, 0x00, 0x00, 0x00, 0x03, 0x00, 0x00, 0x00,
  0x30, 0x00, 0x00, 0x00, 0x0e, 0x00, 0x00, 0x00, 0x15, 0x00, 0x00, 0x00,
  0x5e, 0xfc, 0xff, 0xff, 0x0c, 0x00, 0x00, 0x00, 0x10, 0x00, 0x00, 0x00,
  0x04, 0x00, 0x00, 0x00, 0x01, 0x00, 0x00, 0x00, 0x30, 0x00, 0x00, 0x00,
  0x02, 0x00, 0x00, 0x00, 0x2f, 0x00, 0x00, 0x00, 0x17, 0x00, 0x00, 0x00,
  0xf2, 0xfb, 0xff, 0xff, 0x14, 0x00, 0x00, 0x00, 0x00, 0x00, 0x00, 0x05,
  0x24, 0x00, 0x00, 0x00, 0x28, 0x00, 0x00, 0x00, 0x05, 0x00, 0x00, 0x00,
  0xfe, 0xfc, 0xff, 0xff, 0x01, 0x00, 0x00, 0x00, 0x02, 0x00, 0x00, 0x00,
  0x01, 0x00, 0x00, 0x00, 0x02, 0x00, 0x00, 0x00, 0x00, 0x00, 0x00, 0x01,
  0x01, 0x00, 0x00, 0x00, 0x2f, 0x00, 0x00, 0x00, 0x01, 0x00, 0x00, 0x00,
  0x2e, 0x00, 0x00, 0x00, 0xd6, 0xfb, 0xff, 0xff, 0x10, 0x00, 0x00, 0x00,
  0x00, 0x00, 0x00, 0x34, 0x0c, 0x00, 0x00, 0x00, 0x10, 0x00, 0x00, 0x00,
  0xc0, 0xe0, 0xff, 0xff, 0x01, 0x00, 0x00, 0x00, 0x2e, 0x00, 0x00, 0x00,
  0x02, 0x00, 0x00, 0x00, 0x2d, 0x00, 0x00, 0x00, 0x16, 0x00, 0x00, 0x00,
  0xee, 0xfc, 0xff, 0xff, 0x0c, 0x00, 0x00, 0x00, 0x10, 0x00, 0x00, 0x00,
  0x04, 0x00, 0x00, 0x00, 0x01, 0x00, 0x00, 0x00, 0x2d, 0x00, 0x00, 0x00,
  0x02, 0x00, 0x00, 0x00, 0x2c, 0x00, 0x00, 0x00, 0x06, 0x00, 0x00, 0x00,
  0x82, 0xfc, 0xff, 0xff, 0x14, 0x00, 0x00, 0x00, 0x00, 0x00, 0x00, 0x0b,
  0x10, 0x00, 0x00, 0x00, 0x14, 0x00, 0x00, 0x00, 0x03, 0x00, 0x00, 0x00,
  0x14, 0xe1, 0xff, 0xff, 0x01, 0x00, 0x00, 0x00, 0x2c, 0x00, 0x00, 0x00,
  0x02, 0x00, 0x00, 0x00, 0x2b, 0x00, 0x00, 0x00, 0x0f, 0x00, 0x00, 0x00,
  0xb2, 0xfc, 0xff, 0xff, 0x14, 0x00, 0x00, 0x00, 0x00, 0x00, 0x00, 0x15,
  0x10, 0x00, 0x00, 0x00, 0x14, 0x00, 0x00, 0x00, 0x02, 0x00, 0x00, 0x00,
  0x44, 0xe1, 0xff, 0xff, 0x01, 0x00, 0x00, 0x00, 0x2b, 0x00, 0x00, 0x00,
  0x02, 0x00, 0x00, 0x00, 0x2a, 0x00, 0x00, 0x00, 0x10, 0x00, 0x00, 0x00,
  0xe2, 0xfc, 0xff, 0xff, 0x14, 0x00, 0x00, 0x00, 0x00, 0x00, 0x00, 0x01,
  0x1c, 0x00, 0x00, 0x00, 0x20, 0x00, 0x00, 0x00, 0x01, 0x00, 0x00, 0x00,
  0xd4, 0xfc, 0xff, 0xff, 0x00, 0x00, 0x00, 0x01, 0x01, 0x00, 0x00, 0x00,
  0x01, 0x00, 0x00, 0x00, 0x01, 0x00, 0x00, 0x00, 0x2a, 0x00, 0x00, 0x00,
  0x03, 0x00, 0x00, 0x00, 0x29, 0x00, 0x00, 0x00, 0x0b, 0x00, 0x00, 0x00,
  0x01, 0x00, 0x00, 0x00, 0xc6, 0xfc, 0xff, 0xff, 0x10, 0x00, 0x00, 0x00,
  0x00, 0x00, 0x00, 0x34, 0x0c, 0x00, 0x00, 0x00, 0x10, 0x00, 0x00, 0x00,
  0xb0, 0xe1, 0xff, 0xff, 0x01, 0x00, 0x00, 0x00, 0x29, 0x00, 0x00, 0x00,
  0x02, 0x00, 0x00, 0x00, 0x28, 0x00, 0x00, 0x00, 0x18, 0x00, 0x00, 0x00,
  0xde, 0xfd, 0xff, 0xff, 0x0c, 0x00, 0x00, 0x00, 0x10, 0x00, 0x00, 0x00,
  0x04, 0x00, 0x00, 0x00, 0x01, 0x00, 0x00, 0x00, 0x28, 0x00, 0x00, 0x00,
  0x02, 0x00, 0x00, 0x00, 0x27, 0x00, 0x00, 0x00, 0x07, 0x00, 0x00, 0x00,
  0x72, 0xfd, 0xff, 0xff, 0x14, 0x00, 0x00, 0x00, 0x00, 0x00, 0x00, 0x05,
  0x24, 0x00, 0x00, 0x00, 0x28, 0x00, 0x00, 0x00, 0x05, 0x00, 0x00, 0x00,
  0x7e, 0xfe, 0xff, 0xff, 0x01, 0x00, 0x00, 0x00, 0x02, 0x00, 0x00, 0x00,
  0x01, 0x00, 0x00, 0x00, 0x02, 0x00, 0x00, 0x00, 0x00, 0x00, 0x00, 0x01,
  0x01, 0x00, 0x00, 0x00, 0x27, 0x00, 0x00, 0x00, 0x01, 0x00, 0x00, 0x00,
  0x26, 0x00, 0x00, 0x00, 0x56, 0xfd, 0xff, 0xff, 0x10, 0x00, 0x00, 0x00,
  0x00, 0x00, 0x00, 0x34, 0x0c, 0x00, 0x00, 0x00, 0x10, 0x00, 0x00, 0x00,
  0x40, 0xe2, 0xff, 0xff, 0x01, 0x00, 0x00, 0x00, 0x26, 0x00, 0x00, 0x00,
  0x02, 0x00, 0x00, 0x00, 0x25, 0x00, 0x00, 0x00, 0x16, 0x00, 0x00, 0x00,
  0x6e, 0xfe, 0xff, 0xff, 0x0c, 0x00, 0x00, 0x00, 0x10, 0x00, 0x00, 0x00,
  0x04, 0x00, 0x00, 0x00, 0x01, 0x00, 0x00, 0x00, 0x25, 0x00, 0x00, 0x00,
  0x02, 0x00, 0x00, 0x00, 0x24, 0x00, 0x00, 0x00, 0x08, 0x00, 0x00, 0x00,
  0x02, 0xfe, 0xff, 0xff, 0x14, 0x00, 0x00, 0x00, 0x00, 0x00, 0x00, 0x0b,
  0x10, 0x00, 0x00, 0x00, 0x14, 0x00, 0x00, 0x00, 0x03, 0x00, 0x00, 0x00,
  0x94, 0xe2, 0xff, 0xff, 0x01, 0x00, 0x00, 0x00, 0x24, 0x00, 0x00, 0x00,
  0x02, 0x00, 0x00, 0x00, 0x23, 0x00, 0x00, 0x00, 0x13, 0x00, 0x00, 0x00,
  0x32, 0xfe, 0xff, 0xff, 0x14, 0x00, 0x00, 0x00, 0x00, 0x00, 0x00, 0x15,
  0x10, 0x00, 0x00, 0x00, 0x14, 0x00, 0x00, 0x00, 0x02, 0x00, 0x00, 0x00,
  0xc4, 0xe2, 0xff, 0xff, 0x01, 0x00, 0x00, 0x00, 0x23, 0x00, 0x00, 0x00,
  0x02, 0x00, 0x00, 0x00, 0x22, 0x00, 0x00, 0x00, 0x14, 0x00, 0x00, 0x00,
  0x62, 0xfe, 0xff, 0xff, 0x14, 0x00, 0x00, 0x00, 0x00, 0x00, 0x00, 0x01,
  0x1c, 0x00, 0x00, 0x00, 0x20, 0x00, 0x00, 0x00, 0x01, 0x00, 0x00, 0x00,
  0x54, 0xfe, 0xff, 0xff, 0x00, 0x00, 0x00, 0x01, 0x01, 0x00, 0x00, 0x00,
  0x01, 0x00, 0x00, 0x00, 0x01, 0x00, 0x00, 0x00, 0x22, 0x00, 0x00, 0x00,
  0x03, 0x00, 0x00, 0x00, 0x21, 0x00, 0x00, 0x00, 0x0c, 0x00, 0x00, 0x00,
  0x02, 0x00, 0x00, 0x00, 0x46, 0xfe, 0xff, 0xff, 0x10, 0x00, 0x00, 0x00,
  0x00, 0x00, 0x00, 0x34, 0x0c, 0x00, 0x00, 0x00, 0x10, 0x00, 0x00, 0x00,
  0x30, 0xe3, 0xff, 0xff, 0x01, 0x00, 0x00, 0x00, 0x21, 0x00, 0x00, 0x00,
  0x02, 0x00, 0x00, 0x00, 0x20, 0x00, 0x00, 0x00, 0x18, 0x00, 0x00, 0x00,
  0x5e, 0xff, 0xff, 0xff, 0x0c, 0x00, 0x00, 0x00, 0x10, 0x00, 0x00, 0x00,
  0x04, 0x00, 0x00, 0x00, 0x01, 0x00, 0x00, 0x00, 0x20, 0x00, 0x00, 0x00,
  0x02, 0x00, 0x00, 0x00, 0x1f, 0x00, 0x00, 0x00, 0x09, 0x00, 0x00, 0x00,
  0xf2, 0xfe, 0xff, 0xff, 0x24, 0x00, 0x00, 0x00, 0x00, 0x00, 0x00, 0x05,
  0x34, 0x00, 0x00, 0x00, 0x38, 0x00, 0x00, 0x00, 0x05, 0x00, 0x00, 0x00,
  0x00, 0x00, 0x0e, 0x00, 0x18, 0x00, 0x17, 0x00, 0x10, 0x00, 0x0c, 0x00,
  0x08, 0x00, 0x04, 0x00, 0x0e, 0x00, 0x00, 0x00, 0x01, 0x00, 0x00, 0x00,
  0x02, 0x00, 0x00, 0x00, 0x01, 0x00, 0x00, 0x00, 0x02, 0x00, 0x00, 0x00,
  0x00, 0x00, 0x00, 0x01, 0x01, 0x00, 0x00, 0x00, 0x1f, 0x00, 0x00, 0x00,
  0x01, 0x00, 0x00, 0x00, 0x1e, 0x00, 0x00, 0x00, 0xe6, 0xfe, 0xff, 0xff,
  0x10, 0x00, 0x00, 0x00, 0x00, 0x00, 0x00, 0x34, 0x0c, 0x00, 0x00, 0x00,
  0x10, 0x00, 0x00, 0x00, 0xd0, 0xe3, 0xff, 0xff, 0x01, 0x00, 0x00, 0x00,
  0x1e, 0x00, 0x00, 0x00, 0x02, 0x00, 0x00, 0x00, 0x1d, 0x00, 0x00, 0x00,
  0x16, 0x00, 0x00, 0x00, 0x00, 0x00, 0x0a, 0x00, 0x10, 0x00, 0x0c, 0x00,
  0x08, 0x00, 0x04, 0x00, 0x0a, 0x00, 0x00, 0x00, 0x0c, 0x00, 0x00, 0x00,
  0x10, 0x00, 0x00, 0x00, 0x04, 0x00, 0x00, 0x00, 0x01, 0x00, 0x00, 0x00,
  0x1d, 0x00, 0x00, 0x00, 0x02, 0x00, 0x00, 0x00, 0x1c, 0x00, 0x00, 0x00,
  0x0a, 0x00, 0x00, 0x00, 0x9e, 0xff, 0xff, 0xff, 0x14, 0x00, 0x00, 0x00,
  0x00, 0x00, 0x00, 0x0b, 0x10, 0x00, 0x00, 0x00, 0x14, 0x00, 0x00, 0x00,
  0x03, 0x00, 0x00, 0x00, 0x30, 0xe4, 0xff, 0xff, 0x01, 0x00, 0x00, 0x00,
  0x1c, 0x00, 0x00, 0x00, 0x02, 0x00, 0x00, 0x00, 0x1b, 0x00, 0x00, 0x00,
  0x11, 0x00, 0x00, 0x00, 0xce, 0xff, 0xff, 0xff, 0x14, 0x00, 0x00, 0x00,
  0x00, 0x00, 0x00, 0x15, 0x10, 0x00, 0x00, 0x00, 0x14, 0x00, 0x00, 0x00,
  0x02, 0x00, 0x00, 0x00, 0x60, 0xe4, 0xff, 0xff, 0x01, 0x00, 0x00, 0x00,
  0x1b, 0x00, 0x00, 0x00, 0x02, 0x00, 0x00, 0x00, 0x1a, 0x00, 0x00, 0x00,
  0x12, 0x00, 0x00, 0x00, 0x00, 0x00, 0x0e, 0x00, 0x18, 0x00, 0x14, 0x00,
  0x10, 0x00, 0x0c, 0x00, 0x0b, 0x00, 0x04, 0x00, 0x0e, 0x00, 0x00, 0x00,
  0x20, 0x00, 0x00, 0x00, 0x00, 0x00, 0x00, 0x01, 0x28, 0x00, 0x00, 0x00,
  0x2c, 0x00, 0x00, 0x00, 0x01, 0x00, 0x00, 0x00, 0x0c, 0x00, 0x10, 0x00,
  0x00, 0x00, 0x0c, 0x00, 0x08, 0x00, 0x07, 0x00, 0x0c, 0x00, 0x00, 0x00,
  0x00, 0x00, 0x00, 0x01, 0x01, 0x00, 0x00, 0x00, 0x01, 0x00, 0x00, 0x00,
  0x01, 0x00, 0x00, 0x00, 0x1a, 0x00, 0x00, 0x00, 0x03, 0x00, 0x00, 0x00,
  0x19, 0x00, 0x00, 0x00, 0x0d, 0x00, 0x00, 0x00, 0x03, 0x00, 0x00, 0x00,
  0x00, 0x00, 0x0e, 0x00, 0x14, 0x00, 0x00, 0x00, 0x10, 0x00, 0x0c, 0x00,
  0x0b, 0x00, 0x04, 0x00, 0x0e, 0x00, 0x00, 0x00, 0x10, 0x00, 0x00, 0x00,
  0x00, 0x00, 0x00, 0x34, 0x0c, 0x00, 0x00, 0x00, 0x10, 0x00, 0x00, 0x00,
  0xf8, 0xe4, 0xff, 0xff, 0x01, 0x00, 0x00, 0x00, 0x19, 0x00, 0x00, 0x00,
  0x02, 0x00, 0x00, 0x00, 0x00, 0x00, 0x00, 0x00, 0x18, 0x00, 0x00, 0x00,
  0x01, 0x00, 0x00, 0x00, 0x33, 0x00, 0x00, 0x00, 0x01, 0x00, 0x00, 0x00,
  0x00, 0x00, 0x00, 0x00, 0x34, 0x00, 0x00, 0x00, 0x24, 0x1a, 0x00, 0x00,
  0xd0, 0x19, 0x00, 0x00, 0x7c, 0x19, 0x00, 0x00, 0x40, 0x19, 0x00, 0x00,
  0x00, 0x19, 0x00, 0x00, 0xc4, 0x18, 0x00, 0x00, 0x84, 0x18, 0x00, 0x00,
  0x2c, 0x18, 0x00, 0x00, 0xec, 0x17, 0x00, 0x00, 0xac, 0x17, 0x00, 0x00,
  0x6c, 0x17, 0x00, 0x00, 0x20, 0x17, 0x00, 0x00, 0xd4, 0x16, 0x00, 0x00,
  0x88, 0x16, 0x00, 0x00, 0x44, 0x16, 0x00, 0x00, 0x04, 0x16, 0x00, 0x00,
  0xc4, 0x15, 0x00, 0x00, 0x84, 0x15, 0x00, 0x00, 0x44, 0x15, 0x00, 0x00,
  0x04, 0x15, 0x00, 0x00, 0xc4, 0x14, 0x00, 0x00, 0x84, 0x14, 0x00, 0x00,
  0x44, 0x14, 0x00, 0x00, 0x00, 0x14, 0x00, 0x00, 0xc0, 0x13, 0x00, 0x00,
  0x40, 0x13, 0x00, 0x00, 0x68, 0x12, 0x00, 0x00, 0x80, 0x11, 0x00, 0x00,
  0x64, 0x10, 0x00, 0x00, 0x50, 0x0f, 0x00, 0x00, 0xcc, 0x0e, 0x00, 0x00,
  0x54, 0x0e, 0x00, 0x00, 0xdc, 0x0d, 0x00, 0x00, 0x5c, 0x0d, 0x00, 0x00,
  0x7c, 0x0c, 0x00, 0x00, 0x8c, 0x0b, 0x00, 0x00, 0x68, 0x0a, 0x00, 0x00,
  0x4c, 0x09, 0x00, 0x00, 0xc8, 0x08, 0x00, 0x00, 0x4c, 0x08, 0x00, 0x00,
  0xd0, 0x07, 0x00, 0x00, 0x50, 0x07, 0x00, 0x00, 0x70, 0x06, 0x00, 0x00,
  0x80, 0x05, 0x00, 0x00, 0x5c, 0x04, 0x00, 0x00, 0x40, 0x03, 0x00, 0x00,
  0xbc, 0x02, 0x00, 0x00, 0x40, 0x02, 0x00, 0x00, 0xe0, 0x01, 0x00, 0x00,
  0x48, 0x01, 0x00, 0x00, 0x60, 0x00, 0x00, 0x00, 0x04, 0x00, 0x00, 0x00,
  0xc2, 0xe6, 0xff, 0xff, 0x00, 0x00, 0x00, 0x01, 0x14, 0x00, 0x00, 0x00,
  0x1c, 0x00, 0x00, 0x00, 0x1c, 0x00, 0x00, 0x00, 0x34, 0x00, 0x00, 0x00,
  0x34, 0x00, 0x00, 0x00, 0x02, 0x00, 0x00, 0x00, 0xff, 0xff, 0xff, 0xff,
  0x03, 0x00, 0x00, 0x00, 0x1c, 0xe6, 0xff, 0xff, 0x1b, 0x00, 0x00, 0x00,
  0x53, 0x74, 0x61, 0x74, 0x65, 0x66, 0x75, 0x6c, 0x50, 0x61, 0x72, 0x74,
  0x69, 0x74, 0x69, 0x6f, 0x6e, 0x65, 0x64, 0x43, 0x61, 0x6c, 0x6c, 0x5f,
  0x31, 0x3a, 0x30, 0x00, 0x02, 0x00, 0x00, 0x00, 0x01, 0x00, 0x00, 0x00,
  0x03, 0x00, 0x00, 0x00, 0x1a, 0xe7, 0xff, 0xff, 0x00, 0x00, 0x00, 0x01,
  0x14, 0x00, 0x00, 0x00, 0x1c, 0x00, 0x00, 0x00, 0x1c, 0x00, 0x00, 0x00,
  0x33, 0x00, 0x00, 0x00, 0xc0, 0x00, 0x00, 0x00, 0x02, 0x00, 0x00, 0x00,
  0xff, 0xff, 0xff, 0xff, 0x03, 0x00, 0x00, 0x00, 0x74, 0xe6, 0xff, 0xff,
  0xa6, 0x00, 0x00, 0x00, 0x73, 0x65, 0x71, 0x75, 0x65, 0x6e, 0x74, 0x69,
  0x61, 0x6c, 0x5f, 0x31, 0x2f, 0x62, 0x61, 0x74, 0x63, 0x68, 0x5f, 0x6e,
  0x6f, 0x72, 0x6d, 0x61, 0x6c, 0x69, 0x7a, 0x61, 0x74, 0x69, 0x6f, 0x6e,
  0x5f, 0x33, 0x5f, 0x31, 0x2f, 0x62, 0x61, 0x74, 0x63, 0x68, 0x6e, 0x6f,
  0x72, 0x6d, 0x2f, 0x6d, 0x75, 0x6c, 0x5f, 0x31, 0x3b, 0x73, 0x65, 0x71,
  0x75, 0x65, 0x6e, 0x74, 0x69, 0x61, 0x6c, 0x5f, 0x31, 0x2f, 0x62, 0x61,
  0x74, 0x63, 0x68, 0x5f, 0x6e, 0x6f, 0x72, 0x6d, 0x61, 0x6c, 0x69, 0x7a,
  0x61, 0x74, 0x69, 0x6f, 0x6e, 0x5f, 0x33, 0x5f, 0x31, 0x2f, 0x62, 0x61,
  0x74, 0x63, 0x68, 0x6e, 0x6f, 0x72, 0x6d, 0x2f, 0x61, 0x64, 0x64, 0x5f,
  0x31, 0x3b, 0x73, 0x65, 0x71, 0x75, 0x65, 0x6e, 0x74, 0x69, 0x61, 0x6c,
  0x5f, 0x31, 0x2f, 0x64, 0x65, 0x6e, 0x73, 0x65, 0x5f, 0x31, 0x5f, 0x32,
  0x2f, 0x4d, 0x61, 0x74, 0x4d, 0x75, 0x6c, 0x3b, 0x73, 0x65, 0x71, 0x75,
  0x65, 0x6e, 0x74, 0x69, 0x61, 0x6c, 0x5f, 0x31, 0x2f, 0x64, 0x65, 0x6e,
  0x73, 0x65, 0x5f, 0x31, 0x5f, 0x32, 0x2f, 0x42, 0x69, 0x61, 0x73, 0x41,
  0x64, 0x64, 0x00, 0x00, 0x02, 0x00, 0x00, 0x00, 0x01, 0x00, 0x00, 0x00,
  0x03, 0x00, 0x00, 0x00, 0xfe, 0xe7, 0xff, 0xff, 0x00, 0x00, 0x00, 0x01,
  0x14, 0x00, 0x00, 0x00, 0x1c, 0x00, 0x00, 0x00, 0x1c, 0x00, 0x00, 0x00,
  0x32, 0x00, 0x00, 0x00, 0x70, 0x00, 0x00, 0x00, 0x02, 0x00, 0x00, 0x00,
  0xff, 0xff, 0xff, 0xff, 0x14, 0x00, 0x00, 0x00, 0x58, 0xe7, 0xff, 0xff,
  0x54, 0x00, 0x00, 0x00, 0x73, 0x65, 0x71, 0x75, 0x65, 0x6e, 0x74, 0x69,
  0x61, 0x6c, 0x5f, 0x31, 0x2f, 0x64, 0x65, 0x6e, 0x73, 0x65, 0x5f, 0x31,
  0x2f, 0x4d, 0x61, 0x74, 0x4d, 0x75, 0x6c, 0x3b, 0x73, 0x65, 0x71, 0x75,
  0x65, 0x6e, 0x74, 0x69, 0x61, 0x6c, 0x5f, 0x31, 0x2f, 0x72, 0x65, 0x5f,
  0x6c, 0x75, 0x5f, 0x33, 0x5f, 0x31, 0x2f, 0x52, 0x65, 0x6c, 0x75, 0x3b,
  0x73, 0x65, 0x71, 0x75, 0x65, 0x6e, 0x74, 0x69, 0x61, 0x6c, 0x5f, 0x31,
  0x2f, 0x64, 0x65, 0x6e, 0x73, 0x65, 0x5f, 0x31, 0x2f, 0x42, 0x69, 0x61,
  0x73, 0x41, 0x64, 0x64, 0x00, 0x00, 0x00, 0x00, 0x02, 0x00, 0x00, 0x00,
  0x01, 0x00, 0x00, 0x00, 0x14, 0x00, 0x00, 0x00, 0x92, 0xe8, 0xff, 0xff,
  0x00, 0x00, 0x00, 0x01, 0x14, 0x00, 0x00, 0x00, 0x1c, 0x00, 0x00, 0x00,
  0x1c, 0x00, 0x00, 0x00, 0x31, 0x00, 0x00, 0x00, 0x38, 0x00, 0x00, 0x00,
  0x02, 0x00, 0x00, 0x00, 0xff, 0xff, 0xff, 0xff, 0x28, 0x00, 0x00, 0x00,
  0xec, 0xe7, 0xff, 0xff, 0x1e, 0x00, 0x00, 0x00, 0x73, 0x65, 0x71, 0x75,
  0x65, 0x6e, 0x74, 0x69, 0x61, 0x6c, 0x5f, 0x31, 0x2f, 0x66, 0x6c, 0x61,
  0x74, 0x74, 0x65, 0x6e, 0x5f, 0x31, 0x2f, 0x52, 0x65, 0x73, 0x68, 0x61,
  0x70, 0x65, 0x00, 0x00, 0x02, 0x00, 0x00, 0x00, 0x01, 0x00, 0x00, 0x00,
  0x28, 0x00, 0x00, 0x00, 0xee, 0xe8, 0xff, 0xff, 0x00, 0x00, 0x00, 0x01,
  0x14, 0x00, 0x00, 0x00, 0x24, 0x00, 0x00, 0x00, 0x24, 0x00, 0x00, 0x00,
  0x30, 0x00, 0x00, 0x00, 0x4c, 0x00, 0x00, 0x00, 0x04, 0x00, 0x00, 0x00,
  0xff, 0xff, 0xff, 0xff, 0x01, 0x00, 0x00, 0x00, 0x02, 0x00, 0x00, 0x00,
  0x14, 0x00, 0x00, 0x00, 0x50, 0xe8, 0xff, 0xff, 0x28, 0x00, 0x00, 0x00,
  0x73, 0x65, 0x71, 0x75, 0x65, 0x6e, 0x74, 0x69, 0x61, 0x6c, 0x5f, 0x31,
  0x2f, 0x6d, 0x61, 0x78, 0x5f, 0x70, 0x6f, 0x6f, 0x6c, 0x69, 0x6e, 0x67,
  0x31, 0x64, 0x5f, 0x32, 0x5f, 0x31, 0x2f, 0x4d, 0x61, 0x78, 0x50, 0x6f,
  0x6f, 0x6c, 0x31, 0x64, 0x00, 0x00, 0x00, 0x00, 0x04, 0x00, 0x00, 0x00,
  0x01, 0x00, 0x00, 0x00, 0x01, 0x00, 0x00, 0x00, 0x02, 0x00, 0x00, 0x00,
  0x14, 0x00, 0x00, 0x00, 0x66, 0xe9, 0xff, 0xff, 0x00, 0x00, 0x00, 0x01,
  0x14, 0x00, 0x00, 0x00, 0x24, 0x00, 0x00, 0x00, 0x24, 0x00, 0x00, 0x00,
  0x2f, 0x00, 0x00, 0x00, 0x54, 0x00, 0x00, 0x00, 0x04, 0x00, 0x00, 0x00,
  0xff, 0xff, 0xff, 0xff, 0x01, 0x00, 0x00, 0x00, 0x04, 0x00, 0x00, 0x00,
  0x14, 0x00, 0x00, 0x00, 0xc8, 0xe8, 0xff, 0xff, 0x33, 0x00, 0x00, 0x00,
  0x73, 0x65, 0x71, 0x75, 0x65, 0x6e, 0x74, 0x69, 0x61, 0x6c, 0x5f, 0x31,
  0x2f, 0x6d, 0x61, 0x78, 0x5f, 0x70, 0x6f, 0x6f, 0x6c, 0x69, 0x6e, 0x67,
  0x31, 0x64, 0x5f, 0x32, 0x5f, 0x31, 0x2f, 0x4d, 0x61, 0x78, 0x50, 0x6f,
  0x6f, 0x6c, 0x31, 0x64, 0x2f, 0x45, 0x78, 0x70, 0x61, 0x6e, 0x64, 0x44,
  0x69, 0x6d, 0x73, 0x00, 0x04, 0x00, 0x00, 0x00, 0x01, 0x00, 0x00, 0x00,
  0x01, 0x00, 0x00, 0x00, 0x04, 0x00, 0x00, 0x00, 0x14, 0x00, 0x00, 0x00,
  0xe6, 0xe9, 0xff, 0xff, 0x00, 0x00, 0x00, 0x01, 0x14, 0x00, 0x00, 0x00,
  0x20, 0x00, 0x00, 0x00, 0x20, 0x00, 0x00, 0x00, 0x2e, 0x00, 0x00, 0x00,
  0xf0, 0x00, 0x00, 0x00, 0x03, 0x00, 0x00, 0x00, 0xff, 0xff, 0xff, 0xff,
  0x04, 0x00, 0x00, 0x00, 0x14, 0x00, 0x00, 0x00, 0x44, 0xe9, 0xff, 0xff,
  0xd3, 0x00, 0x00, 0x00, 0x73, 0x65, 0x71, 0x75, 0x65, 0x6e, 0x74, 0x69,
  0x61, 0x6c, 0x5f, 0x31, 0x2f, 0x62, 0x61, 0x74, 0x63, 0x68, 0x5f, 0x6e,
  0x6f, 0x72, 0x6d, 0x61, 0x6c, 0x69, 0x7a, 0x61, 0x74, 0x69, 0x6f, 0x6e,
  0x5f, 0x32, 0x5f, 0x31, 0x2f, 0x62, 0x61, 0x74, 0x63, 0x68, 0x6e, 0x6f,
  0x72, 0x6d, 0x2f, 0x61, 0x64, 0x64, 0x5f, 0x31, 0x3b, 0x73, 0x65, 0x71,
  0x75, 0x65, 0x6e, 0x74, 0x69, 0x61, 0x6c, 0x5f, 0x31, 0x2f, 0x63, 0x6f,
  0x6e, 0x76, 0x31, 0x64, 0x5f, 0x32, 0x5f, 0x31, 0x2f, 0x63, 0x6f, 0x6e,
  0x76, 0x6f, 0x6c, 0x75, 0x74, 0x69, 0x6f, 0x6e, 0x2f, 0x53, 0x71, 0x75,
  0x65, 0x65, 0x7a, 0x65, 0x3b, 0x73, 0x65, 0x71, 0x75, 0x65, 0x6e, 0x74,
  0x69, 0x61, 0x6c, 0x5f, 0x31, 0x2f, 0x62, 0x61, 0x74, 0x63, 0x68, 0x5f,
  0x6e, 0x6f, 0x72, 0x6d, 0x61, 0x6c, 0x69, 0x7a, 0x61, 0x74, 0x69, 0x6f,
  0x6e, 0x5f, 0x32, 0x5f, 0x31, 0x2f, 0x62, 0x61, 0x74, 0x63, 0x68, 0x6e,
  0x6f, 0x72, 0x6d, 0x2f, 0x6d, 0x75, 0x6c, 0x5f, 0x31, 0x3b, 0x73, 0x65,
  0x71, 0x75, 0x65, 0x6e, 0x74, 0x69, 0x61, 0x6c, 0x5f, 0x31, 0x2f, 0x72,
  0x65, 0x5f, 0x6c, 0x75, 0x5f, 0x32, 0x5f, 0x31, 0x2f, 0x52, 0x65, 0x6c,
  0x75, 0x3b, 0x73, 0x65, 0x71, 0x75, 0x65, 0x6e, 0x74, 0x69, 0x61, 0x6c,
  0x5f, 0x31, 0x2f, 0x63, 0x6f, 0x6e, 0x76, 0x31, 0x64, 0x5f, 0x32, 0x5f,
  0x31, 0x2f, 0x42, 0x69, 0x61, 0x73, 0x41, 0x64, 0x64, 0x3b, 0x31, 0x00,
  0x03, 0x00, 0x00, 0x00, 0x01, 0x00, 0x00, 0x00, 0x04, 0x00, 0x00, 0x00,
  0x14, 0x00, 0x00, 0x00, 0xfe, 0xea, 0xff, 0xff, 0x00, 0x00, 0x00, 0x01,
  0x14, 0x00, 0x00, 0x00, 0x24, 0x00, 0x00, 0x00, 0x24, 0x00, 0x00, 0x00,
  0x2d, 0x00, 0x00, 0x00, 0xf4, 0x00, 0x00, 0x00, 0x04, 0x00, 0x00, 0x00,
  0xff, 0xff, 0xff, 0xff, 0x01, 0x00, 0x00, 0x00, 0x04, 0x00, 0x00, 0x00,
  0x14, 0x00, 0x00, 0x00, 0x60, 0xea, 0xff, 0xff, 0xd2, 0x00, 0x00, 0x00,
  0x73, 0x65, 0x71, 0x75, 0x65, 0x6e, 0x74, 0x69, 0x61, 0x6c, 0x5f, 0x31,
  0x2f, 0x62, 0x61, 0x74, 0x63, 0x68, 0x5f, 0x6e, 0x6f, 0x72, 0x6d, 0x61,
  0x6c, 0x69, 0x7a, 0x61, 0x74, 0x69, 0x6f, 0x6e, 0x5f, 0x32, 0x5f, 0x31,
  0x2f, 0x62, 0x61, 0x74, 0x63, 0x68, 0x6e, 0x6f, 0x72, 0x6d, 0x2f, 0x61,
  0x64, 0x64, 0x5f, 0x31, 0x3b, 0x73, 0x65, 0x71, 0x75, 0x65, 0x6e, 0x74,
  0x69, 0x61, 0x6c, 0x5f, 0x31, 0x2f, 0x63, 0x6f, 0x6e, 0x76, 0x31, 0x64,
  0x5f, 0x32, 0x5f, 0x31, 0x2f, 0x63, 0x6f, 0x6e, 0x76, 0x6f, 0x6c, 0x75,
  0x74, 0x69, 0x6f, 0x6e, 0x2f, 0x53, 0x71, 0x75, 0x65, 0x65, 0x7a, 0x65,
  0x3b, 0x73, 0x65, 0x71, 0x75, 0x65, 0x6e, 0x74, 0x69, 0x61, 0x6c, 0x5f,
  0x31, 0x2f, 0x62, 0x61, 0x74, 0x63, 0x68, 0x5f, 0x6e, 0x6f, 0x72, 0x6d,
  0x61, 0x6c, 0x69, 0x7a, 0x61, 0x74, 0x69, 0x6f, 0x6e, 0x5f, 0x32, 0x5f,
  0x31, 0x2f, 0x62, 0x61, 0x74, 0x63, 0x68, 0x6e, 0x6f, 0x72, 0x6d, 0x2f,
  0x6d, 0x75, 0x6c, 0x5f, 0x31, 0x3b, 0x73, 0x65, 0x71, 0x75, 0x65, 0x6e,
  0x74, 0x69, 0x61, 0x6c, 0x5f, 0x31, 0x2f, 0x72, 0x65, 0x5f, 0x6c, 0x75,
  0x5f, 0x32, 0x5f, 0x31, 0x2f, 0x52, 0x65, 0x6c, 0x75, 0x3b, 0x73, 0x65,
  0x71, 0x75, 0x65, 0x6e, 0x74, 0x69, 0x61, 0x6c, 0x5f, 0x31, 0x2f, 0x63,
  0x6f, 0x6e, 0x76, 0x31, 0x64, 0x5f, 0x32, 0x5f, 0x31, 0x2f, 0x42, 0x69,
  0x61, 0x73, 0x41, 0x64, 0x64, 0x3b, 0x00, 0x00, 0x04, 0x00, 0x00, 0x00,
  0x01, 0x00, 0x00, 0x00, 0x01, 0x00, 0x00, 0x00, 0x04, 0x00, 0x00, 0x00,
  0x14, 0x00, 0x00, 0x00, 0x1e, 0xec, 0xff, 0xff, 0x00, 0x00, 0x00, 0x01,
  0x14, 0x00, 0x00, 0x00, 0x24, 0x00, 0x00, 0x00, 0x24, 0x00, 0x00, 0x00,
  0x2c, 0x00, 0x00, 0x00, 0xc0, 0x00, 0x00, 0x00, 0x04, 0x00, 0x00, 0x00,
  0xff, 0xff, 0xff, 0xff, 0x01, 0x00, 0x00, 0x00, 0x04, 0x00, 0x00, 0x00,
  0x14, 0x00, 0x00, 0x00, 0x80, 0xeb, 0xff, 0xff, 0x9d, 0x00, 0x00, 0x00,
  0x73, 0x65, 0x71, 0x75, 0x65, 0x6e, 0x74, 0x69, 0x61, 0x6c, 0x5f, 0x31,
  0x2f, 0x62, 0x61, 0x74, 0x63, 0x68, 0x5f, 0x6e, 0x6f, 0x72, 0x6d, 0x61,
  0x6c, 0x69, 0x7a, 0x61, 0x74, 0x69, 0x6f, 0x6e, 0x5f, 0x32, 0x5f, 0x31,
  0x2f, 0x62, 0x61, 0x74, 0x63, 0x68, 0x6e, 0x6f, 0x72, 0x6d, 0x2f, 0x6d,
  0x75, 0x6c, 0x5f, 0x31, 0x3b, 0x73, 0x65, 0x71, 0x75, 0x65, 0x6e, 0x74,
  0x69, 0x61, 0x6c, 0x5f, 0x31, 0x2f, 0x63, 0x6f, 0x6e, 0x76, 0x31, 0x64,
  0x5f, 0x32, 0x5f, 0x31, 0x2f, 0x63, 0x6f, 0x6e, 0x76, 0x6f, 0x6c, 0x75,
  0x74, 0x69, 0x6f, 0x6e, 0x2f, 0x53, 0x71, 0x75, 0x65, 0x65, 0x7a, 0x65,
  0x3b, 0x73, 0x65, 0x71, 0x75, 0x65, 0x6e, 0x74, 0x69, 0x61, 0x6c, 0x5f,
  0x31, 0x2f, 0x72, 0x65, 0x5f, 0x6c, 0x75, 0x5f, 0x32, 0x5f, 0x31, 0x2f,
  0x52, 0x65, 0x6c, 0x75, 0x3b, 0x73, 0x65, 0x71, 0x75, 0x65, 0x6e, 0x74,
  0x69, 0x61, 0x6c, 0x5f, 0x31, 0x2f, 0x63, 0x6f, 0x6e, 0x76, 0x31, 0x64,
  0x5f, 0x32, 0x5f, 0x31, 0x2f, 0x42, 0x69, 0x61, 0x73, 0x41, 0x64, 0x64,
  0x3b, 0x00, 0x00, 0x00, 0x04, 0x00, 0x00, 0x00, 0x01, 0x00, 0x00, 0x00,
  0x01, 0x00, 0x00, 0x00, 0x04, 0x00, 0x00, 0x00, 0x14, 0x00, 0x00, 0x00,
  0x0a, 0xed, 0xff, 0xff, 0x00, 0x00, 0x00, 0x01, 0x14, 0x00, 0x00, 0x00,
  0x24, 0x00, 0x00, 0x00, 0x24, 0x00, 0x00, 0x00, 0x2b, 0x00, 0x00, 0x00,
  0xb0, 0x00, 0x00, 0x00, 0x04, 0x00, 0x00, 0x00, 0xff, 0xff, 0xff, 0xff,
  0x01, 0x00, 0x00, 0x00, 0x04, 0x00, 0x00, 0x00, 0x14, 0x00, 0x00, 0x00,
  0x6c, 0xec, 0xff, 0xff, 0x8c, 0x00, 0x00, 0x00, 0x73, 0x65, 0x71, 0x75,
  0x65, 0x6e, 0x74, 0x69, 0x61, 0x6c, 0x5f, 0x31, 0x2f, 0x72, 0x65, 0x5f,
  0x6c, 0x75, 0x5f, 0x32, 0x5f, 0x31, 0x2f, 0x52, 0x65, 0x6c, 0x75, 0x3b,
  0x73, 0x65, 0x71, 0x75, 0x65, 0x6e, 0x74, 0x69, 0x61, 0x6c, 0x5f, 0x31,
  0x2f, 0x63, 0x6f, 0x6e, 0x76, 0x31, 0x64, 0x5f, 0x32, 0x5f, 0x31, 0x2f,
  0x42, 0x69, 0x61, 0x73, 0x41, 0x64, 0x64, 0x3b, 0x73, 0x65, 0x71, 0x75,
  0x65, 0x6e, 0x74, 0x69, 0x61, 0x6c, 0x5f, 0x31, 0x2f, 0x63, 0x6f, 0x6e,
  0x76, 0x31, 0x64, 0x5f, 0x32, 0x5f, 0x31, 0x2f, 0x63, 0x6f, 0x6e, 0x76,
  0x6f, 0x6c, 0x75, 0x74, 0x69, 0x6f, 0x6e, 0x2f, 0x53, 0x71, 0x75, 0x65,
  0x65, 0x7a, 0x65, 0x3b, 0x3b, 0x73, 0x65, 0x71, 0x75, 0x65, 0x6e, 0x74,
  0x69, 0x61, 0x6c, 0x5f, 0x31, 0x2f, 0x63, 0x6f, 0x6e, 0x76, 0x31, 0x64,
  0x5f, 0x32, 0x5f, 0x31, 0x2f, 0x63, 0x6f, 0x6e, 0x76, 0x6f, 0x6c, 0x75,
  0x74, 0x69, 0x6f, 0x6e, 0x00, 0x00, 0x00, 0x00, 0x04, 0x00, 0x00, 0x00,
  0x01, 0x00, 0x00, 0x00, 0x01, 0x00, 0x00, 0x00, 0x04, 0x00, 0x00, 0x00,
  0x14, 0x00, 0x00, 0x00, 0xe6, 0xed, 0xff, 0xff, 0x00, 0x00, 0x00, 0x01,
  0x14, 0x00, 0x00, 0x00, 0x24, 0x00, 0x00, 0x00, 0x24, 0x00, 0x00, 0x00,
  0x2a, 0x00, 0x00, 0x00, 0x50, 0x00, 0x00, 0x00, 0x04, 0x00, 0x00, 0x00,
  0xff, 0xff, 0xff, 0xff, 0x01, 0x00, 0x00, 0x00, 0x04, 0x00, 0x00, 0x00,
  0x10, 0x00, 0x00, 0x00, 0x48, 0xed, 0xff, 0xff, 0x2e, 0x00, 0x00, 0x00,
  0x73, 0x65, 0x71, 0x75, 0x65, 0x6e, 0x74, 0x69, 0x61, 0x6c, 0x5f, 0x31,
  0x2f, 0x63, 0x6f, 0x6e, 0x76, 0x31, 0x64, 0x5f, 0x32, 0x5f, 0x31, 0x2f,
  0x63, 0x6f, 0x6e, 0x76, 0x6f, 0x6c, 0x75, 0x74, 0x69, 0x6f, 0x6e, 0x2f,
  0x45, 0x78, 0x70, 0x61, 0x6e, 0x64, 0x44, 0x69, 0x6d, 0x73, 0x00, 0x00,
  0x04, 0x00, 0x00, 0x00, 0x01, 0x00, 0x00, 0x00, 0x01, 0x00, 0x00, 0x00,
  0x04, 0x00, 0x00, 0x00, 0x10, 0x00, 0x00, 0x00, 0x62, 0xee, 0xff, 0xff,
  0x00, 0x00, 0x00, 0x01, 0x14, 0x00, 0x00, 0x00, 0x20, 0x00, 0x00, 0x00,
  0x20, 0x00, 0x00, 0x00, 0x29, 0x00, 0x00, 0x00, 0x50, 0x00, 0x00, 0x00,
  0x03, 0x00, 0x00, 0x00, 0xff, 0xff, 0xff, 0xff, 0x04, 0x00, 0x00, 0x00,
  0x10, 0x00, 0x00, 0x00, 0xc0, 0xed, 0xff, 0xff, 0x30, 0x00, 0x00, 0x00,
  0x73, 0x65, 0x71, 0x75, 0x65, 0x6e, 0x74, 0x69, 0x61, 0x6c, 0x5f, 0x31,
  0x2f, 0x6d, 0x61, 0x78, 0x5f, 0x70, 0x6f, 0x6f, 0x6c, 0x69, 0x6e, 0x67,
  0x31, 0x64, 0x5f, 0x31, 0x5f, 0x32, 0x2f, 0x4d, 0x61, 0x78, 0x50, 0x6f,
  0x6f, 0x6c, 0x31, 0x64, 0x2f, 0x53, 0x71, 0x75, 0x65, 0x65, 0x7a, 0x65,
  0x00, 0x00, 0x00, 0x00, 0x03, 0x00, 0x00, 0x00, 0x01, 0x00, 0x00, 0x00,
  0x04, 0x00, 0x00, 0x00, 0x10, 0x00, 0x00, 0x00, 0xda, 0xee, 0xff, 0xff,
  0x00, 0x00, 0x00, 0x01, 0x14, 0x00, 0x00, 0x00, 0x24, 0x00, 0x00, 0x00,
  0x24, 0x00, 0x00, 0x00, 0x28, 0x00, 0x00, 0x00, 0x4c, 0x00, 0x00, 0x00,
  0x04, 0x00, 0x00, 0x00, 0xff, 0xff, 0xff, 0xff, 0x01, 0x00, 0x00, 0x00,
  0x04, 0x00, 0x00, 0x00, 0x10, 0x00, 0x00, 0x00, 0x3c, 0xee, 0xff, 0xff,
  0x28, 0x00, 0x00, 0x00, 0x73, 0x65, 0x71, 0x75, 0x65, 0x6e, 0x74, 0x69,
  0x61, 0x6c, 0x5f, 0x31, 0x2f, 0x6d, 0x61, 0x78, 0x5f, 0x70, 0x6f, 0x6f,
  0x6c, 0x69, 0x6e, 0x67, 0x31, 0x64, 0x5f, 0x31, 0x5f, 0x32, 0x2f, 0x4d,
  0x61, 0x78, 0x50, 0x6f, 0x6f, 0x6c, 0x31, 0x64, 0x00, 0x00, 0x00, 0x00,
  0x04, 0x00, 0x00, 0x00, 0x01, 0x00, 0x00, 0x00, 0x01, 0x00, 0x00, 0x00,
  0x04, 0x00, 0x00, 0x00, 0x10, 0x00, 0x00, 0x00, 0x52, 0xef, 0xff, 0xff,
  0x00, 0x00, 0x00, 0x01, 0x14, 0x00, 0x00, 0x00, 0x24, 0x00, 0x00, 0x00,
  0x24, 0x00, 0x00, 0x00, 0x27, 0x00, 0x00, 0x00, 0x54, 0x00, 0x00, 0x00,
  0x04, 0x00, 0x00, 0x00, 0xff, 0xff, 0xff, 0xff, 0x01, 0x00, 0x00, 0x00,
  0x08, 0x00, 0x00, 0x00, 0x10, 0x00, 0x00, 0x00, 0xb4, 0xee, 0xff, 0xff,
  0x33, 0x00, 0x00, 0x00, 0x73, 0x65, 0x71, 0x75, 0x65, 0x6e, 0x74, 0x69,
  0x61, 0x6c, 0x5f, 0x31, 0x2f, 0x6d, 0x61, 0x78, 0x5f, 0x70, 0x6f, 0x6f,
  0x6c, 0x69, 0x6e, 0x67, 0x31, 0x64, 0x5f, 0x31, 0x5f, 0x32, 0x2f, 0x4d,
  0x61, 0x78, 0x50, 0x6f, 0x6f, 0x6c, 0x31, 0x64, 0x2f, 0x45, 0x78, 0x70,
  0x61, 0x6e, 0x64, 0x44, 0x69, 0x6d, 0x73, 0x00, 0x04, 0x00, 0x00, 0x00,
  0x01, 0x00, 0x00, 0x00, 0x01, 0x00, 0x00, 0x00, 0x08, 0x00, 0x00, 0x00,
  0x10, 0x00, 0x00, 0x00, 0xd2, 0xef, 0xff, 0xff, 0x00, 0x00, 0x00, 0x01,
  0x14, 0x00, 0x00, 0x00, 0x20, 0x00, 0x00, 0x00, 0x20, 0x00, 0x00, 0x00,
  0x26, 0x00, 0x00, 0x00, 0xf0, 0x00, 0x00, 0x00, 0x03, 0x00, 0x00, 0x00,
  0xff, 0xff, 0xff, 0xff, 0x08, 0x00, 0x00, 0x00, 0x10, 0x00, 0x00, 0x00,
  0x30, 0xef, 0xff, 0xff, 0xd3, 0x00, 0x00, 0x00, 0x73, 0x65, 0x71, 0x75,
  0x65, 0x6e, 0x74, 0x69, 0x61, 0x6c, 0x5f, 0x31, 0x2f, 0x62, 0x61, 0x74,
  0x63, 0x68, 0x5f, 0x6e, 0x6f, 0x72, 0x6d, 0x61, 0x6c, 0x69, 0x7a, 0x61,
  0x74, 0x69, 0x6f, 0x6e, 0x5f, 0x31, 0x5f, 0x32, 0x2f, 0x62, 0x61, 0x74,
  0x63, 0x68, 0x6e, 0x6f, 0x72, 0x6d, 0x2f, 0x61, 0x64, 0x64, 0x5f, 0x31,
  0x3b, 0x73, 0x65, 0x71, 0x75, 0x65, 0x6e, 0x74, 0x69, 0x61, 0x6c, 0x5f,
  0x31, 0x2f, 0x63, 0x6f, 0x6e, 0x76, 0x31, 0x64, 0x5f, 0x31, 0x5f, 0x32,
  0x2f, 0x63, 0x6f, 0x6e, 0x76, 0x6f, 0x6c, 0x75, 0x74, 0x69, 0x6f, 0x6e,
  0x2f, 0x53, 0x71, 0x75, 0x65, 0x65, 0x7a, 0x65, 0x3b, 0x73, 0x65, 0x71,
  0x75, 0x65, 0x6e, 0x74, 0x69, 0x61, 0x6c, 0x5f, 0x31, 0x2f, 0x62, 0x61,
  0x74, 0x63, 0x68, 0x5f, 0x6e, 0x6f, 0x72, 0x6d, 0x61, 0x6c, 0x69, 0x7a,
  0x61, 0x74, 0x69, 0x6f, 0x6e, 0x5f, 0x31, 0x5f, 0x32, 0x2f, 0x62, 0x61,
  0x74, 0x63, 0x68, 0x6e, 0x6f, 0x72, 0x6d, 0x2f, 0x6d, 0x75, 0x6c, 0x5f,
  0x31, 0x3b, 0x73, 0x65, 0x71, 0x75, 0x65, 0x6e, 0x74, 0x69, 0x61, 0x6c,
  0x5f, 0x31, 0x2f, 0x72, 0x65, 0x5f, 0x6c, 0x75, 0x5f, 0x31, 0x5f, 0x32,
  0x2f, 0x52, 0x65, 0x6c, 0x75, 0x3b, 0x73, 0x65, 0x71, 0x75, 0x65, 0x6e,
  0x74, 0x69, 0x61, 0x6c, 0x5f, 0x31, 0x2f, 0x63, 0x6f, 0x6e, 0x76, 0x31,
  0x64, 0x5f, 0x31, 0x5f, 0x32, 0x2f, 0x42, 0x69, 0x61, 0x73, 0x41, 0x64,
  0x64, 0x3b, 0x31, 0x00, 0x03, 0x00, 0x00, 0x00, 0x01, 0x00, 0x00, 0x00,
  0x08, 0x00, 0x00, 0x00, 0x10, 0x00, 0x00, 0x00, 0xea, 0xf0, 0xff, 0xff,
  0x00, 0x00, 0x00, 0x01, 0x14, 0x00, 0x00, 0x00, 0x24, 0x00, 0x00, 0x00,
  0x24, 0x00, 0x00, 0x00, 0x25, 0x00, 0x00, 0x00, 0xf4, 0x00, 0x00, 0x00,
  0x04, 0x00, 0x00, 0x00, 0xff, 0xff, 0xff, 0xff, 0x01, 0x00, 0x00, 0x00,
  0x08, 0x00, 0x00, 0x00, 0x10, 0x00, 0x00, 0x00, 0x4c, 0xf0, 0xff, 0xff,
  0xd2, 0x00, 0x00, 0x00, 0x73, 0x65, 0x71, 0x75, 0x65, 0x6e, 0x74, 0x69,
  0x61, 0x6c, 0x5f, 0x31, 0x2f, 0x62, 0x61, 0x74, 0x63, 0x68, 0x5f, 0x6e,
  0x6f, 0x72, 0x6d, 0x61, 0x6c, 0x69, 0x7a, 0x61, 0x74, 0x69, 0x6f, 0x6e,
  0x5f, 0x31, 0x5f, 0x32, 0x2f, 0x62, 0x61, 0x74, 0x63, 0x68, 0x6e, 0x6f,
  0x72, 0x6d, 0x2f, 0x61, 0x64, 0x64, 0x5f, 0x31, 0x3b, 0x73, 0x65, 0x71,
  0x75, 0x65, 0x6e, 0x74, 0x69, 0x61, 0x6c, 0x5f, 0x31, 0x2f, 0x63, 0x6f,
  0x6e, 0x76, 0x31, 0x64, 0x5f, 0x31, 0x5f, 0x32, 0x2f, 0x63, 0x6f, 0x6e,
  0x76, 0x6f, 0x6c, 0x75, 0x74, 0x69, 0x6f, 0x6e, 0x2f, 0x53, 0x71, 0x75,
  0x65, 0x65, 0x7a, 0x65, 0x3b, 0x73, 0x65, 0x71, 0x75, 0x65, 0x6e, 0x74,
  0x69, 0x61, 0x6c, 0x5f, 0x31, 0x2f, 0x62, 0x61, 0x74, 0x63, 0x68, 0x5f,
  0x6e, 0x6f, 0x72, 0x6d, 0x61, 0x6c, 0x69, 0x7a, 0x61, 0x74, 0x69, 0x6f,
  0x6e, 0x5f, 0x31, 0x5f, 0x32, 0x2f, 0x62, 0x61, 0x74, 0x63, 0x68, 0x6e,
  0x6f, 0x72, 0x6d, 0x2f, 0x6d, 0x75, 0x6c, 0x5f, 0x31, 0x3b, 0x73, 0x65,
  0x71, 0x75, 0x65, 0x6e, 0x74, 0x69, 0x61, 0x6c, 0x5f, 0x31, 0x2f, 0x72,
  0x65, 0x5f, 0x6c, 0x75, 0x5f, 0x31, 0x5f, 0x32, 0x2f, 0x52, 0x65, 0x6c,
  0x75, 0x3b, 0x73, 0x65, 0x71, 0x75, 0x65, 0x6e, 0x74, 0x69, 0x61, 0x6c,
  0x5f, 0x31, 0x2f, 0x63, 0x6f, 0x6e, 0x76, 0x31, 0x64, 0x5f, 0x31, 0x5f,
  0x32, 0x2f, 0x42, 0x69, 0x61, 0x73, 0x41, 0x64, 0x64, 0x3b, 0x00, 0x00,
